{
  "version": "1.0",
  "truncation": null,
  "padding": null,
  "added_tokens": [
    {
      "id": 0,
      "content": "<|endoftext|>",
      "single_word": false,
      "lstrip": false,
      "rstrip": false,
      "normalized": false,
      "special": true
    }
  ],
  "normalizer": null,
  "pre_tokenizer": {
    "type": "Sequence",
    "pretokenizers": [
      {
        "type": "Split",
        "pattern": {
          "Regex": "'(?:[sdmt]|ll|ve|re)| ?\\p{L}+| ?\\p{N}+| ?[^\\s\\p{L}\\p{N}]+|\\s+(?!\\S)|\\s+"
        },
        "behavior": "Isolated",
        "invert": false
      },
      {
        "type": "ByteLevel",
        "add_prefix_space": false,
        "trim_offsets": true,
        "use_regex": false
      }
    ]
  },
  "post_processor": null,
  "decoder": {
    "type": "ByteLevel",
    "add_prefix_space": true,
    "trim_offsets": true,
    "use_regex": true
  },
  "model": {
    "type": "BPE",
    "dropout": null,
    "unk_token": null,
    "continuing_subword_prefix": null,
    "end_of_word_suffix": null,
    "fuse_unk": false,
    "byte_fallback": false,
    "ignore_merges": false,
    "vocab": {
      "<|endoftext|>": 0,
      "!": 1,
      "\"": 2,
      "#": 3,
      "$": 4,
      "%": 5,
      "&": 6,
      "'": 7,
      "(": 8,
      ")": 9,
      "*": 10,
      "+": 11,
      ",": 12,
      "-": 13,
      ".": 14,
      "/": 15,
      "0": 16,
      "1": 17,
      "2": 18,
      "3": 19,
      "4": 20,
      "5": 21,
      "6": 22,
      "7": 23,
      "8": 24,
      "9": 25,
      ":": 26,
      ";": 27,
      "<": 28,
      "=": 29,
      ">": 30,
      "?": 31,
      "@": 32,
      "A": 33,
      "B": 34,
      "C": 35,
      "D": 36,
      "E": 37,
      "F": 38,
      "G": 39,
      "H": 40,
      "I": 41,
      "J": 42,
      "K": 43,
      "L": 44,
      "M": 45,
      "N": 46,
      "O": 47,
      "P": 48,
      "Q": 49,
      "R": 50,
      "S": 51,
      "T": 52,
      "U": 53,
      "V": 54,
      "W": 55,
      "X": 56,
      "Y": 57,
      "Z": 58,
      "[": 59,
      "\\": 60,
      "]": 61,
      "^": 62,
      "_": 63,
      "`": 64,
      "a": 65,
      "b": 66,
      "c": 67,
      "d": 68,
      "e": 69,
      "f": 70,
      "g": 71,
      "h": 72,
      "i": 73,
      "j": 74,
      "k": 75,
      "l": 76,
      "m": 77,
      "n": 78,
      "o": 79,
      "p": 80,
      "q": 81,
      "r": 82,
      "s": 83,
      "t": 84,
      "u": 85,
      "v": 86,
      "w": 87,
      "x": 88,
      "y": 89,
      "z": 90,
      "{": 91,
      "|": 92,
      "}": 93,
      "~": 94,
      "¡": 95,
      "¢": 96,
      "£": 97,
      "¤": 98,
      "¥": 99,
      "¦": 100,
      "§": 101,
      "¨": 102,
      "©": 103,
      "ª": 104,
      "«": 105,
      "¬": 106,
      "®": 107,
      "¯": 108,
      "°": 109,
      "±": 110,
      "²": 111,
      "³": 112,
      "´": 113,
      "µ": 114,
      "¶": 115,
      "·": 116,
      "¸": 117,
      "¹": 118,
      "º": 119,
      "»": 120,
      "¼": 121,
      "½": 122,
      "¾": 123,
      "¿": 124,
      "À": 125,
      "Á": 126,
      "Â": 127,
      "Ã": 128,
      "Ä": 129,
      "Å": 130,
      "Æ": 131,
      "Ç": 132,
      "È": 133,
      "É": 134,
      "Ê": 135,
      "Ë": 136,
      "Ì": 137,
      "Í": 138,
      "Î": 139,
      "Ï": 140,
      "Ð": 141,
      "Ñ": 142,
      "Ò": 143,
      "Ó": 144,
      "Ô": 145,
      "Õ": 146,
      "Ö": 147,
      "×": 148,
      "Ø": 149,
      "Ù": 150,
      "Ú": 151,
      "Û": 152,
      "Ü": 153,
      "Ý": 154,
      "Þ": 155,
      "ß": 156,
      "à": 157,
      "á": 158,
      "â": 159,
      "ã": 160,
      "ä": 161,
      "å": 162,
      "æ": 163,
      "ç": 164,
      "è": 165,
      "é": 166,
      "ê": 167,
      "ë": 168,
      "ì": 169,
      "í": 170,
      "î": 171,
      "ï": 172,
      "ð": 173,
      "ñ": 174,
      "ò": 175,
      "ó": 176,
      "ô": 177,
      "õ": 178,
      "ö": 179,
      "÷": 180,
      "ø": 181,
      "ù": 182,
      "ú": 183,
      "û": 184,
      "ü": 185,
      "ý": 186,
      "þ": 187,
      "ÿ": 188,
      "Ā": 189,
      "ā": 190,
      "Ă": 191,
      "ă": 192,
      "Ą": 193,
      "ą": 194,
      "Ć": 195,
      "ć": 196,
      "Ĉ": 197,
      "ĉ": 198,
      "Ċ": 199,
      "ċ": 200,
      "Č": 201,
      "č": 202,
      "Ď": 203,
      "ď": 204,
      "Đ": 205,
      "đ": 206,
      "Ē": 207,
      "ē": 208,
      "Ĕ": 209,
      "ĕ": 210,
      "Ė": 211,
      "ė": 212,
      "Ę": 213,
      "ę": 214,
      "Ě": 215,
      "ě": 216,
      "Ĝ": 217,
      "ĝ": 218,
      "Ğ": 219,
      "ğ": 220,
      "Ġ": 221,
      "ġ": 222,
      "Ģ": 223,
      "ģ": 224,
      "Ĥ": 225,
      "ĥ": 226,
      "Ħ": 227,
      "ħ": 228,
      "Ĩ": 229,
      "ĩ": 230,
      "Ī": 231,
      "ī": 232,
      "Ĭ": 233,
      "ĭ": 234,
      "Į": 235,
      "į": 236,
      "İ": 237,
      "ı": 238,
      "Ĳ": 239,
      "ĳ": 240,
      "Ĵ": 241,
      "ĵ": 242,
      "Ķ": 243,
      "ķ": 244,
      "ĸ": 245,
      "Ĺ": 246,
      "ĺ": 247,
      "Ļ": 248,
      "ļ": 249,
      "Ľ": 250,
      "ľ": 251,
      "Ŀ": 252,
      "ŀ": 253,
      "Ł": 254,
      "ł": 255,
      "Ń": 256,
      "Ġt": 257,
      "in": 258,
      "er": 259,
      "Ġa": 260,
      "on": 261,
      "he": 262,
      "es": 263,
      "Ġs": 264,
      "or": 265,
      "an": 266,
      "Ġthe": 267,
      "ed": 268,
      "en": 269,
      "ar": 270,
      "it": 271,
      "at": 272,
      "Ġf": 273,
      "Ġo": 274,
      "Ġc": 275,
      "ing": 276,
      "al": 277,
      "Ġw": 278,
      "re": 279,
      "Ġp": 280,
      "Ġto": 281,
      "Ġb": 282,
      "is": 283,
      "Ġin": 284,
      "ic": 285,
      "ro": 286,
      "as": 287,
      "Ġof": 288,
      "ĠS": 289,
      "Ġm": 290,
      "ay": 291,
      "il": 292,
      "nd": 293,
      "Ġh": 294,
      "ion": 295,
      "ter": 296,
      "le": 297,
      "Ġd": 298,
      "ĠA": 299,
      "ou": 300,
      "ĠT": 301,
      "ĠC": 302,
      "id": 303,
      "om": 304,
      "st": 305,
      "ent": 306,
      "Ġand": 307,
      "ĠM": 308,
      "Ġon": 309,
      "et": 310,
      "el": 311,
      "ac": 312,
      "ur": 313,
      "Ġth": 314,
      "ec": 315,
      "ĠI": 316,
      "ĠP": 317,
      "ad": 318,
      "Ġfor": 319,
      "ĠB": 320,
      "Ġn": 321,
      "Ġl": 322,
      "ig": 323,
      "ol": 324,
      "am": 325,
      "ot": 326,
      "ir": 327,
      "Ġre": 328,
      "Ġg": 329,
      "ut": 330,
      "Ġe": 331,
      "Ġ-": 332,
      "ers": 333,
      "ĠW": 334,
      "Ġ#": 335,
      "day": 336,
      "us": 337,
      "ĠN": 338,
      "39": 339,
      "ĠF": 340,
      "ve": 341,
      "ĠR": 342,
      "ill": 343,
      "Ġst": 344,
      "Ġr": 345,
      "Ġ(": 346,
      "ow": 347,
      "est": 348,
      "Ġit": 349,
      "im": 350,
      "ĠD": 351,
      "th": 352,
      "ver": 353,
      "ĠU": 354,
      "ra": 355,
      "ation": 356,
      "ĠG": 357,
      "un": 358,
      "ĠH": 359,
      "ly": 360,
      "ĠL": 361,
      "qu": 362,
      "ts": 363,
      "ch": 364,
      "up": 365,
      "ith": 366,
      "ĠE": 367,
      "ew": 368,
      "ear": 369,
      "Ġan": 370,
      "ĠO": 371,
      "Ġat": 372,
      "ce": 373,
      "os": 374,
      "ak": 375,
      "igh": 376,
      "Ġbe": 377,
      "ul": 378,
      "Ġas": 379,
      "and": 380,
      "Ġthat": 381,
      "Ġwith": 382,
      "ag": 383,
      "ri": 384,
      "em": 385,
      "ld": 386,
      "ters": 387,
      "op": 388,
      "ĠThe": 389,
      "ess": 390,
      "Ġcom": 391,
      "Ġpro": 392,
      "ain": 393,
      "Ġ1": 394,
      "Ġis": 395,
      "Ġy": 396,
      "ĠJ": 397,
      "oc": 398,
      "Ġsa": 399,
      "ks": 400,
      "Ġcon": 401,
      "Ġits": 402,
      "ĠIn": 403,
      "'s": 404,
      "ct": 405,
      "all": 406,
      "ian": 407,
      "ap": 408,
      "Ġ2": 409,
      "Ġhe": 410,
      "00": 411,
      "Ġv": 412,
      "Ġde": 413,
      "ate": 414,
      "uters": 415,
      "ast": 416,
      "Ġsaid": 417,
      "um": 418,
      "Ġby": 419,
      "ft": 420,
      "ĠSt": 421,
      "ore": 422,
      "ies": 423,
      "ia": 424,
      "ost": 425,
      "our": 426,
      "end": 427,
      "Ġhas": 428,
      "por": 429,
      "Ġle": 430,
      "rom": 431,
      "ee": 432,
      "Ġsh": 433,
      "Ġqu": 434,
      "Ġwh": 435,
      "Ġex": 436,
      "ight": 437,
      "Ġpl": 438,
      "ĠK": 439,
      "ust": 440,
      "euters": 441,
      "Ġch": 442,
      "oo": 443,
      "ack": 444,
      "und": 445,
      "Ġcomp": 446,
      "Ġfrom": 447,
      "ist": 448,
      "ment": 449,
      "iv": 450,
      "ity": 451,
      "ard": 452,
      "art": 453,
      "Ġag": 454,
      "ial": 455,
      "pp": 456,
      "if": 457,
      "Ġpr": 458,
      "oun": 459,
      "Ġoff": 460,
      "fter": 461,
      "..": 462,
      "esday": 463,
      "ine": 464,
      "ug": 465,
      "ĠCh": 466,
      "ive": 467,
      "Ġhis": 468,
      "ud": 469,
      "ell": 470,
      "Ġwas": 471,
      "Ġwill": 472,
      "Ġk": 473,
      "ted": 474,
      "ave": 475,
      "Ġal": 476,
      "ry": 477,
      "gt": 478,
      "ĠTh": 479,
      "lt": 480,
      "ab": 481,
      "Ġnew": 482,
      "ord": 483,
      "Ġsp": 484,
      "ice": 485,
      "ob": 486,
      "Ġafter": 487,
      "ĠY": 488,
      "ip": 489,
      "Reuters": 490,
      "oft": 491,
      "Ġover": 492,
      "mer": 493,
      "ere": 494,
      "Ġj": 495,
      "Ġfir": 496,
      "Ġse": 497,
      "Ġwor": 498,
      "ff": 499,
      "ions": 500,
      "arg": 501,
      "ace": 502,
      "ould": 503,
      "se": 504,
      "ĠV": 505,
      "are": 506,
      "ĠFr": 507,
      "ans": 508,
      "ie": 509,
      "ub": 510,
      "ĠUS": 511,
      "ong": 512,
      "Ġup": 513,
      "ning": 514,
      "ays": 515,
      "\\$": 516,
      "Ġcl": 517,
      "Ġhave": 518,
      "ick": 519,
      "old": 520,
      "any": 521,
      "uc": 522,
      "Ġyear": 523,
      "tern": 524,
      "out": 525,
      "Ġtheir": 526,
      "wo": 527,
      "Ġare": 528,
      "ue": 529,
      "Ġout": 530,
      "ame": 531,
      "ge": 532,
      "Ġac": 533,
      "Ġ\\$": 534,
      "ome": 535,
      "Ġro": 536,
      "ail": 537,
      "illion": 538,
      "Ġquot": 539,
      "Ġun": 540,
      "ke": 541,
      "ĠPr": 542,
      "over": 543,
      "Ġsec": 544,
      "ide": 545,
      "ign": 546,
      "ant": 547,
      "ident": 548,
      "ree": 549,
      "ile": 550,
      "ros": 551,
      "ark": 552,
      "AP": 553,
      "ex": 554,
      "ime": 555,
      "od": 556,
      "ire": 557,
      "Ġexp": 558,
      "ond": 559,
      "raq": 560,
      "Ġint": 561,
      "ep": 562,
      "Ġab": 563,
      "ors": 564,
      "og": 565,
      "ake": 566,
      "ens": 567,
      "Ġfirst": 568,
      "av": 569,
      "own": 570,
      "ĠMon": 571,
      "ĠUn": 572,
      "ass": 573,
      "ich": 574,
      "Ġres": 575,
      "Ġtwo": 576,
      "ish": 577,
      "amp": 578,
      "age": 579,
      "ices": 580,
      "ĠIraq": 581,
      "ase": 582,
      "urs": 583,
      "ations": 584,
      "eek": 585,
      "ber": 586,
      "one": 587,
      "port": 588,
      "Ġ200": 589,
      "ON": 590,
      "com": 591,
      "Ġop": 592,
      "Ġ--": 593,
      "oll": 594,
      "ure": 595,
      "ates": 596,
      "row": 597,
      "ĠNew": 598,
      "Ġagain": 599,
      "ary": 600,
      "Ġper": 601,
      "rop": 602,
      "ĠAP": 603,
      "Ġmore": 604,
      "ect": 605,
      "hen": 606,
      "Ġbut": 607,
      "iday": 608,
      "ther": 609,
      "esident": 610,
      "act": 611,
      "Ġlead": 612,
      "Ġcont": 613,
      "Ġsc": 614,
      "ach": 615,
      "Ġ3": 616,
      "Ġrec": 617,
      "ets": 618,
      "edn": 619,
      "Ġfin": 620,
      "ote": 621,
      "ednesday": 622,
      "erv": 623,
      "ĠMonday": 624,
      "ance": 625,
      "...": 626,
      "uesday": 627,
      "Ġte": 628,
      "hn": 629,
      "hed": 630,
      "rit": 631,
      "ĠWednesday": 632,
      "ov": 633,
      "Ġwin": 634,
      "ursday": 635,
      "ĠTuesday": 636,
      "ory": 637,
      "Ġen": 638,
      "iz": 639,
      "mp": 640,
      "Ġtr": 641,
      "ank": 642,
      "lect": 643,
      "ĠInc": 644,
      "ĠThursday": 645,
      "ite": 646,
      "Ġcompany": 647,
      "anc": 648,
      "iss": 649,
      "aw": 650,
      "Ġthis": 651,
      "Ġnot": 652,
      "Ġad": 653,
      "ence": 654,
      "ull": 655,
      "ade": 656,
      "Ġdis": 657,
      "ated": 658,
      "ĠFriday": 659,
      "ational": 660,
      "arter": 661,
      "ous": 662,
      "ict": 663,
      "vest": 664,
      "ount": 665,
      "ood": 666,
      "Ġone": 667,
      "eop": 668,
      "ĠSh": 669,
      "ited": 670,
      "ock": 671,
      "ash": 672,
      "earch": 673,
      "ork": 674,
      "ort": 675,
      "Ġagainst": 676,
      "icros": 677,
      ";/": 678,
      "Ġapp": 679,
      "Ġthan": 680,
      "ester": 681,
      "OR": 682,
      "eople": 683,
      "urn": 684,
      "etw": 685,
      "ican": 686,
      "Ġinto": 687,
      "Ġus": 688,
      "oin": 689,
      "ason": 690,
      "gh": 691,
      "Ġweek": 692,
      "Ġlast": 693,
      "ound": 694,
      "esterday": 695,
      "Ġacc": 696,
      "oy": 697,
      "orm": 698,
      "ush": 699,
      "ĠAn": 700,
      "Ġwho": 701,
      "Ġyesterday": 702,
      "ven": 703,
      "Ġabout": 704,
      "Ġplay": 705,
      "Ġinc": 706,
      "icrosoft": 707,
      "als": 708,
      "Ġar": 709,
      "ĠCor": 710,
      "Ġcr": 711,
      "eb": 712,
      "ĠInd": 713,
      "man": 714,
      "her": 715,
      "ib": 716,
      "ĠSp": 717,
      "Ġwere": 718,
      "roup": 719,
      "ĠCom": 720,
      "Ġthey": 721,
      "Ġoffic": 722,
      "Ġann": 723,
      "Ġall": 724,
      "land": 725,
      "overn": 726,
      "Ġatt": 727,
      "ware": 728,
      "oss": 729,
      "ina": 730,
      "Ġbeen": 731,
      "Ġear": 732,
      "pl": 733,
      "Ġ&": 734,
      "ext": 735,
      "ĠIs": 736,
      "ĠIntern": 737,
      "Ġim": 738,
      "Ġworld": 739,
      "ition": 740,
      "ocks": 741,
      "Ġor": 742,
      "reat": 743,
      "ey": 744,
      "vel": 745,
      "ical": 746,
      "its": 747,
      "Ġman": 748,
      "Ġ4": 749,
      "yst": 750,
      "ird": 751,
      "uct": 752,
      "Ġhigh": 753,
      "eat": 754,
      "ang": 755,
      "ton": 756,
      "ll": 757,
      "Ġmillion": 758,
      "Ġhad": 759,
      "Ġstr": 760,
      "Ġmark": 761,
      "ĠAs": 762,
      "Ġthree": 763,
      "ind": 764,
      "Ġkill": 765,
      "ĠCorp": 766,
      "eral": 767,
      "ced": 768,
      "overnment": 769,
      "ral": 770,
      "onth": 771,
      "AN": 772,
      "ower": 773,
      "Qu": 774,
      "Ġret": 775,
      "tle": 776,
      "ose": 777,
      "Ġbl": 778,
      "ĠLe": 779,
      "ook": 780,
      "hes": 781,
      "ased": 782,
      "cent": 783,
      "ilit": 784,
      "ise": 785,
      "Ġ6": 786,
      "ĠPro": 787,
      "uss": 788,
      "gr": 789,
      "line": 790,
      "ected": 791,
      "ting": 792,
      "ĠSund": 793,
      "urity": 794,
      "ĠAmer": 795,
      "Ġofficial": 796,
      "AS": 797,
      "ĠSunday": 798,
      "Ġwar": 799,
      "ĠRe": 800,
      "ines": 801,
      "Ġdec": 802,
      "urop": 803,
      "Ġwould": 804,
      "Ġteam": 805,
      "ok": 806,
      "urope": 807,
      "Ġback": 808,
      "Ġend": 809,
      "Ġoil": 810,
      "ix": 811,
      "az": 812,
      "ating": 813,
      "ĠUnited": 814,
      "ove": 815,
      "ĠSat": 816,
      "olog": 817,
      "Ġcould": 818,
      "Ġserv": 819,
      "Ġsl": 820,
      "able": 821,
      "Ġfour": 822,
      "ely": 823,
      "Ġdef": 824,
      "Ġannoun": 825,
      "Ġfl": 826,
      "ports": 827,
      "ugh": 828,
      "Ġgovernment": 829,
      "ph": 830,
      "Ġbu": 831,
      "Ġsecond": 832,
      "Ġset": 833,
      "ics": 834,
      "ox": 835,
      "Ġpol": 836,
      "ĠEx": 837,
      "FP": 838,
      "Ġwhich": 839,
      "Ġyears": 840,
      "ales": 841,
      "iness": 842,
      "oftware": 843,
      "Ġcons": 844,
      "ents": 845,
      "Ġmak": 846,
      "IN": 847,
      "ons": 848,
      "ĠEn": 849,
      "Ġsup": 850,
      "ĠReuters": 851,
      "ĠNE": 852,
      "Ġtoday": 853,
      "Ġpeople": 854,
      "Ġmonth": 855,
      "Ġco": 856,
      "usiness": 857,
      "ĠEurope": 858,
      "ron": 859,
      "ww": 860,
      "inis": 861,
      "ows": 862,
      "Ġplan": 863,
      "orld": 864,
      "ĠMicrosoft": 865,
      "Ġelect": 866,
      "Ġind": 867,
      "ubl": 868,
      "ĠĠ": 869,
      "tt": 870,
      "ĠPresident": 871,
      "Ġdes": 872,
      "Ġprices": 873,
      "air": 874,
      "ĠAr": 875,
      "echn": 876,
      "pr": 877,
      "Ġpercent": 878,
      "Ġ5": 879,
      "Ġseason": 880,
      "ah": 881,
      "ital": 882,
      "ins": 883,
      "ĠNEW": 884,
      "Ġdown": 885,
      "Ġwhen": 886,
      "hip": 887,
      "ier": 888,
      "enc": 889,
      "Ġsays": 890,
      "Ġpart": 891,
      "urday": 892,
      "Ġquarter": 893,
      "Ġnext": 894,
      "Ġme": 895,
      "uch": 896,
      "Ġsur": 897,
      "Ġtime": 898,
      "les": 899,
      "ef": 900,
      "Ġpre": 901,
      "ystem": 902,
      "ĠSaturday": 903,
      "Ġgo": 904,
      "ally": 905,
      "lp": 906,
      "Ġnight": 907,
      "atch": 908,
      "ement": 909,
      "ings": 910,
      "ĠIt": 911,
      "Ġwork": 912,
      "Ġreg": 913,
      "Ġcount": 914,
      "Ġgame": 915,
      "ief": 916,
      "apan": 917,
      "Ġli": 918,
      "Ġph": 919,
      "Ġthird": 920,
      "Ġinvest": 921,
      "Ġ7": 922,
      "ild": 923,
      "ecut": 924,
      "aj": 925,
      "ĠCo": 926,
      "ists": 927,
      "Ġprod": 928,
      "ball": 929,
      "US": 930,
      "ĠBl": 931,
      "aun": 932,
      "ged": 933,
      "onom": 934,
      "Ġbec": 935,
      "inister": 936,
      "ORK": 937,
      "uring": 938,
      "ĠYORK": 939,
      "echnolog": 940,
      "Ġmarket": 941,
      "ĠBrit": 942,
      "under": 943,
      "pt": 944,
      "Ġrecord": 945,
      "Ġvict": 946,
      "Ġcap": 947,
      "Ġmay": 948,
      "Ġne": 949,
      "ran": 950,
      "Ġsoftware": 951,
      "orn": 952,
      "eal": 953,
      "form": 954,
      "Ġmilit": 955,
      "cess": 956,
      "ied": 957,
      "omb": 958,
      "ough": 959,
      "ms": 960,
      "Ġcan": 961,
      "err": 962,
      "ustral": 963,
      "ision": 964,
      "Ġprof": 965,
      "=\"": 966,
      "ars": 967,
      "ult": 968,
      "Ġhelp": 969,
      "Ġ10": 970,
      "rael": 971,
      "ĠFor": 972,
      "ames": 973,
      "ĠAf": 974,
      "ĠPl": 975,
      "ĠWorld": 976,
      "oot": 977,
      "ĠOn": 978,
      "ger": 979,
      "Ġrele": 980,
      "Ġopen": 981,
      "ĠInternet": 982,
      "Ġ2004": 983,
      "Ġbusiness": 984,
      "ĠAl": 985,
      "els": 986,
      "ned": 987,
      "ner": 988,
      "Ġannounced": 989,
      "eld": 990,
      "ourt": 991,
      "less": 992,
      "lear": 993,
      "Ġec": 994,
      "uter": 995,
      "app": 996,
      "Ġagre": 997,
      "000": 998,
      "ported": 999,
      "use": 1000,
      "ĠJapan": 1001,
      "Ġdeal": 1002,
      "Ġconf": 1003,
      "Ġsome": 1004,
      "Ġrun": 1005,
      "Ġgroup": 1006,
      "Quote": 1007,
      "Ġbig": 1008,
      "Ġbillion": 1009,
      "ĠRes": 1010,
      "Ġlarg": 1011,
      "urr": 1012,
      "ath": 1013,
      "Ġdo": 1014,
      "ĠAir": 1015,
      "ands": 1016,
      "Ġtop": 1017,
      "outh": 1018,
      "rough": 1019,
      "ones": 1020,
      "ble": 1021,
      "Ġcall": 1022,
      "istan": 1023,
      "Ġsecurity": 1024,
      "ica": 1025,
      "led": 1026,
      "rac": 1027,
      "Ġtake": 1028,
      "Ġmed": 1029,
      "ĠCon": 1030,
      "ĠChina": 1031,
      "Ġmost": 1032,
      "ĠCl": 1033,
      "io": 1034,
      "year": 1035,
      "eep": 1036,
      "ares": 1037,
      "ious": 1038,
      "Ġso": 1039,
      "Ġpresident": 1040,
      "ĠJo": 1041,
      "inu": 1042,
      "een": 1043,
      "RE": 1044,
      "Ġins": 1045,
      "Ġcar": 1046,
      "Ġtarg": 1047,
      "Ġsay": 1048,
      "ces": 1049,
      "Ġeconom": 1050,
      "Ġtal": 1051,
      "Ġam": 1052,
      "echnology": 1053,
      "Ġstart": 1054,
      "ague": 1055,
      "ward": 1056,
      "ert": 1057,
      "ĠAustral": 1058,
      "ĠPal": 1059,
      "ince": 1060,
      "Ġvictory": 1061,
      "Ġinter": 1062,
      "iam": 1063,
      "ĠSec": 1064,
      "Ġother": 1065,
      "Ġunder": 1066,
      "Ġnear": 1067,
      "Ġrem": 1068,
      "Ġkilled": 1069,
      "Ġgrow": 1070,
      "ĠRuss": 1071,
      "Ġtri": 1072,
      "acks": 1073,
      "Ġday": 1074,
      "Ġair": 1075,
      "Ġcomm": 1076,
      "gle": 1077,
      "aim": 1078,
      "ony": 1079,
      "ives": 1080,
      "Ġofficials": 1081,
      "Ġsign": 1082,
      "ĠFl": 1083,
      "ield": 1084,
      "ajor": 1085,
      "round": 1086,
      "ĠBush": 1087,
      "Ġreported": 1088,
      "Ġsales": 1089,
      "Ġbo": 1090,
      "ual": 1091,
      "ures": 1092,
      "co": 1093,
      "ampions": 1094,
      "vent": 1095,
      "St": 1096,
      "anad": 1097,
      "Ġwe": 1098,
      "ept": 1099,
      "ants": 1100,
      "riv": 1101,
      "ER": 1102,
      "etwork": 1103,
      "orth": 1104,
      "other": 1105,
      "ĠIsrael": 1106,
      "Ġoffer": 1107,
      "rug": 1108,
      "ĠAt": 1109,
      "lymp": 1110,
      "ĠCup": 1111,
      "ĠEuropean": 1112,
      "inian": 1113,
      "lud": 1114,
      "Ġhead": 1115,
      "ING": 1116,
      "Ġlaun": 1117,
      "velop": 1118,
      "Ġcut": 1119,
      "ĠOp": 1120,
      "ient": 1121,
      "Ġ\"": 1122,
      "nings": 1123,
      "Ġoper": 1124,
      "alif": 1125,
      "Ġcountry": 1126,
      "ool": 1127,
      "ĠNo": 1128,
      "rov": 1129,
      "Ġplans": 1130,
      "Ġtarget": 1131,
      "ĠMar": 1132,
      "ities": 1133,
      "Ġprov": 1134,
      "ĠPh": 1135,
      "ĠComm": 1136,
      "ling": 1137,
      "fore": 1138,
      "Ġjust": 1139,
      "way": 1140,
      "Ġget": 1141,
      "Ġ19": 1142,
      "BM": 1143,
      "ops": 1144,
      "Ġhome": 1145,
      "usp": 1146,
      "Ġbefore": 1147,
      "usic": 1148,
      "estinian": 1149,
      "ĠOlymp": 1150,
      "Ġdem": 1151,
      "gan": 1152,
      "gy": 1153,
      "ium": 1154,
      "Ġ8": 1155,
      "Ġlaw": 1156,
      "Ġmanag": 1157,
      "Ġbuy": 1158,
      "ĠAmerican": 1159,
      "ederal": 1160,
      "ĠSer": 1161,
      "ency": 1162,
      "ĠRed": 1163,
      "gest": 1164,
      "oogle": 1165,
      "Ġshow": 1166,
      "Ġser": 1167,
      "ck": 1168,
      "ĠStates": 1169,
      "Ġimp": 1170,
      "ember": 1171,
      "ĠMinister": 1172,
      "ns": 1173,
      "su": 1174,
      "ission": 1175,
      "ording": 1176,
      "ange": 1177,
      "ĠAd": 1178,
      "Ġass": 1179,
      "Ġtak": 1180,
      "ĠJohn": 1181,
      "Ġlong": 1182,
      ";...": 1183,
      "cer": 1184,
      "Ġjob": 1185,
      "ax": 1186,
      "Ġact": 1187,
      ";...&": 1188,
      "ĠYork": 1189,
      "Ġbro": 1190,
      "Ġno": 1191,
      "Ġsystem": 1192,
      "Ġcharg": 1193,
      "Ġreport": 1194,
      "DA": 1195,
      "\"&": 1196,
      "ury": 1197,
      "ink": 1198,
      "Ġnews": 1199,
      "ington": 1200,
      "Ġtra": 1201,
      "Ġformer": 1202,
      "icker": 1203,
      "head": 1204,
      "AFP": 1205,
      "Ġhost": 1206,
      "to": 1207,
      "obile": 1208,
      "iant": 1209,
      "Ġkn": 1210,
      "TON": 1211,
      "Ġtro": 1212,
      "Ġfinal": 1213,
      "Ġyou": 1214,
      "reak": 1215,
      "Ġbr": 1216,
      "ĠEng": 1217,
      "Ġsu": 1218,
      "anies": 1219,
      "Ġbid": 1220,
      "med": 1221,
      "ech": 1222,
      "Ġinclud": 1223,
      "thern": 1224,
      "ĠZ": 1225,
      ".,": 1226,
      "Ġwon": 1227,
      "Ġrel": 1228,
      "AL": 1229,
      "ump": 1230,
      "AR": 1231,
      "Ġfive": 1232,
      "enn": 1233,
      "ik": 1234,
      "Ġbank": 1235,
      "Ġtechnology": 1236,
      "fo": 1237,
      "ĠBritish": 1238,
      "Ġleast": 1239,
      "ata": 1240,
      "Ġmade": 1241,
      "ese": 1242,
      "raw": 1243,
      "ause": 1244,
      "ĠApp": 1245,
      "ipp": 1246,
      "ular": 1247,
      "ĠPalestinian": 1248,
      "ublic": 1249,
      "Ġhim": 1250,
      "etween": 1251,
      "Ġpoin": 1252,
      "ending": 1253,
      "Ġpost": 1254,
      "Ġ9": 1255,
      "Ġmajor": 1256,
      "Ġher": 1257,
      "Ġdevelop": 1258,
      "ense": 1259,
      "Ġhit": 1260,
      "Ġindust": 1261,
      "ĠProf": 1262,
      "Ġmake": 1263,
      "Ġbomb": 1264,
      "ched": 1265,
      "Ġmaker": 1266,
      "erm": 1267,
      "Ġlat": 1268,
      "ollar": 1269,
      "ai": 1270,
      "Ġbetween": 1271,
      "Ġeff": 1272,
      "Ġexecut": 1273,
      "ady": 1274,
      "Ġchief": 1275,
      "Ġsm": 1276,
      "Ġlargest": 1277,
      "error": 1278,
      "Ġincre": 1279,
      "Ġsw": 1280,
      "ears": 1281,
      "Ġthem": 1282,
      "Ġprogr": 1283,
      "//": 1284,
      "ising": 1285,
      "iew": 1286,
      "Ġduring": 1287,
      "Ġdisc": 1288,
      "ĠIraqi": 1289,
      "Ġprofit": 1290,
      "ĠWith": 1291,
      "://": 1292,
      "ised": 1293,
      "ttp": 1294,
      "66": 1295,
      "Ġreb": 1296,
      "Ġif": 1297,
      "Ġthrough": 1298,
      "ards": 1299,
      "ley": 1300,
      "ĠWeb": 1301,
      "Ġcompanies": 1302,
      "http": 1303,
      "Ġclaim": 1304,
      "ĠIndia": 1305,
      "ouse": 1306,
      "Ġtalks": 1307,
      "Ġwhat": 1308,
      "rew": 1309,
      "Ġaccording": 1310,
      "ful": 1311,
      "Ġhop": 1312,
      "Ġpay": 1313,
      "Ġext": 1314,
      "ots": 1315,
      "fer": 1316,
      "ĠComp": 1317,
      "ains": 1318,
      "Ġtest": 1319,
      "ĠCol": 1320,
      "ĠOct": 1321,
      "ivers": 1322,
      "Ġadd": 1323,
      "gin": 1324,
      "Ġgl": 1325,
      "eeks": 1326,
      "Ġra": 1327,
      "Ġservice": 1328,
      "EN": 1329,
      "rem": 1330,
      "ered": 1331,
      "ale": 1332,
      "Ġsusp": 1333,
      "ĠSc": 1334,
      "Ġanother": 1335,
      "Ġbat": 1336,
      "Ġcoach": 1337,
      "Ġleader": 1338,
      "ireless": 1339,
      "Ġloss": 1340,
      "www": 1341,
      "ĠCanad": 1342,
      "alf": 1343,
      "Ġow": 1344,
      "Ġnow": 1345,
      "ages": 1346,
      "uction": 1347,
      "ĠOff": 1348,
      "ty": 1349,
      "uclear": 1350,
      "Ġintern": 1351,
      "IS": 1352,
      "Ġexpected": 1353,
      "ract": 1354,
      "Ġaut": 1355,
      "Ġsix": 1356,
      "ĠSouth": 1357,
      "ution": 1358,
      "rup": 1359,
      "af": 1360,
      "Ġgiant": 1361,
      "ĠLeague": 1362,
      "Ġfil": 1363,
      "owing": 1364,
      "ĠUp": 1365,
      "used": 1366,
      "Ġinj": 1367,
      "Ġexpl": 1368,
      "Ġstri": 1369,
      "ility": 1370,
      "ĠTr": 1371,
      "Ġmeet": 1372,
      "Ġsearch": 1373,
      "Ġpe": 1374,
      "ications": 1375,
      "info": 1376,
      "ticker": 1377,
      "reuters": 1378,
      "ects": 1379,
      "eneral": 1380,
      "ĠDe": 1381,
      "Ġtele": 1382,
      "REF": 1383,
      "ĠHREF": 1384,
      "Ġleft": 1385,
      "erry": 1386,
      "ife": 1387,
      "Ġ20": 1388,
      "In": 1389,
      "eed": 1390,
      "akistan": 1391,
      "ĠSept": 1392,
      "'t": 1393,
      "Ġattack": 1394,
      "Ġpower": 1395,
      "Ġstate": 1396,
      "Ġproduc": 1397,
      "ashington": 1398,
      "Ġcost": 1399,
      "Ġway": 1400,
      "ured": 1401,
      "ĠAFP": 1402,
      "son": 1403,
      "ĠOpen": 1404,
      "ĠBe": 1405,
      "Ġsub": 1406,
      "ret": 1407,
      "ading": 1408,
      "ĠWh": 1409,
      "pos": 1410,
      "Ġsince": 1411,
      "Ġdel": 1412,
      "Ġthreat": 1413,
      "Ġpass": 1414,
      "Ġgu": 1415,
      "back": 1416,
      "ĠSe": 1417,
      "Ġstill": 1418,
      "Ġwhile": 1419,
      "Ġriv": 1420,
      "50": 1421,
      "Ġinf": 1422,
      "iver": 1423,
      "Ġmiss": 1424,
      "Ġcourt": 1425,
      "Ġbeing": 1426,
      "Ġprot": 1427,
      "Ġmov": 1428,
      "Ġsell": 1429,
      "Ġmove": 1430,
      "Ġstrong": 1431,
      "Ġearly": 1432,
      "Ġindustry": 1433,
      "Ġcamp": 1434,
      "Ġfound": 1435,
      "Ġpolice": 1436,
      "Ġamp": 1437,
      "ights": 1438,
      "ments": 1439,
      "vestor": 1440,
      "asp": 1441,
      "mb": 1442,
      "Ġ11": 1443,
      "str": 1444,
      "Ġant": 1445,
      "bers": 1446,
      "uel": 1447,
      "ĠInternational": 1448,
      "ĠAg": 1449,
      "ĠPrime": 1450,
      "off": 1451,
      "Ġreturn": 1452,
      "Ch": 1453,
      "Ġmusic": 1454,
      "Ġdead": 1455,
      "arm": 1456,
      "ĠX": 1457,
      "ĠOil": 1458,
      "down": 1459,
      "min": 1460,
      "ĠAra": 1461,
      "Ġput": 1462,
      "ĠGroup": 1463,
      "ghan": 1464,
      "Ġany": 1465,
      "ĠAss": 1466,
      "ism": 1467,
      "Ġshare": 1468,
      "Ġagreed": 1469,
      "Ġprogram": 1470,
      "racle": 1471,
      "Ġdeb": 1472,
      "EL": 1473,
      "ress": 1474,
      "ison": 1475,
      "Ġ'": 1476,
      "Ġmilitary": 1477,
      "date": 1478,
      "ries": 1479,
      "ne": 1480,
      "be": 1481,
      "obal": 1482,
      "iol": 1483,
      "tel": 1484,
      "Ġcent": 1485,
      "ĠUN": 1486,
      "CO": 1487,
      "par": 1488,
      "Ġmonths": 1489,
      "ator": 1490,
      "ĠAfter": 1491,
      "Ġi": 1492,
      "ĠBank": 1493,
      "aza": 1494,
      "New": 1495,
      "rupt": 1496,
      "ĠNorth": 1497,
      "ĠGoogle": 1498,
      "oon": 1499,
      "ench": 1500,
      "Ġcol": 1501,
      "ĠSox": 1502,
      "ĠKore": 1503,
      "Ġelection": 1504,
      "Ġever": 1505,
      "full": 1506,
      "ys": 1507,
      "ches": 1508,
      "uk": 1509,
      "stocks": 1510,
      "ĠChampions": 1511,
      "INGTON": 1512,
      "Full": 1513,
      "AT": 1514,
      "quick": 1515,
      "Ġlook": 1516,
      "ators": 1517,
      "idn": 1518,
      "Ġgrowth": 1519,
      "quote": 1520,
      "investor": 1521,
      "Ġdays": 1522,
      "=/": 1523,
      "aspx": 1524,
      "fullquote": 1525,
      "FullQuote": 1526,
      "quickinfo": 1527,
      "Ġrul": 1528,
      "ĠWind": 1529,
      "Ġonly": 1530,
      "ource": 1531,
      "ves": 1532,
      "ific": 1533,
      "Ġ...": 1534,
      "Ġnuclear": 1535,
      "Ġpar": 1536,
      "ible": 1537,
      "Ġbecause": 1538,
      "Ġcomputer": 1539,
      "Ġterror": 1540,
      "Ġsold": 1541,
      "ises": 1542,
      "ĠPC": 1543,
      "Ġeven": 1544,
      "oci": 1545,
      "Ġclos": 1546,
      "ross": 1547,
      "Ġdrug": 1548,
      "ĠBr": 1549,
      "ĠWill": 1550,
      "ĠAb": 1551,
      "reet": 1552,
      "Ġ12": 1553,
      "ASH": 1554,
      "Ġrest": 1555,
      "ĠMan": 1556,
      "urg": 1557,
      "ĠHe": 1558,
      "oth": 1559,
      "ĠDav": 1560,
      "Ġmin": 1561,
      "tain": 1562,
      "erson": 1563,
      "Ġonline": 1564,
      "ips": 1565,
      "ĠOlympic": 1566,
      "ored": 1567,
      "Ġnum": 1568,
      "put": 1569,
      "ĠGre": 1570,
      "rest": 1571,
      "irect": 1572,
      "The": 1573,
      "Ġmobile": 1574,
      "sp": 1575,
      "ootball": 1576,
      "Ġhold": 1577,
      "ĠAT": 1578,
      "ustom": 1579,
      "urrican": 1580,
      "ider": 1581,
      "iers": 1582,
      "ĠCar": 1583,
      "ĠCalif": 1584,
      "Ġround": 1585,
      "pite": 1586,
      "Ġphone": 1587,
      "ĠWindows": 1588,
      "ĠBy": 1589,
      "OS": 1590,
      "ĠState": 1591,
      "int": 1592,
      "ĠAustralia": 1593,
      "Soft": 1594,
      "ude": 1595,
      "Ġresearch": 1596,
      "ĠAfghan": 1597,
      "ĠAnd": 1598,
      "Ġfoll": 1599,
      "Ġleg": 1600,
      "ĠAfr": 1601,
      "Ġbeat": 1602,
      "Ġincluding": 1603,
      "ASHINGTON": 1604,
      "Ġservices": 1605,
      "leg": 1606,
      "Ġfall": 1607,
      "ĠWASHINGTON": 1608,
      "Ġbel": 1609,
      "Ġrev": 1610,
      "enter": 1611,
      "my": 1612,
      "amil": 1613,
      "Ġstud": 1614,
      "ĠEngland": 1615,
      "red": 1616,
      "let": 1617,
      "ative": 1618,
      "ĠBag": 1619,
      "ĠPakistan": 1620,
      "Ġspec": 1621,
      "Ġthere": 1622,
      "cl": 1623,
      "ĠBut": 1624,
      "Ġshould": 1625,
      "hd": 1626,
      "Ġplayers": 1627,
      "ĠFall": 1628,
      "ater": 1629,
      "chool": 1630,
      "Ġago": 1631,
      "Ġlatest": 1632,
      "ĠWar": 1633,
      "Ġconsum": 1634,
      "hel": 1635,
      "Ġjoin": 1636,
      "Ġearnings": 1637,
      "Ġhigher": 1638,
      "ES": 1639,
      "ners": 1640,
      "ĠNational": 1641,
      "Ġspace": 1642,
      "Ġlike": 1643,
      "Microsoft": 1644,
      "res": 1645,
      "Ġhand": 1646,
      "ĠOr": 1647,
      "Ġface": 1648,
      "ida": 1649,
      "Ġfirm": 1650,
      "eopleSoft": 1651,
      "raft": 1652,
      "based": 1653,
      "Ġretail": 1654,
      "Ġpoints": 1655,
      "Ġkeep": 1656,
      "uck": 1657,
      "Ġreleased": 1658,
      "hdad": 1659,
      "Ġcity": 1660,
      "Ġkey": 1661,
      "Ġnation": 1662,
      "Ġadv": 1663,
      "Ġmany": 1664,
      "ĠMich": 1665,
      "ĠWest": 1666,
      "ĠWashington": 1667,
      "Ġbiggest": 1668,
      "Ġrose": 1669,
      "ene": 1670,
      "ĠSan": 1671,
      "ĠIBM": 1672,
      "Ġfut": 1673,
      "AG": 1674,
      "Ġbar": 1675,
      "Ġcompet": 1676,
      "iting": 1677,
      "Ġneed": 1678,
      "ores": 1679,
      "Ġfight": 1680,
      "Ġstock": 1681,
      "ideo": 1682,
      "Ġpublic": 1683,
      "oston": 1684,
      "Ġturn": 1685,
      "quarter": 1686,
      "Ġshares": 1687,
      "Ġmem": 1688,
      "Ġmuch": 1689,
      "Ġgames": 1690,
      "ĠGaza": 1691,
      "lin": 1692,
      "Ġtit": 1693,
      "Ġdata": 1694,
      "ott": 1695,
      "imes": 1696,
      "Ġacqu": 1697,
      "ior": 1698,
      "ĠIsraeli": 1699,
      "Ġfell": 1700,
      "Ġviol": 1701,
      "BA": 1702,
      "ians": 1703,
      "Ġfree": 1704,
      "ĠAug": 1705,
      "ĠNetwork": 1706,
      "ĠBaghdad": 1707,
      "Ġpeace": 1708,
      "der": 1709,
      "Ġref": 1710,
      "ize": 1711,
      "36": 1712,
      "Ġche": 1713,
      "Ġdou": 1714,
      "Ġ2005": 1715,
      "ike": 1716,
      "Ġrecent": 1717,
      ";&": 1718,
      "Ġcustom": 1719,
      "OND": 1720,
      "ĠResearch": 1721,
      "Ġtroops": 1722,
      "Ġstocks": 1723,
      "udan": 1724,
      "Ġvers": 1725,
      "ĠTe": 1726,
      "ĠIran": 1727,
      "ply": 1728,
      "ended": 1729,
      "ancial": 1730,
      "Ġgold": 1731,
      "10": 1732,
      "ĠDec": 1733,
      "osition": 1734,
      "Ġusers": 1735,
      "inux": 1736,
      "uts": 1737,
      "Ġfail": 1738,
      "Ġvis": 1739,
      "Ġheld": 1740,
      "aul": 1741,
      "eng": 1742,
      "Ġpast": 1743,
      "ĠSup": 1744,
      "so": 1745,
      "Ġav": 1746,
      "Ġwom": 1747,
      "Ġpolit": 1748,
      "Ġsuc": 1749,
      "ĠAll": 1750,
      "ĠMc": 1751,
      "aign": 1752,
      "ONDON": 1753,
      "Ġinternational": 1754,
      "oods": 1755,
      "Ġfourth": 1756,
      "AM": 1757,
      "ĠApple": 1758,
      "ĠLONDON": 1759,
      "ĠRussian": 1760,
      "ĠNews": 1761,
      "Ġcontract": 1762,
      "ĠBo": 1763,
      "Ġline": 1764,
      "Ġcontinu": 1765,
      "Ġrelease": 1766,
      "hor": 1767,
      "ĠDar": 1768,
      "Ġahead": 1769,
      "istr": 1770,
      "ats": 1771,
      "Ġfac": 1772,
      "igital": 1773,
      "iving": 1774,
      "ASA": 1775,
      "ĠBoston": 1776,
      "Up": 1777,
      "Ġregion": 1778,
      "Ġord": 1779,
      "rel": 1780,
      "mail": 1781,
      "elt": 1782,
      "Ġdev": 1783,
      "ized": 1784,
      "Ġeconomy": 1785,
      "rol": 1786,
      "Ġweeks": 1787,
      "Ġdemand": 1788,
      "pe": 1789,
      "Ġcor": 1790,
      "Ġdirect": 1791,
      "ĠAmerica": 1792,
      "Ġwhere": 1793,
      "Ġprice": 1794,
      "ĠGu": 1795,
      "ĠSun": 1796,
      "iger": 1797,
      "ĠPress": 1798,
      "Ġtrade": 1799,
      "Ġleaders": 1800,
      "oney": 1801,
      "ĠOracle": 1802,
      "Ġhom": 1803,
      "ĠEar": 1804,
      "ĠĠĠ": 1805,
      "isco": 1806,
      "Ġred": 1807,
      "ases": 1808,
      "Ġlaunch": 1809,
      "Ġreports": 1810,
      "Ġexecutive": 1811,
      "rib": 1812,
      "opp": 1813,
      "Ġsupport": 1814,
      "ĠBar": 1815,
      "Ġforces": 1816,
      "Ġstand": 1817,
      "loy": 1818,
      "Ġgr": 1819,
      "ĠQ": 1820,
      "ober": 1821,
      "Ġhalf": 1822,
      "Ġeng": 1823,
      "Ġposs": 1824,
      "Ġhow": 1825,
      "Ġprocess": 1826,
      "ĠTo": 1827,
      "Ġ15": 1828,
      "ĠRussia": 1829,
      "Ġban": 1830,
      "aker": 1831,
      "Ġconcer": 1832,
      "ject": 1833,
      "Ġ18": 1834,
      "Ġpress": 1835,
      "itch": 1836,
      "ĠSw": 1837,
      "Sports": 1838,
      "ĠAssoci": 1839,
      "Ġpresidential": 1840,
      "Ġuse": 1841,
      "ĠNov": 1842,
      "Ġfederal": 1843,
      "ĠStreet": 1844,
      "fur": 1845,
      "EO": 1846,
      "ham": 1847,
      "ĠLinux": 1848,
      "ends": 1849,
      "Ġeconomic": 1850,
      "ĠQu": 1851,
      "sh": 1852,
      "ĠBu": 1853,
      "EC": 1854,
      "ĠFin": 1855,
      "fat": 1856,
      "Ġboost": 1857,
      "erve": 1858,
      "eor": 1859,
      "Ġform": 1860,
      "Ġstra": 1861,
      "ĠGr": 1862,
      "Ġbet": 1863,
      "Ġenter": 1864,
      "ientists": 1865,
      "lo": 1866,
      "ask": 1867,
      "Ġhist": 1868,
      "ided": 1869,
      "ees": 1870,
      "orida": 1871,
      "Ġmain": 1872,
      "Ġemp": 1873,
      "ĠMay": 1874,
      "urricane": 1875,
      "Ġnumber": 1876,
      "Ġdollar": 1877,
      "elf": 1878,
      "ĠSecurity": 1879,
      "Ġyour": 1880,
      "Ġinvestig": 1881,
      "Ġopp": 1882,
      "Ġrival": 1883,
      "Ġtook": 1884,
      "Ġright": 1885,
      "Ġlower": 1886,
      "ults": 1887,
      "Ġtry": 1888,
      "atic": 1889,
      "hold": 1890,
      "lim": 1891,
      "Ġlow": 1892,
      "Ġrece": 1893,
      "Ġtitle": 1894,
      "ying": 1895,
      "Ġhard": 1896,
      "ĠAc": 1897,
      "BC": 1898,
      "Ġev": 1899,
      "ĠIndian": 1900,
      "riz": 1901,
      "Ġjobs": 1902,
      "ĠFrench": 1903,
      "ought": 1904,
      "Ġmen": 1905,
      "ness": 1906,
      "Ġcalled": 1907,
      "Ġnearly": 1908,
      "ĠOut": 1909,
      "ĠUnion": 1910,
      "ĠEd": 1911,
      "ĠDis": 1912,
      "Ġdeath": 1913,
      "Ġinvestors": 1914,
      "veil": 1915,
      "ann": 1916,
      "anke": 1917,
      "alt": 1918,
      "Ġinterest": 1919,
      "Ġseries": 1920,
      "ĠMot": 1921,
      "Ġused": 1922,
      "Update": 1923,
      "pped": 1924,
      "ĠPhil": 1925,
      "Ġsever": 1926,
      "Ġfind": 1927,
      "ĠWall": 1928,
      "ĠItal": 1929,
      "Ġseven": 1930,
      "IT": 1931,
      "ĠPeopleSoft": 1932,
      "ills": 1933,
      "Ġclose": 1934,
      "Ġaim": 1935,
      "ĠMin": 1936,
      "Ġbuild": 1937,
      "Ġaround": 1938,
      "ĠServ": 1939,
      "ĠCr": 1940,
      "TO": 1941,
      "Ġinv": 1942,
      "ĠSudan": 1943,
      "unications": 1944,
      "key": 1945,
      "lines": 1946,
      "ides": 1947,
      "ĠHigh": 1948,
      "ankees": 1949,
      "Ġ14": 1950,
      "ired": 1951,
      "Ġdri": 1952,
      "Ġattacks": 1953,
      "aring": 1954,
      "ĠCity": 1955,
      "ĠDep": 1956,
      "ĠKorea": 1957,
      "orks": 1958,
      "Ġfund": 1959,
      "Ġpop": 1960,
      "Ġsent": 1961,
      "ĠAng": 1962,
      "ams": 1963,
      "ĠOne": 1964,
      "Ġcampaign": 1965,
      "aid": 1966,
      "ging": 1967,
      "ades": 1968,
      "IC": 1969,
      "mit": 1970,
      "ĠIntel": 1971,
      "Ġlate": 1972,
      "ĠElect": 1973,
      "idd": 1974,
      "Ġglobal": 1975,
      "ĠMark": 1976,
      "br": 1977,
      "Ġkilling": 1978,
      "ael": 1979,
      "ĠFlorida": 1980,
      "ĠDem": 1981,
      "Ġworkers": 1982,
      "akes": 1983,
      "Ġnetwork": 1984,
      "ened": 1985,
      "ĠSte": 1986,
      "ĠSays": 1987,
      "15": 1988,
      "Ġcare": 1989,
      "Ġdet": 1990,
      "ĠGame": 1991,
      "Ġshort": 1992,
      "iff": 1993,
      "rod": 1994,
      "udge": 1995,
      "cy": 1996,
      "uj": 1997,
      "ĠPar": 1998,
      "Ġquest": 1999,
      "Ġlit": 2000,
      "per": 2001,
      "Ġmight": 2002,
      "ĠDarfur": 2003,
      "Ġ16": 2004,
      "ĠAustralian": 2005,
      "att": 2006,
      "Ġmod": 2007,
      "ĠSeptember": 2008,
      "Ġ13": 2009,
      "aving": 2010,
      "Ġca": 2011,
      "ĠUK": 2012,
      "Ġdespite": 2013,
      "ĠOctober": 2014,
      "ergy": 2015,
      "Ġ30": 2016,
      "ung": 2017,
      "Ġsuccess": 2018,
      "top": 2019,
      "Ġschool": 2020,
      "Ġsmall": 2021,
      "Ġprom": 2022,
      "inals": 2023,
      "abor": 2024,
      "Ġcase": 2025,
      "ĠSl": 2026,
      "Ġleading": 2027,
      "ĠNot": 2028,
      "idence": 2029,
      "Ġversion": 2030,
      "Ġpat": 2031,
      "ĠOver": 2032,
      "Ġalso": 2033,
      "orthern": 2034,
      "ĠKerry": 2035,
      "artment": 2036,
      "ij": 2037,
      "outhern": 2038,
      "alk": 2039,
      "Ġchamp": 2040,
      "Ġremain": 2041,
      "ĠFederal": 2042,
      "Ġ17": 2043,
      "ĠCommission": 2044,
      "Ġfollowing": 2045,
      "adr": 2046,
      "Ġvideo": 2047,
      "Ġbroad": 2048,
      "get": 2049,
      "ites": 2050,
      "ait": 2051,
      "Ġhol": 2052,
      "Ġappl": 2053,
      "by": 2054,
      "Ġanal": 2055,
      "Ġdom": 2056,
      "ensive": 2057,
      "Ġarrest": 2058,
      "Ġagreement": 2059,
      "itt": 2060,
      "ĠPlay": 2061,
      "amed": 2062,
      "Ġbest": 2063,
      "uman": 2064,
      "ener": 2065,
      "Ġgood": 2066,
      "ĠSy": 2067,
      "Ġnational": 2068,
      "Ġtax": 2069,
      "ances": 2070,
      "igned": 2071,
      "Ġrise": 2072,
      "ĠJapanese": 2073,
      "Ġbreak": 2074,
      "Ġstar": 2075,
      "ĠRep": 2076,
      "ished": 2077,
      "eth": 2078,
      "Ġtrans": 2079,
      "ugg": 2080,
      "Ġshe": 2081,
      "Ġed": 2082,
      "ute": 2083,
      "Ġpropos": 2084,
      "Ġcapital": 2085,
      "Ġfore": 2086,
      "Ġcond": 2087,
      "ornia": 2088,
      "uce": 2089,
      "mber": 2090,
      "Ġste": 2091,
      "ession": 2092,
      "ĠTV": 2093,
      "Ġproducts": 2094,
      "sc": 2095,
      "ĠTwo": 2096,
      "uro": 2097,
      "Ġeas": 2098,
      "ved": 2099,
      "ĠGeor": 2100,
      "ĠRec": 2101,
      "orts": 2102,
      "ystems": 2103,
      "time": 2104,
      "Ġcre": 2105,
      "Ġbegin": 2106,
      "Ġboth": 2107,
      "rove": 2108,
      "ĠCourt": 2109,
      "owed": 2110,
      "Ġfamil": 2111,
      "Ġwhe": 2112,
      "ĠIv": 2113,
      "ovember": 2114,
      "ways": 2115,
      "Ġfootball": 2116,
      "Ġcustomers": 2117,
      "),": 2118,
      "Ġsol": 2119,
      "Ġcurr": 2120,
      "ape": 2121,
      "ler": 2122,
      "imb": 2123,
      "ads": 2124,
      "Ġregul": 2125,
      "ole": 2126,
      "aster": 2127,
      "Ġgive": 2128,
      "ĠDes": 2129,
      "Ġlik": 2130,
      "Ġaway": 2131,
      "Ġtouch": 2132,
      "ĠPol": 2133,
      "ooks": 2134,
      "Ġ:": 2135,
      "Ġinst": 2136,
      "ĠDef": 2137,
      "OL": 2138,
      "ĠBra": 2139,
      "Ġminister": 2140,
      "Ġdecision": 2141,
      "ĠGl": 2142,
      "ĠArafat": 2143,
      "Ġwell": 2144,
      "Ġforec": 2145,
      "aseball": 2146,
      "Ġouts": 2147,
      "Ġwireless": 2148,
      "ĠYankees": 2149,
      "Ġstep": 2150,
      "Ġfuture": 2151,
      "erman": 2152,
      "ocr": 2153,
      "ont": 2154,
      "Ġplayer": 2155,
      "iversity": 2156,
      "thers": 2157,
      "Th": 2158,
      "Ġperson": 2159,
      "Ġhere": 2160,
      "ĠFrance": 2161,
      "Ġbattle": 2162,
      "Ġmar": 2163,
      "iants": 2164,
      "Ġfinancial": 2165,
      "Ġpolitical": 2166,
      "Ġapprov": 2167,
      "Ġcharges": 2168,
      "ney": 2169,
      "Ġsuch": 2170,
      "ĠSAN": 2171,
      "Ġcrit": 2172,
      "Ġequ": 2173,
      "ĠFir": 2174,
      "Ġresp": 2175,
      "ĠCanadian": 2176,
      "Ġmeeting": 2177,
      "Ġur": 2178,
      "Ġrace": 2179,
      "ĠNovember": 2180,
      "umb": 2181,
      "ĠAm": 2182,
      "Ġmanager": 2183,
      "ren": 2184,
      "Ġforeign": 2185,
      "Ġdue": 2186,
      "ĠHam": 2187,
      "Ġemploy": 2188,
      "uf": 2189,
      "Ġmatch": 2190,
      "Ġscored": 2191,
      "TA": 2192,
      "ension": 2193,
      "MS": 2194,
      "Ġchampion": 2195,
      "RAN": 2196,
      "go": 2197,
      "Ġdigital": 2198,
      "Ġemb": 2199,
      "Ġtold": 2200,
      "Ġexper": 2201,
      "of": 2202,
      "ĠCEO": 2203,
      "Ġcell": 2204,
      "ĠWilliam": 2205,
      "inal": 2206,
      "ĠEU": 2207,
      "Ġengine": 2208,
      "ĠCalifornia": 2209,
      "Ġbeh": 2210,
      "urt": 2211,
      "Pod": 2212,
      "ĠTest": 2213,
      "Ġlist": 2214,
      "Ġlife": 2215,
      "ago": 2216,
      "Ġproble": 2217,
      "ĠProfit": 2218,
      "Ġpull": 2219,
      "Ġresults": 2220,
      "ming": 2221,
      "Ġdiv": 2222,
      "inese": 2223,
      "ering": 2224,
      "Ġloc": 2225,
      "acy": 2226,
      "airman": 2227,
      "Ġreven": 2228,
      "ours": 2229,
      "exas": 2230,
      "rows": 2231,
      "formation": 2232,
      "ric": 2233,
      "adio": 2234,
      "Ġunveil": 2235,
      "ĠBritain": 2236,
      "TE": 2237,
      "ern": 2238,
      "Ġmor": 2239,
      "ĠWin": 2240,
      "Ġissu": 2241,
      "Ġwithout": 2242,
      "Ġchip": 2243,
      "prise": 2244,
      "ĠMichael": 2245,
      "oid": 2246,
      "Ġmer": 2247,
      "ston": 2248,
      "Ġstraight": 2249,
      "Ġseveral": 2250,
      "hens": 2251,
      "Ġwhether": 2252,
      "lam": 2253,
      "eg": 2254,
      "Ġcosts": 2255,
      "enal": 2256,
      "ĠShar": 2257,
      "ĠProfile": 2258,
      "ĠTO": 2259,
      "Ġevery": 2260,
      "Ġsite": 2261,
      "ĠBig": 2262,
      "Ġsaying": 2263,
      "Ġauthor": 2264,
      "ĠNASA": 2265,
      "ift": 2266,
      "Ġtrial": 2267,
      "ĠShares": 2268,
      "Is": 2269,
      "estern": 2270,
      "Ġob": 2271,
      "ĠMore": 2272,
      "ett": 2273,
      "Ġelections": 2274,
      "Ġest": 2275,
      "ĠQuote": 2276,
      "ential": 2277,
      "osp": 2278,
      "Ġsettle": 2279,
      "aps": 2280,
      "Ġchampions": 2281,
      "Ġperform": 2282,
      "most": 2283,
      "ana": 2284,
      "ody": 2285,
      "Ġbecome": 2286,
      "view": 2287,
      "ĠChampionship": 2288,
      "idnapp": 2289,
      "ĠSeries": 2290,
      "ĠEl": 2291,
      "Ġfew": 2292,
      "for": 2293,
      "rown": 2294,
      "ĠPost": 2295,
      "Ġ100": 2296,
      "Ġlittle": 2297,
      "ker": 2298,
      "Ġexpect": 2299,
      "etworks": 2300,
      "IL": 2301,
      "alth": 2302,
      "retary": 2303,
      "ermany": 2304,
      "era": 2305,
      "ĠPat": 2306,
      "ĠMus": 2307,
      "Ġreach": 2308,
      "Ġeight": 2309,
      "Ġmedia": 2310,
      "ĠPe": 2311,
      "ministr": 2312,
      "Ġsk": 2313,
      "ĠCont": 2314,
      "Ġlaunched": 2315,
      "ktop": 2316,
      "Ġopt": 2317,
      "Ġacross": 2318,
      "Ġtrad": 2319,
      "look": 2320,
      "ĠAugust": 2321,
      "Ġplace": 2322,
      "Ġweekend": 2323,
      "Ġmaking": 2324,
      "ĠSch": 2325,
      "ĠVir": 2326,
      "ID": 2327,
      "ĠMed": 2328,
      "change": 2329,
      "Ġpolic": 2330,
      "Ġstrike": 2331,
      "FL": 2332,
      "Ġgreat": 2333,
      "Ġagency": 2334,
      "Ġdoes": 2335,
      "Ġbetter": 2336,
      "aff": 2337,
      "Ġ25": 2338,
      "ĠComputer": 2339,
      "IBM": 2340,
      "Ġrock": 2341,
      "Ġwinning": 2342,
      "ĠChr": 2343,
      "Ġbankrupt": 2344,
      "Ġ0": 2345,
      "Ġown": 2346,
      "Ġlost": 2347,
      "Ġincrease": 2348,
      "ĠGeneral": 2349,
      "ĠCanada": 2350,
      "Sp": 2351,
      "ared": 2352,
      "avy": 2353,
      "Ġtelev": 2354,
      "isk": 2355,
      "ahoo": 2356,
      "the": 2357,
      "Ġrunning": 2358,
      "ection": 2359,
      "Ġquarterly": 2360,
      "Ġneg": 2361,
      "Ġwomen": 2362,
      "ĠMa": 2363,
      "ĠIT": 2364,
      "icket": 2365,
      "ĠTexas": 2366,
      "ues": 2367,
      "Ġhistory": 2368,
      "Ġfire": 2369,
      "Ġanalyst": 2370,
      "iet": 2371,
      "Ġwound": 2372,
      "lex": 2373,
      "aper": 2374,
      "vers": 2375,
      "ane": 2376,
      "enior": 2377,
      "Ġcontrol": 2378,
      "akers": 2379,
      "Ġusing": 2380,
      "Ġpres": 2381,
      "AC": 2382,
      "ĠNet": 2383,
      "Ġreac": 2384,
      "ived": 2385,
      "ĠSpace": 2386,
      "ĠSing": 2387,
      "Ġhealth": 2388,
      "IA": 2389,
      "Ġclear": 2390,
      "asts": 2391,
      "ĠWireless": 2392,
      "Ġconsumer": 2393,
      "Ġhostage": 2394,
      "Ġvote": 2395,
      "\\\\": 2396,
      "Ġanti": 2397,
      "Ġlikely": 2398,
      "pected": 2399,
      "Ġtaking": 2400,
      "Ġpriv": 2401,
      "icans": 2402,
      "Ġchall": 2403,
      "Ġhopes": 2404,
      "field": 2405,
      "ather": 2406,
      "ĠAfghanistan": 2407,
      "oint": 2408,
      "Ġfield": 2409,
      "ode": 2410,
      "ousands": 2411,
      "ories": 2412,
      "Ġcome": 2413,
      "Ġmanagement": 2414,
      "Ġbelie": 2415,
      "iles": 2416,
      "ĠPer": 2417,
      "Ġstat": 2418,
      "Ġsame": 2419,
      "Ġfans": 2420,
      "Ġless": 2421,
      "ament": 2422,
      "Ġpoll": 2423,
      "Ġattem": 2424,
      "urance": 2425,
      "ĠChinese": 2426,
      "ĠiPod": 2427,
      "Ġwarned": 2428,
      "ufact": 2429,
      "Ġsee": 2430,
      "ĠStri": 2431,
      "lier": 2432,
      "adium": 2433,
      "ience": 2434,
      "ĠAtt": 2435,
      "Ġ24": 2436,
      "ondon": 2437,
      "ĠIslam": 2438,
      "ev": 2439,
      "ona": 2440,
      "ĠDepartment": 2441,
      "Ġjump": 2442,
      "itz": 2443,
      "Ġboard": 2444,
      "reen": 2445,
      "oti": 2446,
      "Ġbarrel": 2447,
      "Ġmembers": 2448,
      "ganiz": 2449,
      "Sh": 2450,
      "td": 2451,
      "we": 2452,
      "Ġlawsu": 2453,
      "UN": 2454,
      "Ġsum": 2455,
      "Ġfeat": 2456,
      "Ġchild": 2457,
      "ĠWilliams": 2458,
      "HE": 2459,
      "Ġshot": 2460,
      "ĠMac": 2461,
      "Ġaccused": 2462,
      "Ġshowed": 2463,
      "LE": 2464,
      "ĠDel": 2465,
      "Ġtoward": 2466,
      "Ġdr": 2467,
      "lant": 2468,
      "ĠHol": 2469,
      "Ġamong": 2470,
      "Ġtouchdown": 2471,
      "Ġfar": 2472,
      "Ġdist": 2473,
      "ĠJe": 2474,
      "etro": 2475,
      "Ġmorning": 2476,
      "ĠDavid": 2477,
      "--": 2478,
      "ication": 2479,
      "ule": 2480,
      "ĠPart": 2481,
      "Ġve": 2482,
      "Ġdid": 2483,
      "Ġled": 2484,
      "ĠGermany": 2485,
      "ified": 2486,
      "ĠThis": 2487,
      "Ġoperating": 2488,
      "Ġrates": 2489,
      "Ġask": 2490,
      "Oil": 2491,
      "cil": 2492,
      "ĠTal": 2493,
      "ĠEast": 2494,
      "Ġconfir": 2495,
      "Ġposted": 2496,
      "Bl": 2497,
      "Ind": 2498,
      "ele": 2499,
      "Ġshar": 2500,
      "ĠBay": 2501,
      "Ġexplos": 2502,
      "Ġ21": 2503,
      "Ġent": 2504,
      "Ġpo": 2505,
      "Ġfull": 2506,
      "ĠDemocr": 2507,
      "leged": 2508,
      "Ġdrop": 2509,
      "Ġseek": 2510,
      "aking": 2511,
      "Ġaction": 2512,
      "itive": 2513,
      "ĠCong": 2514,
      "Ġgas": 2515,
      "Ġvir": 2516,
      "ĠChief": 2517,
      "Ġclub": 2518,
      "Ġfuel": 2519,
      "uses": 2520,
      "ĠHurricane": 2521,
      "olution": 2522,
      "Ġbehind": 2523,
      "set": 2524,
      "Ġfoc": 2525,
      "Ġprison": 2526,
      "ĠUniversity": 2527,
      "Ġmedal": 2528,
      "Ġamid": 2529,
      "An": 2530,
      "Ġaccess": 2531,
      "Ġtakes": 2532,
      "Ġmilitants": 2533,
      "Ġpossible": 2534,
      "ĠRet": 2535,
      "porate": 2536,
      "que": 2537,
      "ino": 2538,
      "Ġball": 2539,
      "ĠJust": 2540,
      "draw": 2541,
      "ota": 2542,
      "ĠWe": 2543,
      "vey": 2544,
      "Ġvisit": 2545,
      "zil": 2546,
      "icago": 2547,
      "Ġgoing": 2548,
      "ĠLondon": 2549,
      "Ġviolence": 2550,
      "ĠSearch": 2551,
      "ĠNations": 2552,
      "Ġrate": 2553,
      "Ġtoo": 2554,
      "Ġwins": 2555,
      "ĠLead": 2556,
      "Ġclaims": 2557,
      "yo": 2558,
      "ĠMo": 2559,
      "ately": 2560,
      "ĠBill": 2561,
      "ges": 2562,
      "osing": 2563,
      "band": 2564,
      "ined": 2565,
      "itions": 2566,
      "amb": 2567,
      "Ġbring": 2568,
      "Ġmid": 2569,
      "Ġtrading": 2570,
      "ĠGold": 2571,
      "Ġappear": 2572,
      "reas": 2573,
      "Ġsem": 2574,
      "Ġinformation": 2575,
      "Ġwatch": 2576,
      "ĠPaul": 2577,
      "Ġrepl": 2578,
      "raud": 2579,
      "Ġemer": 2580,
      "Ġactiv": 2581,
      "Ġcash": 2582,
      "ready": 2583,
      "Ġvot": 2584,
      "ENS": 2585,
      "ĠAfrica": 2586,
      "ĠJan": 2587,
      "Ġhuman": 2588,
      "ĠFranc": 2589,
      "ald": 2590,
      "Ġbegan": 2591,
      "Ġland": 2592,
      "ĠTur": 2593,
      "ĠStocks": 2594,
      "asser": 2595,
      "Ġcrude": 2596,
      "Ġinfl": 2597,
      "ening": 2598,
      "ĠGerman": 2599,
      "Ġphones": 2600,
      "ĠLou": 2601,
      "cast": 2602,
      "ena": 2603,
      "Ġtool": 2604,
      "ouston": 2605,
      "ĠMart": 2606,
      "ĠFRAN": 2607,
      "Ġcame": 2608,
      "ONT": 2609,
      "Ġinjured": 2610,
      "ĠAthens": 2611,
      "Ġel": 2612,
      "ĠChe": 2613,
      "Ġchang": 2614,
      "Ġdoc": 2615,
      "oes": 2616,
      "ourn": 2617,
      "Ġsim": 2618,
      "ama": 2619,
      "ĠFed": 2620,
      "ĠLtd": 2621,
      "ouncil": 2622,
      "ĠChar": 2623,
      "ĠFalluj": 2624,
      "ĠSm": 2625,
      "ĠHouse": 2626,
      "Ġalmost": 2627,
      "andid": 2628,
      "Ġscientists": 2629,
      "Ġgot": 2630,
      "ĠHow": 2631,
      "Ġvo": 2632,
      "ivil": 2633,
      "Ġsigned": 2634,
      "inc": 2635,
      "ĠSen": 2636,
      "Ġtakeover": 2637,
      "Ġbankruptcy": 2638,
      "Ġpopular": 2639,
      "Ex": 2640,
      "BS": 2641,
      "ption": 2642,
      "Ġmass": 2643,
      "ĠJu": 2644,
      "Ġchange": 2645,
      "Ġdoub": 2646,
      "raph": 2647,
      "Ġprofits": 2648,
      "Ġhelped": 2649,
      "6666": 2650,
      "ministration": 2651,
      "eles": 2652,
      "AD": 2653,
      "run": 2654,
      "Ġsenior": 2655,
      "owl": 2656,
      "Ġoffering": 2657,
      "Ġtelevision": 2658,
      "ĠWhen": 2659,
      "ĠSony": 2660,
      "Ġmess": 2661,
      "Ġpush": 2662,
      "Ġreal": 2663,
      "Ġsoldiers": 2664,
      "ĠMuslim": 2665,
      "ĠJones": 2666,
      "Ġsaf": 2667,
      "Ġthose": 2668,
      "Ġrequ": 2669,
      "ĠChicago": 2670,
      "ources": 2671,
      "oring": 2672,
      "Ġnine": 2673,
      "ĠRy": 2674,
      "Ġalleged": 2675,
      "Ġcontin": 2676,
      "UR": 2677,
      "ĠHar": 2678,
      "Ġconfer": 2679,
      "Ġold": 2680,
      "ĠSales": 2681,
      "Ġdied": 2682,
      "ĠSecretary": 2683,
      "wan": 2684,
      "wide": 2685,
      "Ġhot": 2686,
      "Ġenergy": 2687,
      "apons": 2688,
      "Ġlevel": 2689,
      "Ġended": 2690,
      "icks": 2691,
      "ĠHouston": 2692,
      "rust": 2693,
      "urch": 2694,
      "ĠDeal": 2695,
      "Ġintrod": 2696,
      "Ġcarri": 2697,
      "VD": 2698,
      "ring": 2699,
      "ecutive": 2700,
      "Ġ199": 2701,
      "asing": 2702,
      "Ġsoon": 2703,
      "ĠSu": 2704,
      "Ġjudge": 2705,
      "Ġmet": 2706,
      "Ġunit": 2707,
      "ĠArs": 2708,
      "Ġproduct": 2709,
      "Ġsource": 2710,
      "ece": 2711,
      "Ġcareer": 2712,
      "anks": 2713,
      "Ġunt": 2714,
      "okes": 2715,
      "gypt": 2716,
      "Ġver": 2717,
      "151": 2718,
      "vious": 2719,
      "Ġsing": 2720,
      "Ġfact": 2721,
      "Ġstorm": 2722,
      "Ġearlier": 2723,
      "Ġproduction": 2724,
      "Ġstudy": 2725,
      "Ġnegoti": 2726,
      "Ġparty": 2727,
      "icide": 2728,
      "Ġnorthern": 2729,
      "ĠRob": 2730,
      "ĠGames": 2731,
      "ream": 2732,
      "Ġkidnapp": 2733,
      "aces": 2734,
      "ronics": 2735,
      "HENS": 2736,
      "UP": 2737,
      "ĠMer": 2738,
      "aced": 2739,
      "Ġcuts": 2740,
      "Ġgain": 2741,
      "Ġfur": 2742,
      "Ġmoney": 2743,
      "ĠAirways": 2744,
      "comm": 2745,
      "ĠSP": 2746,
      "ĠAfrican": 2747,
      "Ġrevenue": 2748,
      "Ġheart": 2749,
      "anches": 2750,
      "Ġmanufact": 2751,
      "Ġsouthern": 2752,
      "ĠSpain": 2753,
      "ealth": 2754,
      "Ġopening": 2755,
      "ĠAtlant": 2756,
      "Ġyet": 2757,
      "yn": 2758,
      "Ġbill": 2759,
      "Ġcapt": 2760,
      "utch": 2761,
      "ĠIndones": 2762,
      "ĠCub": 2763,
      "ashed": 2764,
      "Ġmust": 2765,
      "ĠNext": 2766,
      "ander": 2767,
      "Ġpitch": 2768,
      "Ġgets": 2769,
      "isis": 2770,
      "ĠCons": 2771,
      "ĠDown": 2772,
      "ĠOlympics": 2773,
      "isc": 2774,
      "urd": 2775,
      "Ġsuff": 2776,
      "Ġefforts": 2777,
      "Ġdraw": 2778,
      "ĠATHENS": 2779,
      "YO": 2780,
      "iron": 2781,
      "undred": 2782,
      "Ġlet": 2783,
      "ĠOnline": 2784,
      "ĠFRANC": 2785,
      "Ġinit": 2786,
      "Ġalready": 2787,
      "Ġple": 2788,
      "Ġpubl": 2789,
      "expected": 2790,
      "Ġannounce": 2791,
      "ospital": 2792,
      "ining": 2793,
      "Ġweb": 2794,
      "press": 2795,
      "unt": 2796,
      "ĠService": 2797,
      "Ġter": 2798,
      "Ġfre": 2799,
      "ety": 2800,
      "Ġperformance": 2801,
      "ĠAmericans": 2802,
      "Ġfast": 2803,
      "Ġpot": 2804,
      "Ġmat": 2805,
      "Ġforce": 2806,
      "Ġshut": 2807,
      "Ġconcerns": 2808,
      "Ġdefense": 2809,
      "asket": 2810,
      "ĠRo": 2811,
      "ISCO": 2812,
      "SE": 2813,
      "eing": 2814,
      "ym": 2815,
      "Ġmult": 2816,
      "Ġsched": 2817,
      "Ġcalls": 2818,
      "resh": 2819,
      "Google": 2820,
      "Ġconference": 2821,
      "Ġfe": 2822,
      "ĠAN": 2823,
      "Ġgave": 2824,
      "Ġcountries": 2825,
      "Ġcorporate": 2826,
      "ĠAssociation": 2827,
      "Ġpersonal": 2828,
      "Ġrej": 2829,
      "ĠBlack": 2830,
      "enger": 2831,
      "ille": 2832,
      "ĠTra": 2833,
      "Ġgeneral": 2834,
      "Ġaccount": 2835,
      "reme": 2836,
      "ya": 2837,
      "Ġhours": 2838,
      "ĠVirgin": 2839,
      "ĠMars": 2840,
      "Ġseem": 2841,
      "ĠFRANCISCO": 2842,
      "ĠReal": 2843,
      "Ġmakes": 2844,
      "Bush": 2845,
      "wood": 2846,
      "une": 2847,
      "Ġforecast": 2848,
      "Ġnet": 2849,
      "Ġrecover": 2850,
      "KYO": 2851,
      "vert": 2852,
      "iance": 2853,
      "okyo": 2854,
      "ĠReserve": 2855,
      "Ġtrying": 2856,
      "ĠCH": 2857,
      "Ġwithdraw": 2858,
      "Ġmarkets": 2859,
      "Ġcurrent": 2860,
      "olf": 2861,
      "Ġconv": 2862,
      "ĠCommunications": 2863,
      "Ġcivil": 2864,
      "Ġenough": 2865,
      "anced": 2866,
      "Ġaid": 2867,
      "ĠCle": 2868,
      "mir": 2869,
      "Ġsug": 2870,
      "ĠAst": 2871,
      "ĠTOKYO": 2872,
      "Ġoutside": 2873,
      "ĠLouis": 2874,
      "Mart": 2875,
      "ĠSystems": 2876,
      "ĠIf": 2877,
      "unity": 2878,
      "ĠHold": 2879,
      "Ġconsider": 2880,
      "Ġlegal": 2881,
      "Ġexpand": 2882,
      "Ġsn": 2883,
      "Ġsale": 2884,
      "Ġtow": 2885,
      "Ġgrowing": 2886,
      "iddle": 2887,
      "rong": 2888,
      "Ġport": 2889,
      "Ġden": 2890,
      "Ġqualif": 2891,
      "Ġcomputers": 2892,
      ").": 2893,
      "No": 2894,
      "ĠCouncil": 2895,
      "Ġwithin": 2896,
      "Ġyards": 2897,
      "China": 2898,
      "aq": 2899,
      "Ġready": 2900,
      "rial": 2901,
      "ily": 2902,
      "Ġleague": 2903,
      "Ġstake": 2904,
      "Iraq": 2905,
      "ayed": 2906,
      "occer": 2907,
      "ĠAnn": 2908,
      "utin": 2909,
      "Ġstop": 2910,
      "ĠGeorge": 2911,
      "tor": 2912,
      "ually": 2913,
      "ĠLos": 2914,
      "Ġunion": 2915,
      "ically": 2916,
      "Stocks": 2917,
      "Ġreached": 2918,
      "Ġcontinue": 2919,
      "ds": 2920,
      "ront": 2921,
      "Ġavail": 2922,
      "Ġaimed": 2923,
      "ĠNFL": 2924,
      "Ġteams": 2925,
      "Ġreve": 2926,
      "rap": 2927,
      "Ġarrested": 2928,
      "Ġ23": 2929,
      "Ġuntil": 2930,
      "14": 2931,
      "Canad": 2932,
      "Ġcandid": 2933,
      "Ġairline": 2934,
      "Ġothers": 2935,
      "utes": 2936,
      "ple": 2937,
      "Ġben": 2938,
      "ĠAsia": 2939,
      "Ġrebels": 2940,
      "Ġopposition": 2941,
      "ĠMiss": 2942,
      "ĠKill": 2943,
      "ĠArab": 2944,
      "ender": 2945,
      "Ġlift": 2946,
      "ĠInter": 2947,
      "Ġdefeat": 2948,
      "Ġlocal": 2949,
      "lege": 2950,
      "ĠEnd": 2951,
      "Ġsystems": 2952,
      "ĠGrand": 2953,
      "Ġfile": 2954,
      "Ġcoll": 2955,
      "Ġlo": 2956,
      "Ġrep": 2957,
      "rian": 2958,
      "Ġprepar": 2959,
      "Ġcop": 2960,
      "Ġweapons": 2961,
      "ulation": 2962,
      "Ġ22": 2963,
      "Ġslow": 2964,
      "ertain": 2965,
      "iami": 2966,
      "Ġtaken": 2967,
      "Ġcharged": 2968,
      "Ġinvol": 2969,
      "For": 2970,
      "ĠGiants": 2971,
      "Ġanalysts": 2972,
      "CP": 2973,
      "ishing": 2974,
      "Ġeffort": 2975,
      "anchester": 2976,
      "Ġcompetition": 2977,
      "Ġwrit": 2978,
      "Ġrally": 2979,
      "SP": 2980,
      "enge": 2981,
      "aud": 2982,
      "bus": 2983,
      "inks": 2984,
      "Ġinsurg": 2985,
      "FONT": 2986,
      "orage": 2987,
      "Ġquestion": 2988,
      "oung": 2989,
      "Ġstarting": 2990,
      "Ġcontinued": 2991,
      "Israel": 2992,
      "12": 2993,
      "EM": 2994,
      "ĠThey": 2995,
      "Ġfailed": 2996,
      "Ġauthorities": 2997,
      "ĠChrist": 2998,
      "ault": 2999,
      "aled": 3000,
      "Ġspokes": 3001,
      "Ġblock": 3002,
      "Ġsuppl": 3003,
      "asketball": 3004,
      "ĠAirlines": 3005,
      "ĠBrazil": 3006,
      "Ġchampionship": 3007,
      "ĠYasser": 3008,
      "Ġsuper": 3009,
      "uary": 3010,
      "Ġfav": 3011,
      "Ġwants": 3012,
      "Ġeach": 3013,
      "Ġarriv": 3014,
      "Ġcentral": 3015,
      "ĠBusiness": 3016,
      "iven": 3017,
      "ipped": 3018,
      "Ġcoun": 3019,
      "ĠTro": 3020,
      "Ġonce": 3021,
      "using": 3022,
      "iffer": 3023,
      "Ġprevious": 3024,
      "Ġpract": 3025,
      "Ġretailer": 3026,
      "mar": 3027,
      "Ġoffice": 3028,
      "Ġdeliver": 3029,
      "uge": 3030,
      "held": 3031,
      "oto": 3032,
      "Ġdouble": 3033,
      "Ġeuro": 3034,
      "ability": 3035,
      "Ġfinally": 3036,
      "ĠAgain": 3037,
      "Ġpos": 3038,
      "Ġevent": 3039,
      "Ġdisput": 3040,
      "ĠBAG": 3041,
      "Ġaff": 3042,
      "ĠMadr": 3043,
      "ĠBack": 3044,
      "Ġsuggest": 3045,
      "Ġspecial": 3046,
      "ails": 3047,
      "Russ": 3048,
      "ĠDVD": 3049,
      "Ġspending": 3050,
      "bit": 3051,
      "Ġfresh": 3052,
      "Ġthousands": 3053,
      "Ġdomin": 3054,
      "icip": 3055,
      "imate": 3056,
      "Ġdownlo": 3057,
      "Ġfiled": 3058,
      "Ġfurther": 3059,
      "ĠTHE": 3060,
      "Ġinvestment": 3061,
      "ĠItalian": 3062,
      "comp": 3063,
      "Ġraised": 3064,
      "Ġfig": 3065,
      "ims": 3066,
      "DAD": 3067,
      "IR": 3068,
      "Ġrebel": 3069,
      "ournal": 3070,
      "Re": 3071,
      "nes": 3072,
      "tal": 3073,
      "ĠMos": 3074,
      "Ġquarterback": 3075,
      "HDAD": 3076,
      "tered": 3077,
      "gers": 3078,
      "han": 3079,
      "ĠSet": 3080,
      "Ġseen": 3081,
      "Ġexecutives": 3082,
      "ĠDavis": 3083,
      "UL": 3084,
      "ĠMadrid": 3085,
      "kins": 3086,
      "Ġpack": 3087,
      "Ġhands": 3088,
      "ellite": 3089,
      "ĠFrancisco": 3090,
      "ĠBAGHDAD": 3091,
      "Ġcenter": 3092,
      "ĠIvan": 3093,
      "Ġsat": 3094,
      "ĠSoftware": 3095,
      "Ġdam": 3096,
      "right": 3097,
      "rich": 3098,
      "Ġgun": 3099,
      "onds": 3100,
      "cing": 3101,
      "Ġey": 3102,
      "ĠNiger": 3103,
      "30": 3104,
      "ĠTit": 3105,
      "Ġoperations": 3106,
      "Ġpressure": 3107,
      "ĠCent": 3108,
      "phone": 3109,
      "ĠManchester": 3110,
      "Ġfamily": 3111,
      "HL": 3112,
      "ĠYahoo": 3113,
      "Ġroll": 3114,
      "Ġ2006": 3115,
      "sue": 3116,
      "Ġside": 3117,
      "Ġpred": 3118,
      "order": 3119,
      "ollars": 3120,
      "Ġcred": 3121,
      "Ġstrugg": 3122,
      "News": 3123,
      "mark": 3124,
      "Ġ27": 3125,
      "Ġcrisis": 3126,
      "Ġdesigned": 3127,
      "Ġ50": 3128,
      "Ġinjury": 3129,
      "Ġlooking": 3130,
      "ĠAut": 3131,
      "ĠTop": 3132,
      "ĠMiami": 3133,
      "Ġenv": 3134,
      "Ġpotential": 3135,
      "ead": 3136,
      "add": 3137,
      "ĠStadium": 3138,
      "rovers": 3139,
      "ĠEarth": 3140,
      "Ġdrive": 3141,
      "aded": 3142,
      "Ġground": 3143,
      "ĠEgypt": 3144,
      "ounds": 3145,
      "Ġmon": 3146,
      "Ġhits": 3147,
      "ĠInvest": 3148,
      "ĠPrices": 3149,
      "Ġtravel": 3150,
      "unes": 3151,
      "Ġcoming": 3152,
      "icted": 3153,
      "asters": 3154,
      "Ġspeed": 3155,
      "ĠGreen": 3156,
      "11": 3157,
      "Ġsize": 3158,
      "illeg": 3159,
      "ĠHel": 3160,
      "ĠFormer": 3161,
      "liam": 3162,
      "Ġ,": 3163,
      "ĠBowl": 3164,
      "ĠArmy": 3165,
      ".'": 3166,
      "acing": 3167,
      "Ġcomb": 3168,
      "okia": 3169,
      "Ġwent": 3170,
      "ico": 3171,
      "ĠTech": 3172,
      "Ġgains": 3173,
      "hib": 3174,
      "Ġfraud": 3175,
      "obe": 3176,
      "ĠXP": 3177,
      "liament": 3178,
      "lom": 3179,
      "ĠBro": 3180,
      "ĠFrom": 3181,
      "Ġrisk": 3182,
      "ĠFirst": 3183,
      "part": 3184,
      "ural": 3185,
      "Ġgener": 3186,
      "Ġrights": 3187,
      "Ġtrack": 3188,
      "anked": 3189,
      "Ġruling": 3190,
      "Ġallow": 3191,
      "undreds": 3192,
      "Ġdon": 3193,
      "Ġval": 3194,
      "ipment": 3195,
      "hest": 3196,
      "iding": 3197,
      "ĠDon": 3198,
      "Ġtalk": 3199,
      "ilt": 3200,
      "eck": 3201,
      "Ġgoal": 3202,
      "Ġlarge": 3203,
      "Ġpolicy": 3204,
      "FT": 3205,
      "Pal": 3206,
      "urities": 3207,
      "ĠBel": 3208,
      "Ġdesktop": 3209,
      "Ġdollars": 3210,
      "Ġgetting": 3211,
      "post": 3212,
      "irc": 3213,
      "verage": 3214,
      "Ġchairman": 3215,
      "men": 3216,
      "Ġchips": 3217,
      "ĠCenter": 3218,
      "aged": 3219,
      "ĠCoast": 3220,
      "ĠThat": 3221,
      "Ġinsurance": 3222,
      "Ġpil": 3223,
      "ĠTor": 3224,
      "Ġstore": 3225,
      "tors": 3226,
      "ashes": 3227,
      "aves": 3228,
      "Ġsupply": 3229,
      "opping": 3230,
      "Ġchildren": 3231,
      "Ġthen": 3232,
      "arz": 3233,
      "ĠPrem": 3234,
      "ention": 3235,
      "aging": 3236,
      "porters": 3237,
      "ĠExchange": 3238,
      "ĠArsenal": 3239,
      "itor": 3240,
      "DATE": 3241,
      "Ġprotest": 3242,
      "rowser": 3243,
      "thlet": 3244,
      "ĠJob": 3245,
      "Ġspot": 3246,
      "ĠWhite": 3247,
      "CC": 3248,
      "ze": 3249,
      "roll": 3250,
      "ells": 3251,
      "Ġspam": 3252,
      "Ġcharge": 3253,
      "Ġbenef": 3254,
      "ĠAM": 3255,
      "oman": 3256,
      "cept": 3257,
      "ably": 3258,
      "uced": 3259,
      "Fr": 3260,
      "month": 3261,
      "elta": 3262,
      "Ġholiday": 3263,
      "Ġname": 3264,
      "Ġannual": 3265,
      "Ġnever": 3266,
      "Ġpowerful": 3267,
      "Ġfears": 3268,
      "Ġwant": 3269,
      "icit": 3270,
      "Ġstrate": 3271,
      "ĠBlair": 3272,
      "Ġtw": 3273,
      "reland": 3274,
      "Ġbeg": 3275,
      "ĠPower": 3276,
      "Ġworking": 3277,
      "Ġproblems": 3278,
      "Com": 3279,
      "Ġtreat": 3280,
      "ĠIP": 3281,
      "ĠPac": 3282,
      "ĠThere": 3283,
      "illa": 3284,
      "anger": 3285,
      "Ġdiscuss": 3286,
      "Ġinvestigation": 3287,
      "elebr": 3288,
      "icial": 3289,
      "oper": 3290,
      "Ġ28": 3291,
      "Ġprime": 3292,
      "Ġprovide": 3293,
      "iber": 3294,
      "Ġilleg": 3295,
      "arra": 3296,
      "Ġcanc": 3297,
      "Ġpick": 3298,
      "ĠMal": 3299,
      "Ġfighting": 3300,
      "ĠTom": 3301,
      "uff": 3302,
      "Ġident": 3303,
      "alled": 3304,
      "ĠAcc": 3305,
      "itness": 3306,
      "urning": 3307,
      "Ġfired": 3308,
      "hy": 3309,
      "me": 3310,
      "illing": 3311,
      "rief": 3312,
      "ĠVi": 3313,
      "Ġbusinesses": 3314,
      "kra": 3315,
      "ĠNow": 3316,
      "ula": 3317,
      "Ġvol": 3318,
      "Ġselling": 3319,
      "ĠAngeles": 3320,
      "OM": 3321,
      "maker": 3322,
      "ype": 3323,
      "ĠCap": 3324,
      "Ġplayoff": 3325,
      "500": 3326,
      "ceed": 3327,
      "osed": 3328,
      "Ġtimes": 3329,
      "ĠPark": 3330,
      "ailed": 3331,
      "game": 3332,
      "Ġsurvey": 3333,
      "Ġtour": 3334,
      "Ġdriv": 3335,
      "rize": 3336,
      "Ph": 3337,
      "Ġheavy": 3338,
      "ĠTrade": 3339,
      "Ġattempt": 3340,
      "IM": 3341,
      "IP": 3342,
      "Ġdisapp": 3343,
      "aiwan": 3344,
      "Ġrivals": 3345,
      "NE": 3346,
      "ĠTony": 3347,
      "ĠMor": 3348,
      "ria": 3349,
      "ronic": 3350,
      "Ġplanned": 3351,
      "ĠPlan": 3352,
      "Ġhope": 3353,
      "ĠLaw": 3354,
      "Ġweak": 3355,
      "Ġexpectations": 3356,
      "Ġavailable": 3357,
      "Ġes": 3358,
      "Ġarmy": 3359,
      "ĠTokyo": 3360,
      "ĠPM": 3361,
      "ploy": 3362,
      "ĠAsian": 3363,
      "Ġcour": 3364,
      "Ġchance": 3365,
      ";,": 3366,
      "ĠEc": 3367,
      "ennis": 3368,
      "miss": 3369,
      "sw": 3370,
      "ĠCard": 3371,
      "ifth": 3372,
      "Ġrules": 3373,
      "Ġsom": 3374,
      "Ġbaseball": 3375,
      "ĠMusic": 3376,
      "ference": 3377,
      "ukos": 3378,
      "Ġprivate": 3379,
      "ĠHew": 3380,
      "ctions": 3381,
      "anish": 3382,
      "Ġdro": 3383,
      "oming": 3384,
      "ĠMe": 3385,
      "ĠWins": 3386,
      "Ġconsumers": 3387,
      "ĠThree": 3388,
      "merc": 3389,
      "Ġdecided": 3390,
      "Ġknown": 3391,
      "Ġpoint": 3392,
      "ĠShe": 3393,
      "ords": 3394,
      "eattle": 3395,
      "ĠEnter": 3396,
      "ĠRyder": 3397,
      "echnologies": 3398,
      "EU": 3399,
      "ruct": 3400,
      "ĠTour": 3401,
      "overed": 3402,
      "Ġblast": 3403,
      "asd": 3404,
      "Ġnamed": 3405,
      "Ġflight": 3406,
      "ĠExpl": 3407,
      "Ġruns": 3408,
      "ĠPalestinians": 3409,
      "Ġdevelopment": 3410,
      "asdaq": 3411,
      "Ġterm": 3412,
      "Ġhospital": 3413,
      "Ġstores": 3414,
      "Ġdiffer": 3415,
      "Ġimport": 3416,
      "ixed": 3417,
      "Ġorder": 3418,
      "ĠIslamic": 3419,
      "ĠFire": 3420,
      "ĠDrug": 3421,
      "Ġworth": 3422,
      "Ġimprove": 3423,
      "Ġmissing": 3424,
      "Ar": 3425,
      "ume": 3426,
      "awi": 3427,
      "ini": 3428,
      "Ġradio": 3429,
      "oys": 3430,
      "Ġunveiled": 3431,
      "stit": 3432,
      "ĠPay": 3433,
      "ĠPort": 3434,
      "agu": 3435,
      "oreign": 3436,
      "ackers": 3437,
      "Ġabove": 3438,
      "Ġapproved": 3439,
      "ĠTalks": 3440,
      "Ġconfirmed": 3441,
      "World": 3442,
      "anium": 3443,
      "owell": 3444,
      "Ġappeal": 3445,
      "UPDATE": 3446,
      "mo": 3447,
      "ĠMil": 3448,
      "Ġknow": 3449,
      "mercial": 3450,
      "ĠKen": 3451,
      "actor": 3452,
      "Ġasked": 3453,
      "Ġbody": 3454,
      "Ġwarning": 3455,
      "UK": 3456,
      "Ġprob": 3457,
      "egr": 3458,
      "Ġcrow": 3459,
      "Ġleave": 3460,
      "ĠExp": 3461,
      "vention": 3462,
      "Ġregulators": 3463,
      "Ġtourn": 3464,
      "Ġmort": 3465,
      "ction": 3466,
      "One": 3467,
      "Ġhouse": 3468,
      "ope": 3469,
      "Ġfocus": 3470,
      "NY": 3471,
      "TS": 3472,
      "ashmir": 3473,
      "atives": 3474,
      "Ġbird": 3475,
      "Ġsepar": 3476,
      "ĠParis": 3477,
      "Col": 3478,
      "MC": 3479,
      "ently": 3480,
      "ĠWal": 3481,
      "ushed": 3482,
      "ĠStock": 3483,
      "20": 3484,
      "ĠIreland": 3485,
      "illions": 3486,
      "ained": 3487,
      "Ġ26": 3488,
      "Ġsuicide": 3489,
      "che": 3490,
      "uit": 3491,
      "Ġgra": 3492,
      "Ġconn": 3493,
      "ĠProt": 3494,
      "MW": 3495,
      "olph": 3496,
      "Ġrising": 3497,
      "Ġview": 3498,
      "Ġcontrovers": 3499,
      "ĠSharon": 3500,
      "Un": 3501,
      "ĠAdv": 3502,
      "hic": 3503,
      "Ġprobe": 3504,
      "Ġarea": 3505,
      "rought": 3506,
      "ving": 3507,
      "Ġshows": 3508,
      "Ġlawsuit": 3509,
      "ĠSur": 3510,
      "term": 3511,
      "Ġspe": 3512,
      "Ġsuspected": 3513,
      "Ġcolor": 3514,
      "uments": 3515,
      "ĠVer": 3516,
      "Ġ2003": 3517,
      "Ġcard": 3518,
      "Ġissue": 3519,
      "ĠAnt": 3520,
      "Ġsharehold": 3521,
      "Ġfirms": 3522,
      "ination": 3523,
      "elph": 3524,
      "Ġlight": 3525,
      "beat": 3526,
      "Ġcelebr": 3527,
      "Ġ40": 3528,
      "Ġcaptain": 3529,
      "Ġemployees": 3530,
      "ĠLaun": 3531,
      "light": 3532,
      "AGO": 3533,
      "ĠDecember": 3534,
      "Japan": 3535,
      "Ġmag": 3536,
      "Ġthink": 3537,
      "ĠRock": 3538,
      "Ġdebt": 3539,
      "ĠBuy": 3540,
      "ganization": 3541,
      "alls": 3542,
      "Ġacquis": 3543,
      "Ġposition": 3544,
      "ĠNBA": 3545,
      "ively": 3546,
      "ify": 3547,
      "season": 3548,
      "Ġlater": 3549,
      "Ġclaimed": 3550,
      "Ġturned": 3551,
      "Ġmerger": 3552,
      "itors": 3553,
      "Ġcomplet": 3554,
      "Ġincreased": 3555,
      ".\"": 3556,
      "Ġsqu": 3557,
      "ĠWork": 3558,
      "Ġstay": 3559,
      "nesota": 3560,
      "Austral": 3561,
      "Ġoffers": 3562,
      "ĠTeam": 3563,
      "ĠMotor": 3564,
      "pan": 3565,
      "Ġhapp": 3566,
      "ĠLa": 3567,
      "andal": 3568,
      "200": 3569,
      "kes": 3570,
      "ĠMike": 3571,
      "Ġnewsp": 3572,
      "ny": 3573,
      "Ġsites": 3574,
      "Ġbad": 3575,
      "ocked": 3576,
      "Ġgroups": 3577,
      "Ġmoved": 3578,
      "Ġcloser": 3579,
      "etroit": 3580,
      "ĠCongress": 3581,
      "ironment": 3582,
      "ease": 3583,
      "ĠSeattle": 3584,
      "ĠKashmir": 3585,
      "Ġserver": 3586,
      "Ġissues": 3587,
      "App": 3588,
      "ĠMex": 3589,
      "Ġlink": 3590,
      "ĠRich": 3591,
      "Ġeffect": 3592,
      "Ġadded": 3593,
      "Ġmission": 3594,
      "Ġprop": 3595,
      "Ġappro": 3596,
      "Intel": 3597,
      "bo": 3598,
      "Ġgiven": 3599,
      "istry": 3600,
      "ĠMont": 3601,
      "Ġadministration": 3602,
      "Ġequipment": 3603,
      "ĠSo": 3604,
      "iracy": 3605,
      "ĠForeign": 3606,
      "ĠCan": 3607,
      "Ġalong": 3608,
      "Ġrow": 3609,
      "Ġlosses": 3610,
      "ĠBE": 3611,
      "Ġgiving": 3612,
      "ĠRod": 3613,
      "ibility": 3614,
      "itional": 3615,
      "ilities": 3616,
      "Ġdevices": 3617,
      "Ġurged": 3618,
      "ĠStrip": 3619,
      "sea": 3620,
      "Ġspokesman": 3621,
      "elphia": 3622,
      "anted": 3623,
      "Ġwater": 3624,
      "Ġroad": 3625,
      "Ġopened": 3626,
      "Canadian": 3627,
      "ĠIts": 3628,
      "ires": 3629,
      "Ġoutlook": 3630,
      "Brit": 3631,
      "CBS": 3632,
      "iplom": 3633,
      "Ġupgr": 3634,
      "ĠSteve": 3635,
      "ĠFallujah": 3636,
      "ten": 3637,
      "ĠDay": 3638,
      "ĠData": 3639,
      "Ġproject": 3640,
      "coming": 3641,
      "Red": 3642,
      "craft": 3643,
      "uting": 3644,
      "Ġappar": 3645,
      "ĠItaly": 3646,
      "Ġfront": 3647,
      "inger": 3648,
      "eath": 3649,
      "Ġreceived": 3650,
      "ĠMinnesota": 3651,
      "Ġtown": 3652,
      "uries": 3653,
      "wards": 3654,
      "cc": 3655,
      "yle": 3656,
      "ilty": 3657,
      "Ġdest": 3658,
      "lywood": 3659,
      "ockey": 3660,
      "Ġslight": 3661,
      "Ġapplications": 3662,
      "ps": 3663,
      "eric": 3664,
      "ĠRise": 3665,
      "Ġcomes": 3666,
      "Ġrole": 3667,
      "ED": 3668,
      "ĠUs": 3669,
      "HP": 3670,
      "ĠTim": 3671,
      "ĠIr": 3672,
      "ĠBomb": 3673,
      "Ġlim": 3674,
      "iring": 3675,
      "Ġstation": 3676,
      "Ġstaff": 3677,
      "eather": 3678,
      "Ġdivision": 3679,
      "CA": 3680,
      "Ġpurch": 3681,
      "ĠJohnson": 3682,
      "Ġcreate": 3683,
      "bn": 3684,
      "ĠMS": 3685,
      "ĠMy": 3686,
      "Ġthough": 3687,
      "Ġwinter": 3688,
      "Ġavoid": 3689,
      "yc": 3690,
      "ĠPri": 3691,
      "ĠField": 3692,
      "Ġpartners": 3693,
      "Ġmilitant": 3694,
      "atory": 3695,
      "Ġcou": 3696,
      "ĠDo": 3697,
      "ĠIndust": 3698,
      "new": 3699,
      "Ġimprov": 3700,
      "helsea": 3701,
      "Ġtournament": 3702,
      "Ġbased": 3703,
      "ĠTime": 3704,
      "Ġunc": 3705,
      "Ġdidn": 3706,
      "uled": 3707,
      "orney": 3708,
      "ĠSingh": 3709,
      "ford": 3710,
      "Ġbrowser": 3711,
      "Ġresearchers": 3712,
      "ĠBoeing": 3713,
      "ĠSil": 3714,
      "ĠBang": 3715,
      "ĠDutch": 3716,
      "lection": 3717,
      "ĠForm": 3718,
      "ĠVal": 3719,
      "ĠDemocratic": 3720,
      "oma": 3721,
      "Ġautom": 3722,
      "ĠDetroit": 3723,
      "ova": 3724,
      "Ġterrorism": 3725,
      "Ġwounded": 3726,
      "ever": 3727,
      "lish": 3728,
      "Ġwid": 3729,
      "ids": 3730,
      "Ġpros": 3731,
      "ences": 3732,
      "ajaf": 3733,
      "strong": 3734,
      "Ġdrugs": 3735,
      "ĠMobile": 3736,
      "ĠFootball": 3737,
      "enez": 3738,
      "AK": 3739,
      "ĠSome": 3740,
      "ĠJuly": 3741,
      "ĠIN": 3742,
      "ĠWi": 3743,
      "Ġcommercial": 3744,
      "assic": 3745,
      "ĠGreece": 3746,
      "Ġjoint": 3747,
      "Ġsingle": 3748,
      "ĠAtlanta": 3749,
      "west": 3750,
      "Ġpri": 3751,
      "Ġstorage": 3752,
      "Ġcarry": 3753,
      "tainment": 3754,
      "Ġfaces": 3755,
      "Ġforward": 3756,
      "Ġcompl": 3757,
      "igns": 3758,
      "Factor": 3759,
      "NA": 3760,
      "onto": 3761,
      "ĠHait": 3762,
      "wa": 3763,
      "ĠTaiwan": 3764,
      "elling": 3765,
      "ĠJanuary": 3766,
      "Ġfifth": 3767,
      "Ġovers": 3768,
      "read": 3769,
      "iller": 3770,
      "play": 3771,
      "ĠVirginia": 3772,
      "LAN": 3773,
      "Ġnetworks": 3774,
      "Ġdecl": 3775,
      "GA": 3776,
      "Ġable": 3777,
      "ĠShi": 3778,
      "Ġserious": 3779,
      "Ġestim": 3780,
      "ĠSol": 3781,
      "unk": 3782,
      "Ġsigns": 3783,
      "ĠZeal": 3784,
      "ICAGO": 3785,
      "ijing": 3786,
      "ĠAstros": 3787,
      "arzai": 3788,
      "gage": 3789,
      "Ġton": 3790,
      "ĠWoods": 3791,
      "Ġstreak": 3792,
      "ĠYou": 3793,
      "ittee": 3794,
      "Ġexperts": 3795,
      "25": 3796,
      "Ġtight": 3797,
      "aches": 3798,
      "ĠLong": 3799,
      "ĠCharg": 3800,
      "Ġplayed": 3801,
      "Ġcheck": 3802,
      "vet": 3803,
      "ĠMilit": 3804,
      "ellig": 3805,
      "ĠCHICAGO": 3806,
      "igan": 3807,
      "ĠNear": 3808,
      "than": 3809,
      "pres": 3810,
      "Ġdistrib": 3811,
      "kn": 3812,
      "urb": 3813,
      "Ġlosing": 3814,
      "Ġquick": 3815,
      "Ġsouth": 3816,
      "Ġbasketball": 3817,
      "ĠLabor": 3818,
      "Ġsex": 3819,
      "Ġsurv": 3820,
      "pro": 3821,
      "Ġwild": 3822,
      "ĠDell": 3823,
      "ĠGo": 3824,
      "Ġclin": 3825,
      "Ġmeas": 3826,
      "Ġcritic": 3827,
      "Ġinitial": 3828,
      "ĠZealand": 3829,
      "ĠHen": 3830,
      "ĠIns": 3831,
      "Amer": 3832,
      "atform": 3833,
      "ental": 3834,
      "ĠMic": 3835,
      "ĠBob": 3836,
      "ager": 3837,
      "Ġblood": 3838,
      "inn": 3839,
      "Ġcam": 3840,
      "Ġmach": 3841,
      "stron": 3842,
      "olina": 3843,
      "ĠRoy": 3844,
      "ĠReb": 3845,
      "Ġminutes": 3846,
      "Ġwoman": 3847,
      "ĠPre": 3848,
      "ival": 3849,
      "Ġproposed": 3850,
      "mas": 3851,
      "Ġsources": 3852,
      "ĠCisco": 3853,
      "ĠDisney": 3854,
      "ĠTw": 3855,
      "Ġincreasing": 3856,
      "Af": 3857,
      "Ġlooks": 3858,
      "ĠNajaf": 3859,
      "epend": 3860,
      "Ġvehic": 3861,
      "Ġalleg": 3862,
      "Ġadvert": 3863,
      "Ġstarted": 3864,
      "anel": 3865,
      "riots": 3866,
      "Ġwhose": 3867,
      "ĠReport": 3868,
      ".\\": 3869,
      "Ġq": 3870,
      "eda": 3871,
      "Ġshoot": 3872,
      "Ġruled": 3873,
      "Ġacquire": 3874,
      "ĠMarket": 3875,
      "ĠPolice": 3876,
      "Ġprosecut": 3877,
      "ster": 3878,
      "Ġaud": 3879,
      "Ġmom": 3880,
      "adelphia": 3881,
      "oles": 3882,
      "ĠDev": 3883,
      "Ġoffensive": 3884,
      "Ġprotect": 3885,
      "ĠToronto": 3886,
      "Ġplaying": 3887,
      "ALL": 3888,
      "Ġreview": 3889,
      "Ġstatement": 3890,
      "Al": 3891,
      "Ġty": 3892,
      "Ġboss": 3893,
      "acked": 3894,
      "istic": 3895,
      "Ġholding": 3896,
      "iot": 3897,
      "Ġforced": 3898,
      "ĠBrown": 3899,
      "Ġren": 3900,
      "ĠDeb": 3901,
      "Ġcho": 3902,
      "Ġdebate": 3903,
      "ĠTele": 3904,
      "Ġevidence": 3905,
      "Ġrocket": 3906,
      "orrow": 3907,
      "Ġnorth": 3908,
      "Ġbuilding": 3909,
      "UT": 3910,
      "ville": 3911,
      "Ġsit": 3912,
      "Ġinning": 3913,
      "ĠRog": 3914,
      "ĠDiv": 3915,
      "ewart": 3916,
      "Ġart": 3917,
      "uz": 3918,
      "Ġaverage": 3919,
      "ĠTechnology": 3920,
      "Ġisland": 3921,
      "onduct": 3922,
      "Ġofficer": 3923,
      "angers": 3924,
      "ĠCompany": 3925,
      "Ġaccounting": 3926,
      "Fi": 3927,
      "ĠPit": 3928,
      "Ġguard": 3929,
      "ĠSuper": 3930,
      "Ġhomes": 3931,
      "Ġfood": 3932,
      "ĠHealth": 3933,
      "ĠKorean": 3934,
      "Ġfri": 3935,
      "ada": 3936,
      "dog": 3937,
      "fox": 3938,
      "Ġdeep": 3939,
      "ĠYukos": 3940,
      "assy": 3941,
      "ength": 3942,
      "Ġsuccessful": 3943,
      "FA": 3944,
      "Ġour": 3945,
      "ĠUkra": 3946,
      "Ġleaving": 3947,
      "udy": 3948,
      "Ġdoesn": 3949,
      "aeda": 3950,
      "Ġsan": 3951,
      "ari": 3952,
      "Ġwestern": 3953,
      "ĠFour": 3954,
      "Ġremains": 3955,
      "Ġsuspended": 3956,
      "Ġreturned": 3957,
      "fl": 3958,
      "irl": 3959,
      "ĠSpr": 3960,
      "Ġthreatened": 3961,
      "Ġkidnapped": 3962,
      "icon": 3963,
      "Ġhuge": 3964,
      "Ġhundreds": 3965,
      "ĠCount": 3966,
      "ighest": 3967,
      "Ġbecame": 3968,
      "Ġoffered": 3969,
      "Ġdebut": 3970,
      "Ġtem": 3971,
      "ĠBeijing": 3972,
      "Apple": 3973,
      "Oracle": 3974,
      "Tunes": 3975,
      "aming": 3976,
      "Ġreform": 3977,
      "medi": 3978,
      ";.": 3979,
      "Ġbus": 3980,
      "ĠBer": 3981,
      "Ġsett": 3982,
      "Ġseeking": 3983,
      "Ġacquisition": 3984,
      "Ġwitness": 3985,
      "ĠAL": 3986,
      "Ġnon": 3987,
      "udd": 3988,
      "Ġcrash": 3989,
      "ĠSpanish": 3990,
      "ĠBlue": 3991,
      "Ġrejected": 3992,
      "net": 3993,
      "Ġhaving": 3994,
      "agles": 3995,
      "Ġearth": 3996,
      "Ġfilm": 3997,
      "Ġdropped": 3998,
      "IE": 3999,
      "ĠMasters": 4000,
      "Ġmedical": 4001,
      "Wh": 4002,
      "gent": 4003,
      "hio": 4004,
      "ipping": 4005,
      "ĠIndonesia": 4006,
      "ĠMass": 4007,
      "Ġreason": 4008,
      "Ġbeating": 4009,
      "Ġ29": 4010,
      "Ġcleric": 4011,
      ";-": 4012,
      "Iran": 4013,
      "come": 4014,
      "ĠTreas": 4015,
      "Ġread": 4016,
      "ulf": 4017,
      "Ġvend": 4018,
      "Ġwinner": 4019,
      "Ġdevice": 4020,
      "augh": 4021,
      "bed": 4022,
      "self": 4023,
      "ĠTy": 4024,
      "ĠHall": 4025,
      "ĠNextel": 4026,
      "ĠEconom": 4027,
      "As": 4028,
      "ients": 4029,
      "ko": 4030,
      "ĠAlex": 4031,
      "enture": 4032,
      "Ġrepres": 4033,
      "Ġgen": 4034,
      "Ġagree": 4035,
      "ĠID": 4036,
      "Ġprovider": 4037,
      "ĠPhiladelphia": 4038,
      "Dollar": 4039,
      "ati": 4040,
      "Ġcode": 4041,
      "Ġparliament": 4042,
      "Bay": 4043,
      "ranked": 4044,
      "iders": 4045,
      "urder": 4046,
      "ĠRecord": 4047,
      "CS": 4048,
      "iar": 4049,
      "serv": 4050,
      "ented": 4051,
      "ansas": 4052,
      "Ġinterim": 4053,
      "Ġchallenge": 4054,
      "Ġsafety": 4055,
      "Ġscandal": 4056,
      "Ġconfl": 4057,
      "Ġhostages": 4058,
      "ĠWarner": 4059,
      "ĠParty": 4060,
      "Ġcarrier": 4061,
      "Ġcrowd": 4062,
      "ux": 4063,
      "Ġsoccer": 4064,
      "Ġfear": 4065,
      "Ġretire": 4066,
      "Ġtroubl": 4067,
      "Ġdirector": 4068,
      "Ġsupplies": 4069,
      "Ġdispute": 4070,
      "elligence": 4071,
      ".&": 4072,
      "Ġfly": 4073,
      "ĠMajor": 4074,
      "acec": 4075,
      "thing": 4076,
      "ĠLOS": 4077,
      "pping": 4078,
      "Ġraise": 4079,
      "ĠOffice": 4080,
      "Ġvery": 4081,
      "Ġcourse": 4082,
      "NN": 4083,
      "aut": 4084,
      "astern": 4085,
      "riel": 4086,
      "ĠVo": 4087,
      "Ġrob": 4088,
      "ograph": 4089,
      "gery": 4090,
      "ĠCarolina": 4091,
      "olphins": 4092,
      "Sc": 4093,
      "house": 4094,
      "Ġexpects": 4095,
      "ĠServer": 4096,
      "Ġtotal": 4097,
      "Ġstage": 4098,
      "Ġresult": 4099,
      "Ġdecline": 4100,
      "Ġcontinues": 4101,
      "ĠANG": 4102,
      "Ġcounter": 4103,
      "Mac": 4104,
      "larg": 4105,
      "source": 4106,
      "Ġ\\": 4107,
      "Ġmillions": 4108,
      "Ġthought": 4109,
      "though": 4110,
      "Ġfutures": 4111,
      "lined": 4112,
      "ĠPhilipp": 4113,
      "ma": 4114,
      "Ġpain": 4115,
      "ĠCut": 4116,
      "ĠBeat": 4117,
      "ĠOS": 4118,
      "Ġcontent": 4119,
      "Ġconfidence": 4120,
      "Ġinternet": 4121,
      "acecraft": 4122,
      "yware": 4123,
      "idel": 4124,
      "Ġsave": 4125,
      "Ġship": 4126,
      "Ġplant": 4127,
      "Ġcomple": 4128,
      "ELES": 4129,
      "ĠPCs": 4130,
      "Ġexplosion": 4131,
      "ris": 4132,
      "Ġz": 4133,
      "Ġdiplom": 4134,
      "oud": 4135,
      "urer": 4136,
      "Ġlic": 4137,
      "ĠOak": 4138,
      "ĠStar": 4139,
      "endo": 4140,
      "reek": 4141,
      "Ġdoz": 4142,
      "ĠCardinals": 4143,
      "chen": 4144,
      "iest": 4145,
      "Ġdeficit": 4146,
      "ĠANGELES": 4147,
      ",\\": 4148,
      "Ġsend": 4149,
      "Ġwanted": 4150,
      "ĠFund": 4151,
      "ĠFound": 4152,
      "ĠGrow": 4153,
      "Ġbrought": 4154,
      "tery": 4155,
      "Ġenc": 4156,
      "ATO": 4157,
      "Ġsummer": 4158,
      "ĠHoward": 4159,
      "Ġbit": 4160,
      "ĠHis": 4161,
      "Ġpled": 4162,
      "Ġrecently": 4163,
      "Sun": 4164,
      "iling": 4165,
      "ĠChelsea": 4166,
      "oping": 4167,
      "ĠInt": 4168,
      "Ġ35": 4169,
      "Ġgoes": 4170,
      "ificant": 4171,
      "ailand": 4172,
      "ĠGen": 4173,
      "ĠOw": 4174,
      "Ġclimb": 4175,
      "Ġending": 4176,
      "point": 4177,
      "Ġastron": 4178,
      "Ġocc": 4179,
      "Ġrain": 4180,
      "Ġproposal": 4181,
      "Ġchanges": 4182,
      "isl": 4183,
      "ĠDie": 4184,
      "verd": 4185,
      "Ġkept": 4186,
      "iod": 4187,
      "Ġaward": 4188,
      "ado": 4189,
      "ĠDen": 4190,
      "Ġplane": 4191,
      "ĠiTunes": 4192,
      "Ġclosed": 4193,
      "ĠBen": 4194,
      "Ġstates": 4195,
      "Ġchain": 4196,
      "racy": 4197,
      "onstr": 4198,
      "idents": 4199,
      "ĠConference": 4200,
      "ĠMexico": 4201,
      "lad": 4202,
      "ray": 4203,
      "Ġwalk": 4204,
      "Ġpace": 4205,
      "Ġborder": 4206,
      "ĠSant": 4207,
      "ĠDelta": 4208,
      "Ġconsecutive": 4209,
      "ĠSupreme": 4210,
      "ĠServices": 4211,
      "Ġillegal": 4212,
      "ky": 4213,
      "ĠAriz": 4214,
      "Ġnations": 4215,
      "Ġarch": 4216,
      "Ġdesign": 4217,
      "Ġproblem": 4218,
      "audi": 4219,
      "Ġslightly": 4220,
      ",\"": 4221,
      "cel": 4222,
      "Ġ.": 4223,
      "oned": 4224,
      "ority": 4225,
      "arn": 4226,
      "alo": 4227,
      "Ġwa": 4228,
      "ĠIm": 4229,
      "Ġservers": 4230,
      "Ġelectronics": 4231,
      "Ġapplication": 4232,
      "bur": 4233,
      "Ġer": 4234,
      "ĠAriel": 4235,
      "ĠBR": 4236,
      "ĠHost": 4237,
      "ĠExt": 4238,
      "ĠCentral": 4239,
      "Ġsending": 4240,
      "Ġciting": 4241,
      "ĠJames": 4242,
      "apore": 4243,
      "Ġdep": 4244,
      "izon": 4245,
      "Ġaircraft": 4246,
      "Ġlawy": 4247,
      "ĠAgainst": 4248,
      "ĠPrix": 4249,
      "enezuel": 4250,
      "NL": 4251,
      "makers": 4252,
      "noon": 4253,
      "ĠTiger": 4254,
      "estic": 4255,
      "umm": 4256,
      "Ġguilty": 4257,
      "Ġissued": 4258,
      "Ġsharply": 4259,
      "ĠChristmas": 4260,
      "100": 4261,
      "Ġsil": 4262,
      "Ġfun": 4263,
      "Ġmy": 4264,
      "ĠTrop": 4265,
      "udget": 4266,
      "Ġcoal": 4267,
      "Ġcommission": 4268,
      "ĠJeff": 4269,
      "Ġund": 4270,
      "owers": 4271,
      "ĠStewart": 4272,
      "Ġfinance": 4273,
      "eban": 4274,
      "Ġscheduled": 4275,
      "ĠSans": 4276,
      "ĠReds": 4277,
      "Ġlonger": 4278,
      "Ġsubs": 4279,
      "ĠGlobal": 4280,
      "OO": 4281,
      "ĠSir": 4282,
      "igning": 4283,
      "ĠFord": 4284,
      "ĠGet": 4285,
      "encies": 4286,
      "Ġcommit": 4287,
      "Ġbelow": 4288,
      "Ġsettlement": 4289,
      "itzer": 4290,
      "ĠSaf": 4291,
      "ĠPutin": 4292,
      "unch": 4293,
      "Ġyoung": 4294,
      "ĠAgency": 4295,
      "Ġconcern": 4296,
      "ara": 4297,
      "ĠTimes": 4298,
      "ĠHome": 4299,
      "Ġkick": 4300,
      "ansion": 4301,
      "Ġimmedi": 4302,
      "Ġstriker": 4303,
      "Ġesc": 4304,
      "Ġnewspaper": 4305,
      "13": 4306,
      "PEC": 4307,
      "hing": 4308,
      "inary": 4309,
      "oses": 4310,
      "ĠCarl": 4311,
      "ĠMedia": 4312,
      "ĠSenate": 4313,
      "GH": 4314,
      "Ġurg": 4315,
      "arial": 4316,
      "iconduct": 4317,
      "Ġmoon": 4318,
      "Ġrange": 4319,
      "rag": 4320,
      "Ġterrorist": 4321,
      "Ġneeds": 4322,
      "high": 4323,
      "Ġsets": 4324,
      "ĠNor": 4325,
      "ĠEver": 4326,
      "ĠStores": 4327,
      "Ġbuying": 4328,
      "ĠElection": 4329,
      "ĠFeder": 4330,
      "Ġbas": 4331,
      "oul": 4332,
      "ĠUr": 4333,
      "ĠKn": 4334,
      "ĠYear": 4335,
      "Ġhimself": 4336,
      "Ġpoor": 4337,
      "inet": 4338,
      "ĠMem": 4339,
      "ĠWay": 4340,
      "ĠDod": 4341,
      "Ġdesc": 4342,
      "force": 4343,
      "Ġimportant": 4344,
      "16": 4345,
      "heast": 4346,
      "enced": 4347,
      "Ġcertain": 4348,
      "ĠNHL": 4349,
      "Ġplatform": 4350,
      "Ġroom": 4351,
      "oxx": 4352,
      "=\"#": 4353,
      "=\"-": 4354,
      "ĠSerif": 4355,
      "helvet": 4356,
      "ĠMichigan": 4357,
      "ĠHollywood": 4358,
      "666666": 4359,
      "verdana": 4360,
      "helvetica": 4361,
      "ĠMicros": 4362,
      "ĠSecurities": 4363,
      "ĠHigher": 4364,
      "Ġfeatures": 4365,
      "Ġsanctions": 4366,
      "Ġcover": 4367,
      "Ġhighest": 4368,
      "omin": 4369,
      "Ġthrew": 4370,
      "Ġlabor": 4371,
      "Ġblow": 4372,
      "Ġmemory": 4373,
      "India": 4374,
      "ĠNets": 4375,
      "Ġcrim": 4376,
      "ĠClassic": 4377,
      "ĠAbu": 4378,
      "ĠRepublic": 4379,
      "ĠDespite": 4380,
      "Ġcopy": 4381,
      "Ġtonight": 4382,
      "Ġupdate": 4383,
      "ĠMotors": 4384,
      "Report": 4385,
      "ĠNigeria": 4386,
      "80": 4387,
      "iation": 4388,
      "ĠRam": 4389,
      "ags": 4390,
      "Ġconc": 4391,
      "Ġvac": 4392,
      "Ġflu": 4393,
      "Ġhostile": 4394,
      "ĠTurkey": 4395,
      "rees": 4396,
      "idge": 4397,
      "earing": 4398,
      "ĠThailand": 4399,
      "ublican": 4400,
      "ĠWhile": 4401,
      "Ġbroadband": 4402,
      "Europe": 4403,
      "kl": 4404,
      "Ġrad": 4405,
      "Ġsector": 4406,
      "Ġwind": 4407,
      "Ġinflation": 4408,
      "Ġtools": 4409,
      "Co": 4410,
      "Ġsports": 4411,
      "Ġthese": 4412,
      "ĠAv": 4413,
      "Ġsaw": 4414,
      "ikely": 4415,
      "ething": 4416,
      "Ġvoters": 4417,
      "Ġrequest": 4418,
      "Ġcredit": 4419,
      "17": 4420,
      "ĠJav": 4421,
      "aily": 4422,
      "Mar": 4423,
      "con": 4424,
      "ĠCase": 4425,
      "Ġran": 4426,
      "Ġafternoon": 4427,
      "Ġjournal": 4428,
      "usharra": 4429,
      "angu": 4430,
      "ĠPeace": 4431,
      "ĠSprint": 4432,
      "usharraf": 4433,
      "Ġcirc": 4434,
      "Ġwel": 4435,
      "Ġinvent": 4436,
      "ĠCamp": 4437,
      "ĠOK": 4438,
      "ORON": 4439,
      "Ġ60": 4440,
      "Ġdeveloped": 4441,
      "Ġcaused": 4442,
      "scri": 4443,
      "Ġcandidate": 4444,
      "Ġtough": 4445,
      "ĠAre": 4446,
      "ĠMP": 4447,
      "Ġsweep": 4448,
      "Ġneeded": 4449,
      "ĠJean": 4450,
      "Ġnegotiations": 4451,
      "Ġrevealed": 4452,
      "Ġfigures": 4453,
      "jects": 4454,
      "Ġwat": 4455,
      "inds": 4456,
      "ĠReg": 4457,
      "Ġpilots": 4458,
      "Ġtoll": 4459,
      "Ġsees": 4460,
      "Ġpublished": 4461,
      "Ġtech": 4462,
      "Ġap": 4463,
      "ani": 4464,
      "Ġbox": 4465,
      "urers": 4466,
      "ĠOhio": 4467,
      "Ġspacecraft": 4468,
      "overs": 4469,
      "lands": 4470,
      "Ġ400": 4471,
      "Ġexplod": 4472,
      "intendo": 4473,
      "ORONTO": 4474,
      "fect": 4475,
      "rad": 4476,
      "Ġseeks": 4477,
      "oric": 4478,
      "stand": 4479,
      "Ġ31": 4480,
      "Ġstruck": 4481,
      "Ġmoves": 4482,
      "ingular": 4483,
      "ĠTORONTO": 4484,
      "omber": 4485,
      "Ġgives": 4486,
      "ĠDou": 4487,
      "Ġdeploy": 4488,
      "umer": 4489,
      "Ġflaw": 4490,
      "Ġsignificant": 4491,
      "Ġfunds": 4492,
      "BER": 4493,
      "Ġlab": 4494,
      "inisters": 4495,
      "Ġuranium": 4496,
      "Ġmurder": 4497,
      "lett": 4498,
      "Ġvs": 4499,
      "Ġfavor": 4500,
      "ĠOakland": 4501,
      "ration": 4502,
      "Ġcreat": 4503,
      "ĠBry": 4504,
      "ĠUt": 4505,
      "Ġplanning": 4506,
      "Ġtraining": 4507,
      "Ġowners": 4508,
      "adesh": 4509,
      "ĠIrish": 4510,
      "uation": 4511,
      "Ġtoget": 4512,
      "Ġexpress": 4513,
      "Ġperiod": 4514,
      "Ġbuilt": 4515,
      "Ġtogether": 4516,
      "mers": 4517,
      "orer": 4518,
      "Ġweather": 4519,
      "ĠEr": 4520,
      "ĠRepublican": 4521,
      "addam": 4522,
      "yard": 4523,
      "Ġtie": 4524,
      "kei": 4525,
      "ikkei": 4526,
      "Ġreduce": 4527,
      "ĠDefense": 4528,
      "ĠHaiti": 4529,
      "ki": 4530,
      "Ġcal": 4531,
      "ĠSE": 4532,
      "Ġhurt": 4533,
      "ĠTake": 4534,
      "Ġitself": 4535,
      "ĠFinancial": 4536,
      "going": 4537,
      "ĠRadio": 4538,
      "ĠLoss": 4539,
      "gress": 4540,
      "Ġdecades": 4541,
      "Ġinsurgents": 4542,
      "AB": 4543,
      "Ġinnings": 4544,
      "ĠNokia": 4545,
      "Ġrule": 4546,
      "ĠLast": 4547,
      "cep": 4548,
      "Ġworst": 4549,
      "ffic": 4550,
      "Ġbombing": 4551,
      "Ġfiles": 4552,
      "Ġbanks": 4553,
      "mitted": 4554,
      "Ġcontroversial": 4555,
      "MP": 4556,
      "alv": 4557,
      "ĠGets": 4558,
      "ĠHit": 4559,
      "ĠHus": 4560,
      "isted": 4561,
      "Ġgoals": 4562,
      "Ġinterview": 4563,
      "Ġ80": 4564,
      "Ġeasy": 4565,
      "ĠVioxx": 4566,
      "Ġconflict": 4567,
      "cow": 4568,
      "Ġsong": 4569,
      "Ġmis": 4570,
      "ĠIS": 4571,
      "Ġpulled": 4572,
      "ĠPatriots": 4573,
      "ĠFormula": 4574,
      "Fed": 4575,
      "Ġbook": 4576,
      "ĠCy": 4577,
      "Ġlay": 4578,
      "ĠRel": 4579,
      "ĠOf": 4580,
      "allas": 4581,
      "Ġlaunches": 4582,
      "Ġmissile": 4583,
      "Ġmovie": 4584,
      "Ġfreed": 4585,
      "Ġshareholders": 4586,
      "here": 4587,
      "rig": 4588,
      "ĠBaseball": 4589,
      "Ġresol": 4590,
      "Ġprograms": 4591,
      "iscal": 4592,
      "Ġpractice": 4593,
      "ĠJobs": 4594,
      "Ġsubsid": 4595,
      "ĠLab": 4596,
      "Ġintegr": 4597,
      "Ġhelping": 4598,
      "Ġoperator": 4599,
      "ĠGeorg": 4600,
      "Ġappeared": 4601,
      "Ġenvironment": 4602,
      "ĠIPO": 4603,
      "iconductor": 4604,
      "Ġtechn": 4605,
      "Ġshopping": 4606,
      "Ġclass": 4607,
      "Ġsecure": 4608,
      "ORE": 4609,
      "ĠEngine": 4610,
      "NYSE": 4611,
      "largest": 4612,
      "rick": 4613,
      "iny": 4614,
      "Ġwide": 4615,
      "ĠSusp": 4616,
      "oteb": 4617,
      "veland": 4618,
      "ĠEnron": 4619,
      "Ġrelations": 4620,
      "annie": 4621,
      "Ġintroduced": 4622,
      "Ġmember": 4623,
      "Ġ(\\$": 4624,
      "imir": 4625,
      "ĠKing": 4626,
      "ĠKong": 4627,
      "Ġbroker": 4628,
      "ĠSwed": 4629,
      "Ġquestions": 4630,
      "Ġrespons": 4631,
      "Russia": 4632,
      "Ġstrategy": 4633,
      "ĠSouthern": 4634,
      "ĠDame": 4635,
      "ifts": 4636,
      "Ġdismiss": 4637,
      "En": 4638,
      "pool": 4639,
      "ror": 4640,
      "icult": 4641,
      "ĠGovernment": 4642,
      "Ġexc": 4643,
      "ĠProd": 4644,
      "Ġtouchdowns": 4645,
      "Ġtack": 4646,
      "ĠTarg": 4647,
      "ĠUnd": 4648,
      "ification": 4649,
      "ĠArizona": 4650,
      "):": 4651,
      "Cl": 4652,
      "mart": 4653,
      "ĠRa": 4654,
      "Ġspent": 4655,
      "merce": 4656,
      "izing": 4657,
      "ancing": 4658,
      "Ġprotection": 4659,
      "Cr": 4660,
      "ery": 4661,
      "ĠCost": 4662,
      "ĠNorthern": 4663,
      "ounts": 4664,
      "Ġworries": 4665,
      "Ġinsp": 4666,
      "ladimir": 4667,
      "Sony": 4668,
      "reed": 4669,
      "ĠST": 4670,
      "Ġlock": 4671,
      "ĠKills": 4672,
      "ĠChairman": 4673,
      "Ġmakers": 4674,
      "Ġprogress": 4675,
      "urricanes": 4676,
      "Ġsatellite": 4677,
      "It": 4678,
      "ĠFree": 4679,
      "ounded": 4680,
      "Ġcalling": 4681,
      "Ġparts": 4682,
      "uke": 4683,
      "Ġthings": 4684,
      "ĠPan": 4685,
      "ĠBonds": 4686,
      "illed": 4687,
      "Ġshowing": 4688,
      "iverpool": 4689,
      "Ġrecovery": 4690,
      "ĠAMD": 4691,
      "ĠMiddle": 4692,
      "Ġprosp": 4693,
      "Ġhel": 4694,
      "Ġenterprise": 4695,
      "Ġdifferent": 4696,
      "ladesh": 4697,
      "Ġauction": 4698,
      "ĠStep": 4699,
      "Ġphot": 4700,
      "Ġassault": 4701,
      "Ġpasses": 4702,
      "ĠMartin": 4703,
      "Ġdamage": 4704,
      "Ġsport": 4705,
      "agement": 4706,
      "ĠInto": 4707,
      "Ġ2000": 4708,
      "Ġdecade": 4709,
      "Ġsurgery": 4710,
      "ĠPlans": 4711,
      "ĠDead": 4712,
      "ĠAbout": 4713,
      "Ġfix": 4714,
      "ĠTenn": 4715,
      "ĠPAR": 4716,
      "ĠDrop": 4717,
      "ulner": 4718,
      "ried": 4719,
      "ements": 4720,
      "ĠJets": 4721,
      "ĠThom": 4722,
      "Ġjail": 4723,
      "Ġsurf": 4724,
      "Ġsurpr": 4725,
      "burgh": 4726,
      "Pakistan": 4727,
      "RA": 4728,
      "Ġcle": 4729,
      "ensions": 4730,
      "Ġwarns": 4731,
      "azon": 4732,
      "ranch": 4733,
      "Ġordered": 4734,
      "ĠCleveland": 4735,
      "Ġdownload": 4736,
      "Ġprobably": 4737,
      "backs": 4738,
      "ios": 4739,
      "ĠAust": 4740,
      "ĠDallas": 4741,
      "ĠLow": 4742,
      "Ġwhy": 4743,
      "ĠKy": 4744,
      "ĠKansas": 4745,
      "ĠVladimir": 4746,
      "venth": 4747,
      "ĠScott": 4748,
      "Ġowner": 4749,
      "Ġpassed": 4750,
      "ĠPakistani": 4751,
      "Ġmoment": 4752,
      "ĠDivision": 4753,
      "ĠNAS": 4754,
      "emb": 4755,
      "Ġisn": 4756,
      "ibr": 4757,
      "Ġtargets": 4758,
      "ĠFla": 4759,
      "Ġoperation": 4760,
      "Ġproducer": 4761,
      "Ġterms": 4762,
      "Ġarrived": 4763,
      "ĠRoger": 4764,
      "Ġpair": 4765,
      "Ġlose": 4766,
      "Ġgather": 4767,
      "uted": 4768,
      "ĠJason": 4769,
      "ucks": 4770,
      "Ġindepend": 4771,
      "zilla": 4772,
      "Ġpit": 4773,
      "poration": 4774,
      "Ġprocessor": 4775,
      "Ġremained": 4776,
      "VER": 4777,
      "week": 4778,
      "Ġcatch": 4779,
      "rain": 4780,
      "ĠOs": 4781,
      "phoon": 4782,
      "Ġseconds": 4783,
      "ĠForce": 4784,
      "Ġbroke": 4785,
      "Ġextended": 4786,
      "Ġdomestic": 4787,
      "Ġapproval": 4788,
      "Ġrepresent": 4789,
      "NASA": 4790,
      "ĠNort": 4791,
      "ighb": 4792,
      "action": 4793,
      "Ġprep": 4794,
      "Ġlegisl": 4795,
      "Ġbeginning": 4796,
      "Ġbelieve": 4797,
      "ĠUkraine": 4798,
      "war": 4799,
      "ĠSaddam": 4800,
      "ola": 4801,
      "ques": 4802,
      "Ġcricket": 4803,
      "CH": 4804,
      "Pl": 4805,
      "ĠKarzai": 4806,
      "ĠFirefox": 4807,
      "ĠMSN": 4808,
      "Ġrenew": 4809,
      "Nasdaq": 4810,
      "Pro": 4811,
      "itrust": 4812,
      "ĠMOS": 4813,
      "ĠRon": 4814,
      "Ġyen": 4815,
      "Ġsurprise": 4816,
      "Ġprevent": 4817,
      "Ġextra": 4818,
      "ĠIvory": 4819,
      "Ġsharp": 4820,
      "ĠMicrosystems": 4821,
      "Pr": 4822,
      "ality": 4823,
      "Ġpict": 4824,
      "ĠImp": 4825,
      "Ġ49": 4826,
      "ĠEnergy": 4827,
      "Ġmassive": 4828,
      "ĠCubs": 4829,
      "Ġsomething": 4830,
      "Ġcomplete": 4831,
      "fire": 4832,
      "ĠTechnologies": 4833,
      "ĠVict": 4834,
      "Ġarg": 4835,
      "ĠOfficial": 4836,
      "aterial": 4837,
      "Ġadvertising": 4838,
      "Ġwrong": 4839,
      "isions": 4840,
      "ackard": 4841,
      "enspan": 4842,
      "Ġ64": 4843,
      "Ġtrain": 4844,
      "Ġrefug": 4845,
      "amsung": 4846,
      "ĠHamas": 4847,
      "Ġshr": 4848,
      "WA": 4849,
      "break": 4850,
      "night": 4851,
      "onents": 4852,
      "Ġcrew": 4853,
      "ĠAct": 4854,
      "ĠMets": 4855,
      "ĠPowell": 4856,
      "utions": 4857,
      "iment": 4858,
      "Ġblack": 4859,
      "Ġimpact": 4860,
      "Ġrelief": 4861,
      "Ġhoping": 4862,
      "Ġbatt": 4863,
      "Ġreplace": 4864,
      "ĠMoscow": 4865,
      "Web": 4866,
      "oor": 4867,
      "ĠCuts": 4868,
      "Ġrank": 4869,
      "ocracy": 4870,
      "ĠKh": 4871,
      "Ġblue": 4872,
      "Ġindic": 4873,
      "Ġbrok": 4874,
      "ĠSteel": 4875,
      "Ġearthqu": 4876,
      "au": 4877,
      "heim": 4878,
      "oura": 4879,
      "abinet": 4880,
      "ĠArgent": 4881,
      "Ġdelay": 4882,
      "ĠSees": 4883,
      "box": 4884,
      "raig": 4885,
      "ĠHits": 4886,
      "ĠEagles": 4887,
      "ĠOkl": 4888,
      "ĠStart": 4889,
      "Ġarm": 4890,
      "Ġcoast": 4891,
      "ackson": 4892,
      "Ġknee": 4893,
      "computer": 4894,
      "Ġdisappoin": 4895,
      "inh": 4896,
      "erem": 4897,
      "ĠSaudi": 4898,
      "ĠMillion": 4899,
      "oshib": 4900,
      "ĠJose": 4901,
      "Ġresc": 4902,
      "ĠClub": 4903,
      "ĠEarnings": 4904,
      "ĠDisc": 4905,
      "Ġtroubled": 4906,
      "CL": 4907,
      "Con": 4908,
      "Ġide": 4909,
      "Ġfiscal": 4910,
      "ĠBalt": 4911,
      "tsburgh": 4912,
      "Ġflat": 4913,
      "Ġ500": 4914,
      "Ġdiscovered": 4915,
      "essional": 4916,
      "JA": 4917,
      "arters": 4918,
      "igers": 4919,
      "ĠJim": 4920,
      "Ġarms": 4921,
      "Ġdeadline": 4922,
      "Ġlawsuits": 4923,
      "Ġvirus": 4924,
      "oshiba": 4925,
      "gency": 4926,
      "ĠSam": 4927,
      "eling": 4928,
      "otion": 4929,
      "Ġcool": 4930,
      "Ġtrip": 4931,
      "Ġcommon": 4932,
      "ĠColin": 4933,
      "Ġpositive": 4934,
      "Two": 4935,
      "finals": 4936,
      "Ġcause": 4937,
      "ĠHot": 4938,
      "ĠLeban": 4939,
      "Ġpromp": 4940,
      "Ġoutput": 4941,
      "Ġamb": 4942,
      "Ġsubscri": 4943,
      "Ġstandard": 4944,
      "richment": 4945,
      "ĠCam": 4946,
      "Ġ2002": 4947,
      "ĠExpress": 4948,
      "ĠAngels": 4949,
      "On": 4950,
      "bes": 4951,
      "Ġathlet": 4952,
      "arian": 4953,
      "Ġcas": 4954,
      "Ġboy": 4955,
      "Ġdone": 4956,
      "ĠFood": 4957,
      "ĠHat": 4958,
      "Ġworldwide": 4959,
      "athon": 4960,
      "Ġtried": 4961,
      "Ġfacing": 4962,
      "Ġstruggling": 4963,
      "CAR": 4964,
      "Packard": 4965,
      "Ġdanger": 4966,
      "elves": 4967,
      "ĠBid": 4968,
      "ĠRises": 4969,
      "awks": 4970,
      "Ġfalling": 4971,
      "ĠQuarter": 4972,
      "Ġexploded": 4973,
      "eals": 4974,
      "ature": 4975,
      "Ġcross": 4976,
      "ĠVenezuel": 4977,
      "Ġintelligence": 4978,
      "ĠRele": 4979,
      "Ġmarketing": 4980,
      "Ġsuit": 4981,
      "ĠScientists": 4982,
      "ĠDevelop": 4983,
      "Ġwounding": 4984,
      "Ġmortgage": 4985,
      "American": 4986,
      "ĠGrowth": 4987,
      "Man": 4988,
      "RO": 4989,
      "ht": 4990,
      "yl": 4991,
      "ĠWestern": 4992,
      "ĠStand": 4993,
      "odies": 4994,
      "ĠPosts": 4995,
      "ĠMae": 4996,
      "Ġveter": 4997,
      "ĠJustice": 4998,
      "aron": 4999,
      "Ġappears": 5000,
      "atings": 5001,
      "ĠExpos": 5002,
      "Ġdemands": 5003,
      "ĠEnglish": 5004,
      "ĠPercent": 5005,
      "Ġties": 5006,
      "Ġsession": 5007,
      "Ġpers": 5008,
      "lew": 5009,
      "ĠCA": 5010,
      "irac": 5011,
      "ĠLank": 5012,
      "Ġcollege": 5013,
      "ĠBoard": 5014,
      "ĠMerck": 5015,
      "24": 5016,
      "dick": 5017,
      "orado": 5018,
      "Ġpaid": 5019,
      "Ġpension": 5020,
      "Ġbase": 5021,
      "ĠDolphins": 5022,
      "ighth": 5023,
      "usted": 5024,
      "ĠFrank": 5025,
      "Ġsurge": 5026,
      "Ġcommun": 5027,
      "Ġmoving": 5028,
      "ĠDesktop": 5029,
      "Ġbenefits": 5030,
      "ĠExplorer": 5031,
      "Tr": 5032,
      "omic": 5033,
      "ĠBat": 5034,
      "Ġlot": 5035,
      "Ġfinish": 5036,
      "Ġadop": 5037,
      "ĠExecutive": 5038,
      "ahoma": 5039,
      "Ġaddress": 5040,
      "ACE": 5041,
      "Ġannouncement": 5042,
      "ĠMary": 5043,
      "ecial": 5044,
      "Ġgreen": 5045,
      "Ġventure": 5046,
      "Ġspark": 5047,
      "ization": 5048,
      "Ġimage": 5049,
      "ĠCrude": 5050,
      "Ġdetails": 5051,
      "Ġwatchdog": 5052,
      "Ġsuffered": 5053,
      "Ġapproach": 5054,
      "erg": 5055,
      "ĠTri": 5056,
      "ĠPen": 5057,
      "ĠGar": 5058,
      "ĠLower": 5059,
      "eman": 5060,
      "ocial": 5061,
      "ĠIraqis": 5062,
      "Ġscore": 5063,
      "Ġhighs": 5064,
      "ĠConn": 5065,
      "Ġdeveloping": 5066,
      "Ġdeadly": 5067,
      "imbab": 5068,
      "PeopleSoft": 5069,
      "ao": 5070,
      "rive": 5071,
      "DAY": 5072,
      "ĠWhat": 5073,
      "Mc": 5074,
      "ums": 5075,
      "ucial": 5076,
      "ĠNotre": 5077,
      "imbabwe": 5078,
      "Don": 5079,
      "Mo": 5080,
      "We": 5081,
      "half": 5082,
      "ias": 5083,
      "aris": 5084,
      "Ġmiles": 5085,
      "imore": 5086,
      "tha": 5087,
      "ĠJune": 5088,
      "istance": 5089,
      "Ġresign": 5090,
      "Ġ2001": 5091,
      "Ġallowed": 5092,
      "efore": 5093,
      "Ġneighb": 5094,
      "erty": 5095,
      "Ġfiling": 5096,
      "Ġsoldier": 5097,
      "ĠHewlett": 5098,
      "Ġcriminal": 5099,
      "ĠUtah": 5100,
      "ued": 5101,
      "inth": 5102,
      "Ġhun": 5103,
      "ĠGulf": 5104,
      "ĠScot": 5105,
      "speed": 5106,
      "ĠSmith": 5107,
      "BI": 5108,
      "ION": 5109,
      "roke": 5110,
      "Ġrap": 5111,
      "ĠHas": 5112,
      "Ġunl": 5113,
      "Ġ34": 5114,
      "awn": 5115,
      "Ġpitcher": 5116,
      "ĠBangladesh": 5117,
      "ĠJava": 5118,
      "Air": 5119,
      "ET": 5120,
      "edd": 5121,
      "real": 5122,
      "ĠSn": 5123,
      "ĠAG": 5124,
      "ĠPent": 5125,
      "Ġdeter": 5126,
      "ĠCorporation": 5127,
      "ĠCoach": 5128,
      "mselves": 5129,
      "COW": 5130,
      "oke": 5131,
      "Ġcable": 5132,
      "reg": 5133,
      "ĠSem": 5134,
      "ĠMusharraf": 5135,
      "Ġstem": 5136,
      "ĠLiverpool": 5137,
      "ĠOld": 5138,
      "acher": 5139,
      "Ġbombs": 5140,
      "Ġtelephone": 5141,
      "Ġrestruct": 5142,
      "Ġallegations": 5143,
      "ĠPittsburgh": 5144,
      "Ġplot": 5145,
      "enses": 5146,
      "Ġscr": 5147,
      "Ġorig": 5148,
      "Ġflights": 5149,
      "Ġtwice": 5150,
      "Australia": 5151,
      "ĠPARIS": 5152,
      "ĠMOSCOW": 5153,
      "atab": 5154,
      "Ġlack": 5155,
      "essee": 5156,
      "Ġseed": 5157,
      "avens": 5158,
      "ucted": 5159,
      "Ġvictims": 5160,
      "Ġoptim": 5161,
      "ĠDiego": 5162,
      "PC": 5163,
      "Ġthemselves": 5164,
      "eline": 5165,
      "Ġgirl": 5166,
      "Ġnumbers": 5167,
      "Ġgrand": 5168,
      "Ġmessage": 5169,
      "NBA": 5170,
      "eated": 5171,
      "not": 5172,
      "Ġtom": 5173,
      "Ġministers": 5174,
      "awa": 5175,
      "ĠAirbus": 5176,
      "Ġinside": 5177,
      "Ġorders": 5178,
      "Ġlevels": 5179,
      "communications": 5180,
      "GM": 5181,
      "ĠNetworks": 5182,
      "ĠEmb": 5183,
      "Ġvulner": 5184,
      "Ġbecoming": 5185,
      "Ġpurchase": 5186,
      "ĠBaltimore": 5187,
      "ni": 5188,
      "washington": 5189,
      "Ġhy": 5190,
      "Ġhous": 5191,
      "ĠMount": 5192,
      "ĠBern": 5193,
      "ĠHom": 5194,
      "Ġcrack": 5195,
      "Ġraising": 5196,
      "Ġhistoric": 5197,
      "ĠOutlook": 5198,
      "Ġattemp": 5199,
      "ĠPremier": 5200,
      "board": 5201,
      "ĠTreasury": 5202,
      "washingtonpost": 5203,
      "aries": 5204,
      "Ġnames": 5205,
      "Ġcommunity": 5206,
      "Ġthreats": 5207,
      "Ġspecies": 5208,
      "Ġpolls": 5209,
      "weight": 5210,
      "ĠMarsh": 5211,
      "ĠTrophy": 5212,
      "fin": 5213,
      "ĠPrize": 5214,
      "Ġansw": 5215,
      "ĠStill": 5216,
      "ĠThreat": 5217,
      "Ġseventh": 5218,
      "Ġreportedly": 5219,
      "ĠMalays": 5220,
      "fe": 5221,
      "iled": 5222,
      "ĠIll": 5223,
      "ami": 5224,
      "irst": 5225,
      "ĠNob": 5226,
      "Ġoffense": 5227,
      "Ġtraders": 5228,
      "Ġqualifying": 5229,
      "Ġvalue": 5230,
      "75": 5231,
      "help": 5232,
      "Ġbudget": 5233,
      "ecurity": 5234,
      "ĠRangers": 5235,
      "ĠVol": 5236,
      "Ġareas": 5237,
      "ĠSaturn": 5238,
      "Ġassets": 5239,
      "Ġsoft": 5240,
      "ĠCit": 5241,
      "oting": 5242,
      "Ġexchange": 5243,
      "Ġsixth": 5244,
      "Ġwebs": 5245,
      "ĠRichard": 5246,
      "Ġestimates": 5247,
      "bs": 5248,
      "cri": 5249,
      "ius": 5250,
      "keep": 5251,
      "nam": 5252,
      "ano": 5253,
      "ĠMag": 5254,
      "Ġchar": 5255,
      "Ġ70": 5256,
      "ĠColorado": 5257,
      "ĠAssociates": 5258,
      "ĠSingapore": 5259,
      "ĠMicro": 5260,
      "rate": 5261,
      "Ġsure": 5262,
      "Ġmut": 5263,
      "etary": 5264,
      "ĠLook": 5265,
      "ither": 5266,
      "Ġupset": 5267,
      "Ġscient": 5268,
      "Ġdisplay": 5269,
      "Ġadvanced": 5270,
      "Ġdriver": 5271,
      "ĠIndustry": 5272,
      "ĠDodgers": 5273,
      "35": 5274,
      "aur": 5275,
      "Ġdraft": 5276,
      "ĠHong": 5277,
      "Ġshift": 5278,
      "ĠChall": 5279,
      "Ġprovince": 5280,
      "Ġtests": 5281,
      "ĠTrans": 5282,
      "Ġpatent": 5283,
      "news": 5284,
      "ĠGeorgia": 5285,
      "'re": 5286,
      ".-": 5287,
      "gener": 5288,
      "arrow": 5289,
      "Ġpanel": 5290,
      "Ġbrief": 5291,
      "Ġgrew": 5292,
      "ĠWeek": 5293,
      "ĠHP": 5294,
      "ĠPrice": 5295,
      "ĠAbb": 5296,
      "istrict": 5297,
      "Ġinstead": 5298,
      "Ġcritical": 5299,
      "ĠKilled": 5300,
      "ĠBryant": 5301,
      "cat": 5302,
      "atural": 5303,
      "Ġpurs": 5304,
      "ctic": 5305,
      "Ġheating": 5306,
      "ickets": 5307,
      "Ġexpansion": 5308,
      "Ġresolution": 5309,
      "Ġkills": 5310,
      "Ġmean": 5311,
      "Ġbegins": 5312,
      "LO": 5313,
      "eas": 5314,
      "Ġtennis": 5315,
      "teroid": 5316,
      "ĠChen": 5317,
      "ĠJackson": 5318,
      "Ġhear": 5319,
      "ĠStation": 5320,
      "ulls": 5321,
      "Ġprem": 5322,
      "ruption": 5323,
      "ifficult": 5324,
      "ĠHoldings": 5325,
      "ĠOklahoma": 5326,
      "At": 5327,
      "tering": 5328,
      "ĠMost": 5329,
      "Ġstory": 5330,
      "ĠDow": 5331,
      "ĠGreek": 5332,
      "ĠEy": 5333,
      "ĠJac": 5334,
      "Ġaccept": 5335,
      "Ġsecret": 5336,
      "Ġregular": 5337,
      "Ġairport": 5338,
      "Ġlooked": 5339,
      "Ġmount": 5340,
      "otype": 5341,
      "ĠFight": 5342,
      "oph": 5343,
      "iction": 5344,
      "Ġopener": 5345,
      "Ġsummit": 5346,
      "Ġfastest": 5347,
      "Ġupgrade": 5348,
      "otebook": 5349,
      "ĠUnder": 5350,
      "za": 5351,
      "ero": 5352,
      "Ġbur": 5353,
      "iced": 5354,
      "Ġlands": 5355,
      "Ġspl": 5356,
      "urns": 5357,
      "ĠFalls": 5358,
      "Ġfamiliar": 5359,
      "Ġvoting": 5360,
      "Ġseems": 5361,
      "Ġcompleted": 5362,
      "Yahoo": 5363,
      "Ġmiddle": 5364,
      "ĠCelt": 5365,
      "ĠRem": 5366,
      "ĠLad": 5367,
      "ules": 5368,
      "anda": 5369,
      "Ġvar": 5370,
      "Ġquit": 5371,
      "Ġrelated": 5372,
      "ĠCollege": 5373,
      "ĠMinistry": 5374,
      "eer": 5375,
      "Ġcars": 5376,
      "omen": 5377,
      "olis": 5378,
      "ĠLat": 5379,
      "Ġexports": 5380,
      "ĠMarch": 5381,
      "Ġcurrency": 5382,
      "Ġvirt": 5383,
      "ĠShiite": 5384,
      "Car": 5385,
      "Dow": 5386,
      "tr": 5387,
      "edro": 5388,
      "Ġfoot": 5389,
      "Ġninth": 5390,
      "Ġlines": 5391,
      "Ġgolf": 5392,
      "imin": 5393,
      "ĠGood": 5394,
      "ument": 5395,
      "ivity": 5396,
      "ordan": 5397,
      "ogn": 5398,
      "aze": 5399,
      "Ġdefensive": 5400,
      "range": 5401,
      "ĠPalm": 5402,
      "ĠRobert": 5403,
      "eckham": 5404,
      "LC": 5405,
      "arry": 5406,
      "ĠMatt": 5407,
      "Ġthing": 5408,
      "Ġrall": 5409,
      "quir": 5410,
      "anded": 5411,
      "aining": 5412,
      "Ġunexpected": 5413,
      "Ġstrength": 5414,
      "Ġantitrust": 5415,
      "Ġcollect": 5416,
      "ĠAssociated": 5417,
      "ĠSudanese": 5418,
      "Ġpackage": 5419,
      "ĠTennessee": 5420,
      "Net": 5421,
      "erate": 5422,
      "Ġreally": 5423,
      "Ġcrucial": 5424,
      "ĠClaim": 5425,
      "Ġindustrial": 5426,
      "Ġstudents": 5427,
      "Ġforecasts": 5428,
      "ĠFalluja": 5429,
      "Ġhotel": 5430,
      "iro": 5431,
      "te": 5432,
      "Ġoften": 5433,
      "ĠSeen": 5434,
      "ĠSEC": 5435,
      "ĠCould": 5436,
      "portunity": 5437,
      "azine": 5438,
      "Ġrecords": 5439,
      "ĠCommittee": 5440,
      "Ġhandheld": 5441,
      "ITY": 5442,
      "Ara": 5443,
      "edia": 5444,
      "icop": 5445,
      "ĠBell": 5446,
      "ĠWales": 5447,
      "aks": 5448,
      "elled": 5449,
      "Ġupd": 5450,
      "Ġdemonstr": 5451,
      "Ġtreatment": 5452,
      "long": 5453,
      "Ġlive": 5454,
      "ĠRoman": 5455,
      "Ġstun": 5456,
      "ĠJew": 5457,
      "Ġclimate": 5458,
      "Ġchalleng": 5459,
      "Ġcy": 5460,
      "Ġhurricane": 5461,
      "ĠBet": 5462,
      "ĠLines": 5463,
      "uble": 5464,
      "Ġfinished": 5465,
      "izer": 5466,
      "overnor": 5467,
      "Ġorganiz": 5468,
      "ĠNovell": 5469,
      "Ġentire": 5470,
      "Ġsemif": 5471,
      "Ġconsidering": 5472,
      "British": 5473,
      "Ġtomorrow": 5474,
      "IJ": 5475,
      "van": 5476,
      "onse": 5477,
      "Ġhon": 5478,
      "Ġhor": 5479,
      "ĠKeep": 5480,
      "Ġincome": 5481,
      "Ġends": 5482,
      "Ġheaded": 5483,
      "Ġjoined": 5484,
      "Ġmatter": 5485,
      "Ġpreviously": 5486,
      "bury": 5487,
      "ique": 5488,
      "usion": 5489,
      "aine": 5490,
      "ĠVote": 5491,
      "Ġallows": 5492,
      "Ġtesting": 5493,
      "Ġformat": 5494,
      "Ġdram": 5495,
      "Ġprepared": 5496,
      "PS": 5497,
      "TER": 5498,
      "pre": 5499,
      "iners": 5500,
      "acity": 5501,
      "isting": 5502,
      "ivid": 5503,
      "sein": 5504,
      "Ġarmed": 5505,
      "apping": 5506,
      "ĠMcL": 5507,
      "Ġjumped": 5508,
      "engt": 5509,
      "Ġways": 5510,
      "ĠCal": 5511,
      "Ġclash": 5512,
      "Ġenrichment": 5513,
      "Ġmissed": 5514,
      "ĠLeader": 5515,
      "Ġmanufacturing": 5516,
      "Palestinian": 5517,
      "Ġpartnership": 5518,
      "Ġdeclared": 5519,
      "ein": 5520,
      "gen": 5521,
      "Ġbought": 5522,
      "ĠSay": 5523,
      "ĠCingular": 5524,
      "ĠBall": 5525,
      "Ġrefer": 5526,
      "Ġring": 5527,
      "Ġvia": 5528,
      "Ġleads": 5529,
      "iban": 5530,
      "Ġinclude": 5531,
      "ALEM": 5532,
      "ĠPacific": 5533,
      "ĠNASCAR": 5534,
      "hell": 5535,
      "inez": 5536,
      "ĠVik": 5537,
      "Ġaccep": 5538,
      "Ġresume": 5539,
      "Ġresidents": 5540,
      "ously": 5541,
      "Ġindex": 5542,
      "ĠAlan": 5543,
      "Ġcreated": 5544,
      "Ġvoted": 5545,
      "Ġschedule": 5546,
      "Israeli": 5547,
      "stitution": 5548,
      "Ġfaster": 5549,
      "asc": 5550,
      "Ġhalt": 5551,
      "Ġstars": 5552,
      "Ġjud": 5553,
      "antage": 5554,
      "Ġwarming": 5555,
      "Ġretailers": 5556,
      "evin": 5557,
      "Ġdenied": 5558,
      "Ġquickly": 5559,
      "hard": 5560,
      "kish": 5561,
      "Ġdate": 5562,
      "ĠCraig": 5563,
      "olic": 5564,
      "ogs": 5565,
      "Ġteen": 5566,
      "struction": 5567,
      "Ġoptions": 5568,
      "ĠBroad": 5569,
      "Tech": 5570,
      "Ġmaterial": 5571,
      "Ġdifficult": 5572,
      "ĠCell": 5573,
      "ĠPGA": 5574,
      "umble": 5575,
      "abilities": 5576,
      "Ġcustomer": 5577,
      "ĠHamid": 5578,
      "Ġbringing": 5579,
      "lan": 5580,
      "Ġill": 5581,
      "ĠStorm": 5582,
      "Ġnothing": 5583,
      "Ġthanks": 5584,
      "print": 5585,
      "Ġclosing": 5586,
      "ĠManning": 5587,
      "Ġhomer": 5588,
      "icipated": 5589,
      "Ġeyes": 5590,
      "beaten": 5591,
      "Ticker": 5592,
      "horn": 5593,
      "Ġcents": 5594,
      "Ġcards": 5595,
      "ĠWrap": 5596,
      "assini": 5597,
      "Ġelectronic": 5598,
      "ĠAndy": 5599,
      "ĠOrganization": 5600,
      "Ġconditions": 5601,
      "fielder": 5602,
      "Ġdocuments": 5603,
      "Ġwitnesses": 5604,
      "Ġcopyright": 5605,
      "oom": 5606,
      "ĠNep": 5607,
      "ocol": 5608,
      "ĠArt": 5609,
      "bean": 5610,
      "Ġmodel": 5611,
      "Ġeastern": 5612,
      "ĠDonald": 5613,
      "ml": 5614,
      "mates": 5615,
      "igroup": 5616,
      "eway": 5617,
      "Ġrecall": 5618,
      "Ġdisease": 5619,
      "Ġtraffic": 5620,
      "Ġbanking": 5621,
      "Ġextend": 5622,
      "Ġadding": 5623,
      "Ġdelayed": 5624,
      "helps": 5625,
      "Fl": 5626,
      "lers": 5627,
      "ĠSim": 5628,
      "odaf": 5629,
      "Ġdiscl": 5630,
      "AMD": 5631,
      "ĠBraves": 5632,
      "ĠIndonesian": 5633,
      "Iraqi": 5634,
      "ATODAY": 5635,
      "South": 5636,
      "Ġfigh": 5637,
      "ĠMov": 5638,
      "ĠBur": 5639,
      "ĠJER": 5640,
      "Ġdeals": 5641,
      "rys": 5642,
      "Ġspr": 5643,
      "aval": 5644,
      "ushing": 5645,
      "Ġdecide": 5646,
      "ĠBarry": 5647,
      "ĠElectronics": 5648,
      "ĠChris": 5649,
      "Ġchanged": 5650,
      "ĠCharles": 5651,
      "Ġdoubt": 5652,
      "Ġgeneration": 5653,
      "ĠPhilippines": 5654,
      "odafone": 5655,
      "ĠSystem": 5656,
      "Ġmixed": 5657,
      "Ġeighth": 5658,
      "apolis": 5659,
      "Ġorgan": 5660,
      "Ġsetting": 5661,
      "eful": 5662,
      "USALEM": 5663,
      "ĠAnnan": 5664,
      "atabase": 5665,
      "ĠJERUSALEM": 5666,
      "19": 5667,
      "GE": 5668,
      "eded": 5669,
      "ĠOPEC": 5670,
      "Ġcomputing": 5671,
      "Ġjet": 5672,
      "Ġscience": 5673,
      "Ġstrengt": 5674,
      "Ġcutting": 5675,
      "ĠColomb": 5676,
      "html": 5677,
      "generation": 5678,
      "IJING": 5679,
      "40": 5680,
      "400": 5681,
      "ĠSchool": 5682,
      "enty": 5683,
      "ĠPack": 5684,
      "ĠDam": 5685,
      "aint": 5686,
      "Ġwasn": 5687,
      "Ġsmart": 5688,
      "Ġreturns": 5689,
      "Ġinflu": 5690,
      "Ġpreparing": 5691,
      "Ġlinked": 5692,
      "ĠHussein": 5693,
      "hi": 5694,
      "Ġson": 5695,
      "Ġfr": 5696,
      "Ġbodies": 5697,
      "ĠTakes": 5698,
      "ĠNY": 5699,
      "Ġ300": 5700,
      "Ġsteps": 5701,
      "Ġemergency": 5702,
      "castle": 5703,
      "Ġinvolved": 5704,
      "ĠBEIJING": 5705,
      "ĠFederer": 5706,
      "ĠLanka": 5707,
      "Look": 5708,
      "ali": 5709,
      "ĠIndiana": 5710,
      "bl": 5711,
      "road": 5712,
      "ĠTerror": 5713,
      "Ġthr": 5714,
      "ĠGM": 5715,
      "porter": 5716,
      "Ġ32": 5717,
      "ĠMozilla": 5718,
      "Ġcandidates": 5719,
      "ĠHelp": 5720,
      "Ġpriority": 5721,
      "ĠLaden": 5722,
      "Sadr": 5723,
      "lins": 5724,
      "uan": 5725,
      "ĠHug": 5726,
      "ewis": 5727,
      "ampa": 5728,
      "Ġscores": 5729,
      "ught": 5730,
      "ĠZimbabwe": 5731,
      "Ġadvance": 5732,
      "ĠQaeda": 5733,
      "ĠAttack": 5734,
      "Ġdoctors": 5735,
      "Ġeye": 5736,
      "Ġcancer": 5737,
      "Ġapparently": 5738,
      "ilar": 5739,
      "ĠTigers": 5740,
      "ador": 5741,
      "ĠGun": 5742,
      "ĠKevin": 5743,
      "Ġupcoming": 5744,
      "ONG": 5745,
      "izes": 5746,
      "Ġcrashed": 5747,
      "Ġmovies": 5748,
      "ĠSwiss": 5749,
      "Ġoption": 5750,
      "Ġbelieves": 5751,
      "ĠTitan": 5752,
      "OU": 5753,
      "ils": 5754,
      "Ġrare": 5755,
      "errill": 5756,
      "ĠAllawi": 5757,
      "Ġboosted": 5758,
      "Ġsolid": 5759,
      "Ġbelieved": 5760,
      "ymn": 5761,
      "rec": 5762,
      "ĠSix": 5763,
      "ĠPoll": 5764,
      "ĠRally": 5765,
      "uburn": 5766,
      "ibly": 5767,
      "Ġreceiver": 5768,
      "Ġcoalition": 5769,
      "RM": 5770,
      "oe": 5771,
      "rd": 5772,
      "oning": 5773,
      "Ġsought": 5774,
      "Ġband": 5775,
      "ĠTer": 5776,
      "ĠFannie": 5777,
      "ĠDS": 5778,
      "ĠEv": 5779,
      "ĠVideo": 5780,
      "ĠFrances": 5781,
      "ĠAnti": 5782,
      "quiry": 5783,
      "55": 5784,
      "Ġcat": 5785,
      "ersey": 5786,
      "apse": 5787,
      "Ġ33": 5788,
      "anging": 5789,
      "Ġactivities": 5790,
      "Ġbegun": 5791,
      "Ġcarrying": 5792,
      "rysler": 5793,
      "Ġsens": 5794,
      "ĠLife": 5795,
      "Ġalways": 5796,
      "aven": 5797,
      "ierce": 5798,
      "Ġincludes": 5799,
      "ĠSyria": 5800,
      "Ġallegedly": 5801,
      "TI": 5802,
      "ĠSri": 5803,
      "ĠCall": 5804,
      "ĠBillion": 5805,
      "Ġanim": 5806,
      "Ġhearing": 5807,
      "ĠLeg": 5808,
      "Ġmanagers": 5809,
      "ĠAdministration": 5810,
      "Ġputs": 5811,
      "Ġcentury": 5812,
      "ĠAttorney": 5813,
      "ĠCuba": 5814,
      "Ġiniti": 5815,
      "aheim": 5816,
      "hman": 5817,
      "Ġbott": 5818,
      "ĠDigital": 5819,
      "ĠGra": 5820,
      "ĠGreat": 5821,
      "aceut": 5822,
      "racts": 5823,
      "Ġtrib": 5824,
      "Ġaims": 5825,
      "yan": 5826,
      "Ġut": 5827,
      "Ġpun": 5828,
      "ĠAz": 5829,
      "ĠProp": 5830,
      "ĠNikkei": 5831,
      "Ġstre": 5832,
      "ĠOT": 5833,
      "ĠJon": 5834,
      "Ġabd": 5835,
      "Ġpartner": 5836,
      "Ġsurged": 5837,
      "armaceut": 5838,
      "Ġestab": 5839,
      "Ġretirement": 5840,
      "ĠCarlos": 5841,
      "Ġwife": 5842,
      "stant": 5843,
      "Ġgone": 5844,
      "ĠNintendo": 5845,
      "ĠDeath": 5846,
      "umn": 5847,
      "Ġshock": 5848,
      "ĠChip": 5849,
      "Star": 5850,
      "Ġterrorists": 5851,
      "iership": 5852,
      "Ġsmaller": 5853,
      "Ġactivity": 5854,
      "Ġconnect": 5855,
      "ĠRoyal": 5856,
      "Ġfriend": 5857,
      "Ġhelicop": 5858,
      "Sch": 5859,
      "TV": 5860,
      "gic": 5861,
      "iary": 5862,
      "ĠSk": 5863,
      "ĠCITY": 5864,
      "ĠPedro": 5865,
      "irth": 5866,
      "Ġgoods": 5867,
      "ĠLib": 5868,
      "Ġalthough": 5869,
      "Ġunions": 5870,
      "Ġflood": 5871,
      "Ġconfident": 5872,
      "ĠConf": 5873,
      "Ġspeculation": 5874,
      "Ġentered": 5875,
      "Ġbroadcast": 5876,
      "Ġindependent": 5877,
      "49": 5878,
      "65": 5879,
      "AZ": 5880,
      "Gr": 5881,
      "Ġturning": 5882,
      "usive": 5883,
      "Ġadmitted": 5884,
      "Ġmajority": 5885,
      "ĠPlayer": 5886,
      "ĠBigley": 5887,
      ")--": 5888,
      "million": 5889,
      "inter": 5890,
      "Ġwait": 5891,
      "ĠMess": 5892,
      "ĠFOR": 5893,
      "ucing": 5894,
      "Ġuns": 5895,
      "ĠJoe": 5896,
      "Ġbuys": 5897,
      "Ġputting": 5898,
      "Russian": 5899,
      "ĠHewitt": 5900,
      "ĠLaunch": 5901,
      "22": 5902,
      "Ġtext": 5903,
      "Ġbooks": 5904,
      "ĠWatch": 5905,
      "ĠNuclear": 5906,
      "ubble": 5907,
      "ĠSatellite": 5908,
      "Ġdeveloper": 5909,
      "ĠCongo": 5910,
      "ĠMartinez": 5911,
      "ĠConsumer": 5912,
      "Ġshooting": 5913,
      "ĠTarget": 5914,
      "mission": 5915,
      "Ġens": 5916,
      "inning": 5917,
      "Ġcit": 5918,
      "Ġpushed": 5919,
      "Ġhal": 5920,
      "Ġvice": 5921,
      "ĠChile": 5922,
      "Ġspend": 5923,
      "Ġspect": 5924,
      "ĠVis": 5925,
      "isher": 5926,
      "bert": 5927,
      "rowing": 5928,
      "Ġregional": 5929,
      "attled": 5930,
      "Ġsteel": 5931,
      "ĠInvestors": 5932,
      "Nokia": 5933,
      "Ġawa": 5934,
      "asion": 5935,
      "Ġmys": 5936,
      "ĠII": 5937,
      "ĠRun": 5938,
      "osen": 5939,
      "istons": 5940,
      "Ġage": 5941,
      "Ġscreen": 5942,
      "Ġdevast": 5943,
      "ĠCharl": 5944,
      "ĠMeet": 5945,
      "Ġimproved": 5946,
      "finance": 5947,
      "Ad": 5948,
      "UM": 5949,
      "cape": 5950,
      "rist": 5951,
      "Ġbol": 5952,
      "Ġliving": 5953,
      "Ġele": 5954,
      "Ġease": 5955,
      "ĠWil": 5956,
      "Ġagent": 5957,
      "Ġresigned": 5958,
      "Ġ45": 5959,
      "type": 5960,
      "ELS": 5961,
      "Ġstarts": 5962,
      "ĠTaliban": 5963,
      "Ġwithdrawal": 5964,
      "operation": 5965,
      "Ġmachines": 5966,
      "ĠScotland": 5967,
      "Ġmutual": 5968,
      "rast": 5969,
      "Ġcities": 5970,
      "Ġpatch": 5971,
      "terror": 5972,
      "chie": 5973,
      "Ġrook": 5974,
      "Ġdefending": 5975,
      "Ġparties": 5976,
      "Ġpromised": 5977,
      "Ġremaining": 5978,
      "ĠAmazon": 5979,
      "ĠHamm": 5980,
      "Ġprisoners": 5981,
      "hit": 5982,
      "heastern": 5983,
      "esis": 5984,
      "Ġmist": 5985,
      "ĠBears": 5986,
      "ushes": 5987,
      "Ġstadium": 5988,
      "Ġbehead": 5989,
      "ĠKey": 5990,
      "Ġovertime": 5991,
      "ĠShow": 5992,
      "Ġofficers": 5993,
      "place": 5994,
      "Ġremote": 5995,
      "rawl": 5996,
      "Ġ90": 5997,
      "Ġresponse": 5998,
      "Ġembassy": 5999,
      "ĠRoddick": 6000,
      "Ġveteran": 6001,
      "AU": 6002,
      "election": 6003,
      "init": 6004,
      "ĠTampa": 6005,
      "ĠAnaheim": 6006,
      "ĠProbe": 6007,
      "Ġflash": 6008,
      "Ġstronger": 6009,
      "othing": 6010,
      "incinn": 6011,
      "Ġimmediately": 6012,
      "incinnati": 6013,
      "Gl": 6014,
      "HI": 6015,
      "Sing": 6016,
      "wait": 6017,
      "room": 6018,
      "Ġnarrow": 6019,
      "Ġvill": 6020,
      "iple": 6021,
      "ĠSpeed": 6022,
      "Ġindivid": 6023,
      "Ġtrouble": 6024,
      "ysis": 6025,
      "Ġstandards": 6026,
      "Ġedge": 6027,
      "Ġsimilar": 6028,
      "Ġdestro": 6029,
      "60": 6030,
      "CE": 6031,
      "erc": 6032,
      "onent": 6033,
      "ĠHop": 6034,
      "ĠEuro": 6035,
      "rier": 6036,
      "ĠJr": 6037,
      "ĠJournal": 6038,
      "ĠJordan": 6039,
      "icky": 6040,
      "assi": 6041,
      "ĠNewcastle": 6042,
      "ĠSha": 6043,
      "Ġdeclined": 6044,
      "Ġassist": 6045,
      "ĠGreenspan": 6046,
      "ĠAndre": 6047,
      "Ġhanded": 6048,
      "ĠNewsFactor": 6049,
      "Ġfinding": 6050,
      "Ġvotes": 6051,
      "jan": 6052,
      "uild": 6053,
      "Ġhum": 6054,
      "Ġlog": 6055,
      "uster": 6056,
      "ĠRand": 6057,
      "Ġabuse": 6058,
      "ĠBoost": 6059,
      "Ġhardware": 6060,
      "ĠLaunches": 6061,
      "Ġcast": 6062,
      "ĠHeat": 6063,
      "ĠLiber": 6064,
      "argo": 6065,
      "Ġattend": 6066,
      "Ġadvantage": 6067,
      "Ġvoice": 6068,
      "Ġmatches": 6069,
      "NewsFactor": 6070,
      "ĠPremiership": 6071,
      "ĠVerizon": 6072,
      "Ġwidely": 6073,
      "ca": 6074,
      "hran": 6075,
      "ĠAOL": 6076,
      "ĠRaid": 6077,
      "odak": 6078,
      "Ġattention": 6079,
      "ĠRev": 6080,
      "phere": 6081,
      "ĠPhone": 6082,
      "Ġstrikes": 6083,
      "Ġinvestigating": 6084,
      "Ġshuttle": 6085,
      "ĠTwins": 6086,
      "Ġincreasingly": 6087,
      "Ġsituation": 6088,
      "Kerry": 6089,
      "OP": 6090,
      "Ġsides": 6091,
      "Ġfine": 6092,
      "Ġdual": 6093,
      "ĠMid": 6094,
      "ĠInf": 6095,
      "abul": 6096,
      "Ġovernight": 6097,
      "Ġ38": 6098,
      "Ġprelim": 6099,
      "ĠBlu": 6100,
      "otten": 6101,
      "Ġentertainment": 6102,
      "Ġterrit": 6103,
      "ĠPacers": 6104,
      "Ġdescrib": 6105,
      "Ġbroken": 6106,
      "cription": 6107,
      "arq": 6108,
      "Ġword": 6109,
      "Ġpur": 6110,
      "ĠBas": 6111,
      "ĠBron": 6112,
      "Ġrecomm": 6113,
      "ĠLewis": 6114,
      "ĠThan": 6115,
      "Ġunbeaten": 6116,
      "ĠReports": 6117,
      "annel": 6118,
      "Ġfinds": 6119,
      "ĠRetail": 6120,
      "ĠAtlantic": 6121,
      "ĠMontreal": 6122,
      "Ġrenewed": 6123,
      "Cent": 6124,
      "TC": 6125,
      "ped": 6126,
      "Ġhole": 6127,
      "ĠHer": 6128,
      "apova": 6129,
      "ĠStan": 6130,
      "Ġleaves": 6131,
      "ĠKAB": 6132,
      "Ġkind": 6133,
      "Ġ41": 6134,
      "Ġplanet": 6135,
      "Ġdoing": 6136,
      "iversary": 6137,
      "minent": 6138,
      "Ġacquired": 6139,
      "Ġunveils": 6140,
      "Ġmagazine": 6141,
      "prof": 6142,
      "Ġvehicle": 6143,
      "ĠRedskins": 6144,
      "Vo": 6145,
      "yond": 6146,
      "Ġtent": 6147,
      "inch": 6148,
      "Ġwave": 6149,
      "irus": 6150,
      "Ġbeyond": 6151,
      "Ġquiet": 6152,
      "Ġreserv": 6153,
      "ointed": 6154,
      "ĠColumb": 6155,
      "opped": 6156,
      "Ġsemi": 6157,
      "Ġseparate": 6158,
      "Ġspeech": 6159,
      "ĠKABUL": 6160,
      "PA": 6161,
      "PM": 6162,
      "cks": 6163,
      "zy": 6164,
      "ĠToshiba": 6165,
      "Ġvowed": 6166,
      "Ġspir": 6167,
      "ĠYour": 6168,
      "Ġovert": 6169,
      "Ġdisaster": 6170,
      "USS": 6171,
      "Ġparent": 6172,
      "ietnam": 6173,
      "ĠStrike": 6174,
      "Ġdisappointing": 6175,
      "ĠJewish": 6176,
      "05": 6177,
      "Will": 6178,
      "cons": 6179,
      "Ġbin": 6180,
      "Ġinn": 6181,
      "Ġmine": 6182,
      "outs": 6183,
      "state": 6184,
      "ĠMr": 6185,
      "ĠMove": 6186,
      "ĠBefore": 6187,
      "ĠNL": 6188,
      "ests": 6189,
      "iana": 6190,
      "Ġaband": 6191,
      "Ġscoring": 6192,
      "ĠSecond": 6193,
      "Ġremov": 6194,
      "Ġadds": 6195,
      "Ġtelecommunications": 6196,
      "Ġdeaths": 6197,
      "buster": 6198,
      "arqawi": 6199,
      ".;": 6200,
      "feld": 6201,
      "ĠMet": 6202,
      "ĠHard": 6203,
      "ĠJack": 6204,
      "antec": 6205,
      "Ġdefence": 6206,
      "INE": 6207,
      "Ġmeans": 6208,
      "Intern": 6209,
      "Ġfeature": 6210,
      "Ġsupercomputer": 6211,
      "ĠWayne": 6212,
      "cient": 6213,
      "iter": 6214,
      "Ġcorn": 6215,
      "Ġprize": 6216,
      "ĠCincinnati": 6217,
      "ĠMakes": 6218,
      "ĠBrian": 6219,
      "ĠRad": 6220,
      "ĠDr": 6221,
      "Ġopens": 6222,
      "Ġimages": 6223,
      "Ġheading": 6224,
      "Ġlaws": 6225,
      "Ġbrand": 6226,
      "Ġfailure": 6227,
      "Ġcontinuing": 6228,
      "Ġdirectors": 6229,
      "Ġmaintain": 6230,
      "ĠCapital": 6231,
      "Ġclean": 6232,
      "Ġearthquake": 6233,
      "aver": 6234,
      "fort": 6235,
      "iece": 6236,
      "jhtml": 6237,
      "Ġfranch": 6238,
      "Ġmic": 6239,
      "Ġmot": 6240,
      "ĠHockey": 6241,
      "arta": 6242,
      "Ġcontrib": 6243,
      "Ġappeals": 6244,
      "ĠForec": 6245,
      "Ġsued": 6246,
      "Ġbombings": 6247,
      "Ġleadership": 6248,
      "Ġtraditional": 6249,
      "Space": 6250,
      "ĠRooney": 6251,
      "ĠMorgan": 6252,
      "Ġwebsite": 6253,
      "21": 6254,
      "Cisco": 6255,
      "Kore": 6256,
      "sym": 6257,
      "Ġwords": 6258,
      "ĠMach": 6259,
      "ĠIM": 6260,
      "igious": 6261,
      "ĠWalk": 6262,
      "ĠFive": 6263,
      "ĠRavens": 6264,
      "Ġrather": 6265,
      "owb": 6266,
      "ĠDollar": 6267,
      "ĠGary": 6268,
      "oca": 6269,
      "ĠThird": 6270,
      "Ġworm": 6271,
      "seeded": 6272,
      "anged": 6273,
      "Ġassass": 6274,
      "Ġpostp": 6275,
      "oppers": 6276,
      "ijay": 6277,
      "ĠPlayers": 6278,
      "ofi": 6279,
      "Ġgrab": 6280,
      "Ġrallied": 6281,
      "Dell": 6282,
      "Ġtiny": 6283,
      "esh": 6284,
      "Ġbarg": 6285,
      "ĠSA": 6286,
      "ĠSi": 6287,
      "ĠTax": 6288,
      "star": 6289,
      "ĠMake": 6290,
      "ĠeBay": 6291,
      "Ġrac": 6292,
      "ordon": 6293,
      "Ġcrimes": 6294,
      "Ġ700": 6295,
      "ooth": 6296,
      "QuoteLook": 6297,
      "Ġsuspects": 6298,
      "Ġinfotype": 6299,
      "Ġkeeping": 6300,
      "Ġnationwide": 6301,
      "Former": 6302,
      "Ġqcat": 6303,
      "Ġqtype": 6304,
      "financeQuoteLook": 6305,
      "financeQuoteLookup": 6306,
      "LS": 6307,
      "Ser": 6308,
      "Ship": 6309,
      "va": 6310,
      "inos": 6311,
      "Ġbacks": 6312,
      "icious": 6313,
      "rob": 6314,
      "ĠSub": 6315,
      "ĠSeeks": 6316,
      "Ġder": 6317,
      "Ġdie": 6318,
      "ĠAid": 6319,
      "ĠPT": 6320,
      "Ġlives": 6321,
      "Ġplays": 6322,
      "Ġplaced": 6323,
      "ĠChart": 6324,
      "aby": 6325,
      "Ġalliance": 6326,
      "apped": 6327,
      "umped": 6328,
      "Ġincreases": 6329,
      "Ġdiscover": 6330,
      "Ġcompete": 6331,
      "ĠTehran": 6332,
      "Ġcaptured": 6333,
      "ĠAuto": 6334,
      "ĠBelg": 6335,
      "Ġtackle": 6336,
      "ĠArgentina": 6337,
      "Pol": 6338,
      "aug": 6339,
      "fizer": 6340,
      "arily": 6341,
      "Ġfan": 6342,
      "icts": 6343,
      "Ġdies": 6344,
      "idered": 6345,
      "Ġreject": 6346,
      "ĠRiver": 6347,
      "Ġrises": 6348,
      "ĠLarry": 6349,
      "Ġlear": 6350,
      "Ġslam": 6351,
      "Ġknock": 6352,
      "umps": 6353,
      "Ġrebounds": 6354,
      "Ġclaiming": 6355,
      "Ġsucceed": 6356,
      "ĠGuard": 6357,
      "Ġinstant": 6358,
      "stitute": 6359,
      "United": 6360,
      "Ġcamera": 6361,
      "Ġdozens": 6362,
      "celona": 6363,
      "ĠNobel": 6364,
      "ymnast": 6365,
      "Ġcitiz": 6366,
      "Off": 6367,
      "Sudan": 6368,
      "Ġten": 6369,
      "Ġfair": 6370,
      "Ġham": 6371,
      "ĠMel": 6372,
      "Ġnatural": 6373,
      "ĠWor": 6374,
      "illy": 6375,
      "ĠLee": 6376,
      "apers": 6377,
      "berg": 6378,
      "rowns": 6379,
      "Ġallowing": 6380,
      "Ġattorney": 6381,
      "Ġofficially": 6382,
      "Ġsupporters": 6383,
      "Ġextension": 6384,
      "ĠOffer": 6385,
      "Ġrookie": 6386,
      "BUR": 6387,
      "cos": 6388,
      "cine": 6389,
      "well": 6390,
      "Ġwest": 6391,
      "Ġbell": 6392,
      "estone": 6393,
      "Ġabs": 6394,
      "anges": 6395,
      "Ġlineup": 6396,
      "Ġlaunching": 6397,
      "Ġsentenced": 6398,
      "Ġcaught": 6399,
      "Ġpredict": 6400,
      "Comp": 6401,
      "ĠAccording": 6402,
      "Ġvehicles": 6403,
      "ĠEconomic": 6404,
      "TLE": 6405,
      "mond": 6406,
      "yad": 6407,
      "Ġsun": 6408,
      "ĠSports": 6409,
      "ĠWalt": 6410,
      "ĠEqu": 6411,
      "agon": 6412,
      "aints": 6413,
      "ĠInj": 6414,
      "ĠIsland": 6415,
      "Ġcapacity": 6416,
      "Ġattacked": 6417,
      "Ġevening": 6418,
      "ĠIndianapolis": 6419,
      "ĠTroops": 6420,
      "ĠAuthor": 6421,
      "70": 6422,
      "Bra": 6423,
      "More": 6424,
      "Ġtechnologies": 6425,
      "het": 6426,
      "anes": 6427,
      "urton": 6428,
      "ĠBreak": 6429,
      "Ġstret": 6430,
      "lying": 6431,
      "Ġrout": 6432,
      "Ġperfect": 6433,
      "iburton": 6434,
      "Ġkeeps": 6435,
      "Ġedged": 6436,
      "Ġsolution": 6437,
      "Ġelimin": 6438,
      "ĠEgyptian": 6439,
      "ĠMilan": 6440,
      "Ġrestructuring": 6441,
      "kle": 6442,
      "Ġsy": 6443,
      "Ġsal": 6444,
      "Ġpip": 6445,
      "igger": 6446,
      "Ġrein": 6447,
      "Ġcomeb": 6448,
      "Ġoverall": 6449,
      "ucation": 6450,
      "Ġdefeated": 6451,
      "Ġdemocracy": 6452,
      "Ġholds": 6453,
      "ervez": 6454,
      "Ġprosecutors": 6455,
      "ĠJacques": 6456,
      "AA": 6457,
      "First": 6458,
      "Ġbi": 6459,
      "Ġdatabase": 6460,
      "ĠHass": 6461,
      "Ġability": 6462,
      "ĠAnother": 6463,
      "Ġproviders": 6464,
      "Ġreporting": 6465,
      "Ġauto": 6466,
      "Ġfeel": 6467,
      "ĠEntertainment": 6468,
      "CAA": 6469,
      "Ġcoup": 6470,
      "Ġtell": 6471,
      "arks": 6472,
      "Ġwake": 6473,
      "ĠSY": 6474,
      "ĠPervez": 6475,
      "Ġemail": 6476,
      "ĠGh": 6477,
      "Ġcomments": 6478,
      "Ġwhite": 6479,
      "Ġking": 6480,
      "Ġunless": 6481,
      "venue": 6482,
      "Ġchoice": 6483,
      "ĠDenver": 6484,
      "Ġexpressed": 6485,
      "Ġsongs": 6486,
      "Ġrapid": 6487,
      "Ġwond": 6488,
      "Ġpra": 6489,
      "ĠSum": 6490,
      "ĠSamsung": 6491,
      "ĠPeople": 6492,
      "adem": 6493,
      "Ġgiants": 6494,
      "ĠHear": 6495,
      "Ġchances": 6496,
      "Ġagencies": 6497,
      "iege": 6498,
      "ĠAli": 6499,
      "Ġassoci": 6500,
      "Ġviolent": 6501,
      "engers": 6502,
      "Ġtowards": 6503,
      "Ġseparat": 6504,
      "Ġapolog": 6505,
      "DS": 6506,
      "IG": 6507,
      "hood": 6508,
      "Ġachie": 6509,
      "icals": 6510,
      "olm": 6511,
      "owled": 6512,
      "ĠDun": 6513,
      "aked": 6514,
      "Ġvan": 6515,
      "enders": 6516,
      "ounce": 6517,
      "Ġseized": 6518,
      "Ġenj": 6519,
      "Ġraises": 6520,
      "Ġthreatening": 6521,
      "Ġobserv": 6522,
      "Ġcomeback": 6523,
      "18": 6524,
      "AOL": 6525,
      "haps": 6526,
      "icing": 6527,
      "ĠSING": 6528,
      "ĠAthlet": 6529,
      "Ġonto": 6530,
      "ĠBeckham": 6531,
      "Ġeased": 6532,
      "thrit": 6533,
      "ĠGov": 6534,
      "ourcing": 6535,
      "ĠUnveil": 6536,
      "Ġbacked": 6537,
      "Ġtelecom": 6538,
      "ĠManagement": 6539,
      "Ġadvis": 6540,
      "Ġpoised": 6541,
      "Ġtempor": 6542,
      "Ġvendor": 6543,
      "Ġzone": 6544,
      "ĠThomas": 6545,
      "Ġpreliminary": 6546,
      "04": 6547,
      "Ġpen": 6548,
      "Ġbomber": 6549,
      "Ġdrove": 6550,
      "ecess": 6551,
      "ĠGates": 6552,
      "ĠHO": 6553,
      "ĠStore": 6554,
      "Ġwash": 6555,
      "Ġimm": 6556,
      "Ġcommand": 6557,
      "sule": 6558,
      "foWorld": 6559,
      "ĠTurkish": 6560,
      "rolled": 6561,
      "ShipOne": 6562,
      "had": 6563,
      "met": 6564,
      "Ġult": 6565,
      "reens": 6566,
      "Ġmal": 6567,
      "ĠPet": 6568,
      "ĠHave": 6569,
      "APORE": 6570,
      "Ġblasts": 6571,
      "ĠLeads": 6572,
      "gram": 6573,
      "pril": 6574,
      "elson": 6575,
      "Study": 6576,
      "ĠColts": 6577,
      "posed": 6578,
      "ĠSeven": 6579,
      "ĠQue": 6580,
      "Ġprocessors": 6581,
      "Ġevents": 6582,
      "Ġlifted": 6583,
      "Ġdrives": 6584,
      "udden": 6585,
      "Ġvendors": 6586,
      "Ġwelcom": 6587,
      "ĠChallenge": 6588,
      "ĠClaims": 6589,
      "och": 6590,
      "Ġfees": 6591,
      "Ġcerem": 6592,
      "aling": 6593,
      "Ġpiracy": 6594,
      "Ġdream": 6595,
      "ĠAuburn": 6596,
      "ached": 6597,
      "ĠNe": 6598,
      "ĠVietnam": 6599,
      "Ġtruck": 6600,
      "ĠHead": 6601,
      "ĠToday": 6602,
      "raphics": 6603,
      "Ġinvolving": 6604,
      "ĠSteelers": 6605,
      "ĠSINGAPORE": 6606,
      "thritis": 6607,
      "FC": 6608,
      "Source": 6609,
      "ae": 6610,
      "sters": 6611,
      "Ġtur": 6612,
      "Ġsidel": 6613,
      "Ġfort": 6614,
      "ĠHoll": 6615,
      "osh": 6616,
      "umph": 6617,
      "ĠVijay": 6618,
      "ĠUnit": 6619,
      "Ġannounces": 6620,
      "Ġfailing": 6621,
      "ĠSchilling": 6622,
      "ĠLeaders": 6623,
      "Ġemerged": 6624,
      "Ġcriticism": 6625,
      "29": 6626,
      "itude": 6627,
      "Ġbul": 6628,
      "ĠCarter": 6629,
      "Ġworks": 6630,
      "ĠUSA": 6631,
      "Ġgovernments": 6632,
      "Ġrefused": 6633,
      "Ġcondem": 6634,
      "Ġsafe": 6635,
      "Ġportable": 6636,
      "ĠVenezuela": 6637,
      "Ġunlikely": 6638,
      "Bomb": 6639,
      "born": 6640,
      "Ġice": 6641,
      "eland": 6642,
      "ĠPhelps": 6643,
      "Ġlap": 6644,
      "ĠDirect": 6645,
      "unich": 6646,
      "Ġaltern": 6647,
      "Ġwinds": 6648,
      "ebr": 6649,
      "Ġpartic": 6650,
      "Ġdelays": 6651,
      "ĠSeason": 6652,
      "Ġstreets": 6653,
      "EA": 6654,
      "aida": 6655,
      "auts": 6656,
      "eras": 6657,
      "ĠBus": 6658,
      "agers": 6659,
      "Ġshipping": 6660,
      "Ġplun": 6661,
      "uggle": 6662,
      "Ġnewly": 6663,
      "Ġjury": 6664,
      "Ġplanes": 6665,
      "Ġsurround": 6666,
      "ĠForces": 6667,
      "ĠMcC": 6668,
      "ĠFinal": 6669,
      "Ġinstall": 6670,
      "Ġdoubled": 6671,
      "Ġproperty": 6672,
      "Ġencoura": 6673,
      "Ġwaiting": 6674,
      "Ġdramatic": 6675,
      "ST": 6676,
      "power": 6677,
      "etts": 6678,
      "amous": 6679,
      "ĠRap": 6680,
      "rav": 6681,
      "ĠLions": 6682,
      "Ġoffset": 6683,
      "Ġalive": 6684,
      "Ġresum": 6685,
      "Ġanniversary": 6686,
      "ĠPlc": 6687,
      "Ġpassenger": 6688,
      "Ġdeadl": 6689,
      "Ġturns": 6690,
      "Ġpeacekeep": 6691,
      "sharing": 6692,
      "ĠBuild": 6693,
      "ĠAcqu": 6694,
      "Ġbreaking": 6695,
      "Ġmanufacturer": 6696,
      "Central": 6697,
      "EG": 6698,
      "haul": 6699,
      "Ġself": 6700,
      "ĠSign": 6701,
      "ĠAB": 6702,
      "ĠApril": 6703,
      "Ġgri": 6704,
      "ĠGolf": 6705,
      "ĠGordon": 6706,
      "emen": 6707,
      "Ġheat": 6708,
      "ĠKar": 6709,
      "ĠKobe": 6710,
      "Ġconsidered": 6711,
      "Ġrevers": 6712,
      "Ġbanned": 6713,
      "Blair": 6714,
      "Ġcollapse": 6715,
      "Ġpicked": 6716,
      "ĠRebels": 6717,
      "Ġoccup": 6718,
      "Ġerup": 6719,
      "anguage": 6720,
      "Ġtechnical": 6721,
      "47": 6722,
      "Bar": 6723,
      "gu": 6724,
      "side": 6725,
      "Ġcurb": 6726,
      "Ġris": 6727,
      "quarters": 6728,
      "ĠJagu": 6729,
      "ables": 6730,
      "Ġtrigger": 6731,
      "oya": 6732,
      "oyal": 6733,
      "Ġ65": 6734,
      "Ġannouncing": 6735,
      "italia": 6736,
      "Ġsoaring": 6737,
      "Ġraid": 6738,
      "inois": 6739,
      "ĠChechen": 6740,
      "NEY": 6741,
      "owboys": 6742,
      "sun": 6743,
      "Ġcold": 6744,
      "usetts": 6745,
      "Ġstreet": 6746,
      "ĠYoung": 6747,
      "achusetts": 6748,
      "oyota": 6749,
      "Ġfalls": 6750,
      "known": 6751,
      "ummary": 6752,
      "Ġcreating": 6753,
      "ĠLebanon": 6754,
      "aire": 6755,
      "tada": 6756,
      "Ġinquiry": 6757,
      "ĠSource": 6758,
      "Ġhurricanes": 6759,
      "lement": 6760,
      "Ġongoing": 6761,
      "ĠPle": 6762,
      "ĠPass": 6763,
      "ĠOpt": 6764,
      "ĠJays": 6765,
      "ĠJersey": 6766,
      "Ġquite": 6767,
      "ĠKim": 6768,
      "Ġuser": 6769,
      "Ġseasons": 6770,
      "Ġheads": 6771,
      "eseason": 6772,
      "Ġpostseason": 6773,
      "Ġpatients": 6774,
      "Ġtraded": 6775,
      "Ġmessages": 6776,
      "Ġpushing": 6777,
      "ĠEnterprise": 6778,
      "Ġlawyers": 6779,
      "ĠJeanne": 6780,
      "Ġidea": 6781,
      "cont": 6782,
      "pass": 6783,
      "ister": 6784,
      "irates": 6785,
      "ĠRay": 6786,
      "imp": 6787,
      "ĠKofi": 6788,
      "Ġsecurities": 6789,
      "ector": 6790,
      "Ġcontracts": 6791,
      "Ġtries": 6792,
      "Ġconvicted": 6793,
      "Ġfranchise": 6794,
      "Ġeither": 6795,
      "ĠDEL": 6796,
      "ĠJam": 6797,
      "aped": 6798,
      "ĠStud": 6799,
      "Ġclashes": 6800,
      "Ġunf": 6801,
      "Ġliqu": 6802,
      "ĠMartha": 6803,
      "Ġschools": 6804,
      "Ġcivilians": 6805,
      "Ġimproving": 6806,
      "Ġuncertain": 6807,
      "ĠBobby": 6808,
      "Ġsurprising": 6809,
      "Big": 6810,
      "Wal": 6811,
      "bar": 6812,
      "burg": 6813,
      "dollar": 6814,
      "Ġdial": 6815,
      "ĠCD": 6816,
      "ĠMah": 6817,
      "ĠPH": 6818,
      "ĠVI": 6819,
      "ĠCommerce": 6820,
      "Ġinjuring": 6821,
      "related": 6822,
      "Ġpossibly": 6823,
      "Ġstatus": 6824,
      "Ġfavour": 6825,
      "Ġmeasures": 6826,
      "ĠMassachusetts": 6827,
      "Ġdismissed": 6828,
      "PH": 6829,
      "Ġpact": 6830,
      "ĠCurt": 6831,
      "ĠMiller": 6832,
      "ĠId": 6833,
      "ĠPackers": 6834,
      "ĠWild": 6835,
      "Ġconvention": 6836,
      "Ġcontest": 6837,
      "lected": 6838,
      "atcher": 6839,
      "ennan": 6840,
      "Ġposts": 6841,
      "Ġdevelopers": 6842,
      "arming": 6843,
      "ĠNigerian": 6844,
      "Ġwashington": 6845,
      "\"\\": 6846,
      "Am": 6847,
      "DNEY": 6848,
      "EFA": 6849,
      "SA": 6850,
      "bel": 6851,
      "cost": 6852,
      "ez": 6853,
      "wh": 6854,
      "Ġsigning": 6855,
      "aret": 6856,
      "Ġfit": 6857,
      "Ġbirth": 6858,
      "ĠSold": 6859,
      "ĠDaily": 6860,
      "ĠLo": 6861,
      "Ġshots": 6862,
      "Ġexam": 6863,
      "Ġunits": 6864,
      "ĠAnton": 6865,
      "ibbean": 6866,
      "Ġslide": 6867,
      "Ġconserv": 6868,
      "ĠĠĠĠ": 6869,
      "airs": 6870,
      "ĠBlock": 6871,
      "Ġinsisted": 6872,
      "ĠIranian": 6873,
      "Ġexplosives": 6874,
      "ĠSettle": 6875,
      "ĠMilitants": 6876,
      "Ġradical": 6877,
      "Ġrefugee": 6878,
      "Ġwashingtonpost": 6879,
      "How": 6880,
      "ĠSqu": 6881,
      "Ġmos": 6882,
      "ĠTre": 6883,
      "Ġlows": 6884,
      "ĠNO": 6885,
      "akarta": 6886,
      "ĠKenn": 6887,
      "ĠKabul": 6888,
      "acking": 6889,
      "outheast": 6890,
      "ĠShare": 6891,
      "herlands": 6892,
      "ĠSpam": 6893,
      "Ġworker": 6894,
      "Ġcommunications": 6895,
      "Ġweight": 6896,
      "iversal": 6897,
      "shot": 6898,
      "Ġreceive": 6899,
      "Ġcondition": 6900,
      "Ġpractices": 6901,
      "Ġfigure": 6902,
      "Ġmachine": 6903,
      "Arafat": 6904,
      "ĠSYDNEY": 6905,
      "Gold": 6906,
      "General": 6907,
      "Le": 6908,
      "SEC": 6909,
      "pen": 6910,
      "Ġera": 6911,
      "Ġsound": 6912,
      "ĠHD": 6913,
      "ĠLim": 6914,
      "Ġatomic": 6915,
      "ĠStudy": 6916,
      "azer": 6917,
      "ĠPlus": 6918,
      "Ġswitch": 6919,
      "ĠOffers": 6920,
      "MSFT": 6921,
      "ĠDelhi": 6922,
      "elesc": 6923,
      "Ġmulti": 6924,
      "ĠBrazilian": 6925,
      "Ġdriving": 6926,
      "Ġlawyer": 6927,
      "Neal": 6928,
      "Qaida": 6929,
      "isation": 6930,
      "Ġhockey": 6931,
      "ĠPast": 6932,
      "ĠPistons": 6933,
      "endum": 6934,
      "Ġimpress": 6935,
      "ĠWarns": 6936,
      "ĠBarcelona": 6937,
      "Ġgreater": 6938,
      "ĠDemocrats": 6939,
      "Ġgained": 6940,
      "ĠArabia": 6941,
      "Ġsquad": 6942,
      "Ġlegislation": 6943,
      "Ġrescue": 6944,
      "Se": 6945,
      "Sm": 6946,
      "uros": 6947,
      "Ġbench": 6948,
      "ĠTel": 6949,
      "ĠTurn": 6950,
      "ĠWomen": 6951,
      "Ġracing": 6952,
      "cher": 6953,
      "Ġrecogn": 6954,
      "Ġstruggle": 6955,
      "Ġinfring": 6956,
      "ructure": 6957,
      "ĠAdvanced": 6958,
      "standing": 6959,
      "embly": 6960,
      "ergus": 6961,
      "ĠMcLennan": 6962,
      "final": 6963,
      "itect": 6964,
      "ĠSBC": 6965,
      "lee": 6966,
      "oline": 6967,
      "employ": 6968,
      "Ġopportunity": 6969,
      "ashion": 6970,
      "Ġdriven": 6971,
      "Ġholy": 6972,
      "Sharon": 6973,
      "ĠCounty": 6974,
      "IV": 6975,
      "ban": 6976,
      "mate": 6977,
      "Ġcur": 6978,
      "ĠSeek": 6979,
      "ĠWon": 6980,
      "ĠGe": 6981,
      "ĠThanks": 6982,
      "Ġspread": 6983,
      "Ġ48": 6984,
      "Ġreleases": 6985,
      "Ġevac": 6986,
      "ĠPeter": 6987,
      "Ġviruses": 6988,
      "Phil": 6989,
      "ĠVoIP": 6990,
      "USSELS": 6991,
      "Ġ)": 6992,
      "esters": 6993,
      "Ġdi": 6994,
      "Ġnotebook": 6995,
      "Ġlibr": 6996,
      "Ġheard": 6997,
      "Ġattract": 6998,
      "ERS": 6999,
      "Ġprovided": 7000,
      "Ġpassengers": 7001,
      "ĠWorkers": 7002,
      "Australian": 7003,
      "ĠFields": 7004,
      "Ġdozen": 7005,
      "Ġconclud": 7006,
      "ĠConnect": 7007,
      "300": 7008,
      "Ġshel": 7009,
      "rett": 7010,
      "ayer": 7011,
      "ĠCos": 7012,
      "ĠPad": 7013,
      "ĠBBC": 7014,
      "ĠNeed": 7015,
      "ĠFerr": 7016,
      "ĠGas": 7017,
      "ĠEven": 7018,
      "Ġprove": 7019,
      "artner": 7020,
      "AND": 7021,
      "iamond": 7022,
      "AMA": 7023,
      "Ġpromises": 7024,
      "Ġsolar": 7025,
      "Ġeverything": 7026,
      "Ġsemiconductor": 7027,
      "Ġplayoffs": 7028,
      "ĠUsers": 7029,
      "ĠMalaysia": 7030,
      "TT": 7031,
      "bor": 7032,
      "mits": 7033,
      "hem": 7034,
      "Ġconstruction": 7035,
      "Ġspring": 7036,
      "Ġenh": 7037,
      "Ġorganization": 7038,
      "Ġ76": 7039,
      "Ġthroughout": 7040,
      "ĠCaribbean": 7041,
      "Ġfellow": 7042,
      "ĠSunni": 7043,
      "Ġtaxes": 7044,
      "Ġfriends": 7045,
      "ĠStandard": 7046,
      "Ġsplit": 7047,
      "CI": 7048,
      "mens": 7049,
      "Ġbal": 7050,
      "ĠAhead": 7051,
      "ĠCassini": 7052,
      "Ġstopped": 7053,
      "Ġdeleg": 7054,
      "avez": 7055,
      "ovo": 7056,
      "uresmo": 7057,
      "ĠMariners": 7058,
      "Ġadditional": 7059,
      "Ġsells": 7060,
      "armony": 7061,
      "iolence": 7062,
      "Ġbeta": 7063,
      "ĠFirm": 7064,
      "Ġconnection": 7065,
      "Ġbitter": 7066,
      "ĠKyoto": 7067,
      "Ġbottom": 7068,
      "erguson": 7069,
      "45": 7070,
      "90": 7071,
      "Bo": 7072,
      "Ver": 7073,
      "inters": 7074,
      "rell": 7075,
      "ĠTrial": 7076,
      "Ġgear": 7077,
      "ĠNA": 7078,
      "ĠDan": 7079,
      "ĠHy": 7080,
      "ĠStrong": 7081,
      "Ġaggress": 7082,
      "ipe": 7083,
      "ashing": 7084,
      "Ġaren": 7085,
      "Ġbeats": 7086,
      "Ġbreaks": 7087,
      "Ġsteady": 7088,
      "Ġpresent": 7089,
      "Ġmessaging": 7090,
      "Ġcombat": 7091,
      "French": 7092,
      "Ġclimbed": 7093,
      "ĠBRUSSELS": 7094,
      "Ġresolve": 7095,
      "Ġenvironmental": 7096,
      "BO": 7097,
      "Berry": 7098,
      "Ġbre": 7099,
      "Ġhour": 7100,
      "otes": 7101,
      "Ġrat": 7102,
      "ĠOv": 7103,
      "cean": 7104,
      "Ġrecr": 7105,
      "Ġcommittee": 7106,
      "Ġrelie": 7107,
      "Ġjoining": 7108,
      "Ġidentity": 7109,
      "LAND": 7110,
      "Ġpledged": 7111,
      "Ġsemifinals": 7112,
      "Ġcorner": 7113,
      "All": 7114,
      "oen": 7115,
      "ua": 7116,
      "Ġfrust": 7117,
      "alyst": 7118,
      "ĠSears": 7119,
      "Ġmaster": 7120,
      "ĠLyn": 7121,
      "emens": 7122,
      "Ġphys": 7123,
      "Ġairlines": 7124,
      "Ġmanaged": 7125,
      "ĠAppl": 7126,
      "Ġinjuries": 7127,
      "Ġfounder": 7128,
      "azaa": 7129,
      "ĠOrd": 7130,
      "ĠNetherlands": 7131,
      "Ġpredicted": 7132,
      "Ġsubscribers": 7133,
      "Ġfighters": 7134,
      "ĠLibya": 7135,
      "46": 7136,
      "Judge": 7137,
      "ground": 7138,
      "like": 7139,
      "Ġtable": 7140,
      "Ġtied": 7141,
      "Ġsudden": 7142,
      "arr": 7143,
      "icated": 7144,
      "omer": 7145,
      "eled": 7146,
      "ĠBOS": 7147,
      "Ġdeput": 7148,
      "enda": 7149,
      "ĠKmart": 7150,
      "ifying": 7151,
      "Ġspyware": 7152,
      "ubs": 7153,
      "ossible": 7154,
      "ĠArrest": 7155,
      "Ġsuspension": 7156,
      "redit": 7157,
      "Ġpolitic": 7158,
      "ĠQuest": 7159,
      "Ġmodels": 7160,
      "ĠSchw": 7161,
      "CoMo": 7162,
      "Ġresignation": 7163,
      "rastructure": 7164,
      "ĠHOUS": 7165,
      "Card": 7166,
      "Delta": 7167,
      "Zarqawi": 7168,
      "zz": 7169,
      "Ġcease": 7170,
      "ĠSalv": 7171,
      "leans": 7172,
      "ĠJer": 7173,
      "Ġdepart": 7174,
      "ensing": 7175,
      "Ġregard": 7176,
      "Ġmilitia": 7177,
      "inking": 7178,
      "Ġanything": 7179,
      "Ġsky": 7180,
      "Ġclinch": 7181,
      "Ġjournalists": 7182,
      "Ġprepare": 7183,
      "Ġdangerous": 7184,
      "awaited": 7185,
      "Ġenjoy": 7186,
      "CD": 7187,
      "IAN": 7188,
      "Sup": 7189,
      "qtada": 7190,
      "Ġsteroid": 7191,
      "ĠSEO": 7192,
      "omes": 7193,
      "omers": 7194,
      "amo": 7195,
      "ounces": 7196,
      "Ġalert": 7197,
      "antas": 7198,
      "ocket": 7199,
      "ORTS": 7200,
      "Ġbacking": 7201,
      "Ġflags": 7202,
      "Ġbigger": 7203,
      "athan": 7204,
      "Station": 7205,
      "ĠPhoto": 7206,
      "Ġknew": 7207,
      "Ġextrem": 7208,
      "ATION": 7209,
      "eneg": 7210,
      "Ġfaced": 7211,
      "ĠEdwards": 7212,
      "enalty": 7213,
      "Ġcarried": 7214,
      "Ġpleaded": 7215,
      "Ġseemed": 7216,
      "Ġbenefit": 7217,
      "Ġapparent": 7218,
      "ĠDevices": 7219,
      "Ġdetermin": 7220,
      "Ġhousing": 7221,
      "28": 7222,
      "Gu": 7223,
      "Pac": 7224,
      "lor": 7225,
      "oil": 7226,
      "wich": 7227,
      "stra": 7228,
      "ĠHand": 7229,
      "ĠSpitzer": 7230,
      "ĠAirport": 7231,
      "ĠBrad": 7232,
      "ĠEdition": 7233,
      "Ġstepped": 7234,
      "Ġmarathon": 7235,
      "Ġrespond": 7236,
      "ĠRyan": 7237,
      "Ġintroduce": 7238,
      "ĠLonghorn": 7239,
      "Ġstrengthen": 7240,
      "ĠAntonio": 7241,
      "Qaeda": 7242,
      "Ġfather": 7243,
      "Ġnort": 7244,
      "olid": 7245,
      "ĠFoods": 7246,
      "owa": 7247,
      "Ġankle": 7248,
      "ĠTheir": 7249,
      "ĠJakarta": 7250,
      "Ġvide": 7251,
      "Ġsharing": 7252,
      "Ġaccident": 7253,
      "Ġaccounts": 7254,
      "ĠClin": 7255,
      "Ġlawmakers": 7256,
      "Ġshowdown": 7257,
      "Ġserve": 7258,
      "Ġminute": 7259,
      "ĠOrleans": 7260,
      "Ġcleared": 7261,
      "Ġexpanding": 7262,
      "Ġdominated": 7263,
      "Ġpotentially": 7264,
      "ĠMaryland": 7265,
      "Ġceremony": 7266,
      "rated": 7267,
      "Ġpion": 7268,
      "ĠSite": 7269,
      "ĠSadr": 7270,
      "ĠPil": 7271,
      "ĠRoll": 7272,
      "iab": 7273,
      "Ġhighly": 7274,
      "Ġmedals": 7275,
      "Ġclosely": 7276,
      "Ġopponents": 7277,
      "iffe": 7278,
      "This": 7279,
      "mohan": 7280,
      "Afghan": 7281,
      "Ġwatched": 7282,
      "ĠRaises": 7283,
      "ĠOfficials": 7284,
      "Ġdestroy": 7285,
      "ĠHassan": 7286,
      "SU": 7287,
      "Time": 7288,
      "can": 7289,
      "king": 7290,
      "Ġsust": 7291,
      "Ġpaper": 7292,
      "Ġmind": 7293,
      "apter": 7294,
      "anson": 7295,
      "uces": 7296,
      "urned": 7297,
      "Ġinvestor": 7298,
      "ĠSerb": 7299,
      "ĠAdd": 7300,
      "ĠAdrian": 7301,
      "Ġstronghold": 7302,
      "utsche": 7303,
      "ĠBuff": 7304,
      "ĠRockets": 7305,
      "ĠAustria": 7306,
      "ĠColumbia": 7307,
      "piracy": 7308,
      "work": 7309,
      "ĠPublic": 7310,
      "uty": 7311,
      "ĠFox": 7312,
      "Ġaside": 7313,
      "Ġearn": 7314,
      "Ġslipped": 7315,
      "Ġdefend": 7316,
      "ĠEnv": 7317,
      "Ġanticipated": 7318,
      "cliffe": 7319,
      "Ġvisiting": 7320,
      "uggish": 7321,
      "Ġreaching": 7322,
      "ambod": 7323,
      "Ġlandmark": 7324,
      "Ġqualifier": 7325,
      "ĠGenesis": 7326,
      "ĠOsama": 7327,
      "Donald": 7328,
      "ĠOTTA": 7329,
      "Internet": 7330,
      "FI": 7331,
      "Ġir": 7332,
      "around": 7333,
      "Ġfarm": 7334,
      "Ġcore": 7335,
      "Ġporn": 7336,
      "ĠMad": 7337,
      "ĠMut": 7338,
      "ĠMour": 7339,
      "Ġcompens": 7340,
      "Ġoffices": 7341,
      "ĠPrince": 7342,
      "Ġarthritis": 7343,
      "Ġcannot": 7344,
      "Ġheadquarters": 7345,
      "Ġcorruption": 7346,
      "Ġreduced": 7347,
      "Ġholes": 7348,
      "ĠEls": 7349,
      "Ġsuffering": 7350,
      "Ġrejects": 7351,
      "ĠCharges": 7352,
      "ĠLabour": 7353,
      "Ġpicture": 7354,
      "ĠEmbassy": 7355,
      "ĠHOUSTON": 7356,
      "Brief": 7357,
      "FID": 7358,
      "SBC": 7359,
      "den": 7360,
      "uing": 7361,
      "oral": 7362,
      "Ġfat": 7363,
      "ĠColl": 7364,
      "ĠCanc": 7365,
      "ĠMarg": 7366,
      "ĠFar": 7367,
      "ĠRw": 7368,
      "ocal": 7369,
      "Ġagents": 7370,
      "Ġworry": 7371,
      "ĠShort": 7372,
      "azz": 7373,
      "Ġproduce": 7374,
      "arsh": 7375,
      "Ġlargely": 7376,
      "ĠFlat": 7377,
      "Ġ198": 7378,
      "umping": 7379,
      "Ġhitting": 7380,
      "Ġchem": 7381,
      "Ġpresence": 7382,
      "Ġrequire": 7383,
      "Ġsuggests": 7384,
      "ĠTitans": 7385,
      "ĠBattle": 7386,
      "ĠOTTAWA": 7387,
      "54": 7388,
      "Cons": 7389,
      "Court": 7390,
      "NFL": 7391,
      "Top": 7392,
      "arant": 7393,
      "ittle": 7394,
      "Ġbrawl": 7395,
      "Ġmus": 7396,
      "ili": 7397,
      "level": 7398,
      "omet": 7399,
      "acco": 7400,
      "ĠBol": 7401,
      "Ġgran": 7402,
      "Ġprojects": 7403,
      "ĠStaff": 7404,
      "ĠVodafone": 7405,
      "lando": 7406,
      "Ġcouldn": 7407,
      "Ġ55": 7408,
      "ahawks": 7409,
      "Ġparticip": 7410,
      "ĠForest": 7411,
      "Ġbids": 7412,
      "amilton": 7413,
      "Ġsuccessor": 7414,
      "ILLE": 7415,
      "Cola": 7416,
      "ĠMotorola": 7417,
      "Ġassistant": 7418,
      "Ed": 7419,
      "def": 7420,
      "tops": 7421,
      "Ġcart": 7422,
      "ĠCalls": 7423,
      "ĠOb": 7424,
      "ĠOpp": 7425,
      "ulate": 7426,
      "ĠKodak": 7427,
      "uccess": 7428,
      "onda": 7429,
      "ĠArctic": 7430,
      "Ġtriumph": 7431,
      "ĠPhill": 7432,
      "ĠApprov": 7433,
      "Ġpaying": 7434,
      "EST": 7435,
      "ĠMotion": 7436,
      "Ġmodest": 7437,
      "Ġeasier": 7438,
      "Ġcritics": 7439,
      "ĠHelens": 7440,
      "Ġcameras": 7441,
      "Ġpitched": 7442,
      "ĠGarc": 7443,
      "ĠCitigroup": 7444,
      "azeera": 7445,
      "cott": 7446,
      "giving": 7447,
      "Ġdig": 7448,
      "stone": 7449,
      "irt": 7450,
      "ĠWenger": 7451,
      "ĠFind": 7452,
      "ĠRules": 7453,
      "ĠUEFA": 7454,
      "ĠTheft": 7455,
      "umacher": 7456,
      "Ġexpert": 7457,
      "izards": 7458,
      "Ġads": 7459,
      "grade": 7460,
      "urred": 7461,
      "Ġamount": 7462,
      "Ġsuspect": 7463,
      "Ġexplo": 7464,
      "Ġproduced": 7465,
      "Ġanyone": 7466,
      "Ġconduct": 7467,
      "Ġmanufacturers": 7468,
      "Ġwrites": 7469,
      "ĠMosul": 7470,
      "ĠMyan": 7471,
      "Ġurges": 7472,
      "Ġranking": 7473,
      "ĠForecast": 7474,
      "Sw": 7475,
      "TH": 7476,
      "fall": 7477,
      "life": 7478,
      "rone": 7479,
      "Ġign": 7480,
      "Ġhur": 7481,
      "leet": 7482,
      "Ġdoping": 7483,
      "idend": 7484,
      "through": 7485,
      "ĠLine": 7486,
      "Ġsav": 7487,
      "ounced": 7488,
      "inea": 7489,
      "ĠAnth": 7490,
      "ĠOper": 7491,
      "Ġimplement": 7492,
      "BAD": 7493,
      "Ġcausing": 7494,
      "Ġkidnappers": 7495,
      "Ġmeasure": 7496,
      "ĠHostage": 7497,
      "Ġinventories": 7498,
      "Ġresponsible": 7499,
      "Ġchallenges": 7500,
      "Ġdescribed": 7501,
      "sunami": 7502,
      "ĠBOSTON": 7503,
      "ateway": 7504,
      "aying": 7505,
      "ĠFut": 7506,
      "ĠDC": 7507,
      "ĠESP": 7508,
      "Ġproceed": 7509,
      "aching": 7510,
      "Ġimpl": 7511,
      "Ġorbit": 7512,
      "Ġproviding": 7513,
      "ikes": 7514,
      "ĠSea": 7515,
      "Ġjoins": 7516,
      "ucky": 7517,
      "Ġpossibility": 7518,
      "ĠSym": 7519,
      "ĠMuslims": 7520,
      "Ġsuccessfully": 7521,
      "Korea": 7522,
      "ĠMyanmar": 7523,
      ".\\\\": 7524,
      "DP": 7525,
      "Ital": 7526,
      "dney": 7527,
      "nel": 7528,
      "ss": 7529,
      "tech": 7530,
      "woman": 7531,
      "Ġcases": 7532,
      "alem": 7533,
      "ĠSocial": 7534,
      "ĠTool": 7535,
      "ĠMany": 7536,
      "Ġlinks": 7537,
      "Ġgro": 7538,
      "ĠFal": 7539,
      "ĠFace": 7540,
      "ĠDet": 7541,
      "Ġseat": 7542,
      "icken": 7543,
      "ĠProv": 7544,
      "ologists": 7545,
      "UST": 7546,
      "Ġagrees": 7547,
      "ĠClose": 7548,
      "Ġcentre": 7549,
      "ĠEdge": 7550,
      "Ġnetworking": 7551,
      "Three": 7552,
      "ĠSharapova": 7553,
      "ĠTitle": 7554,
      "Ġsubsidiary": 7555,
      "ĠNepal": 7556,
      "Ġhelicopter": 7557,
      "Su": 7558,
      "eter": 7559,
      "hill": 7560,
      "atively": 7561,
      "Ġousted": 7562,
      "Ġbull": 7563,
      "Ġmarg": 7564,
      "Ġhike": 7565,
      "Ġdaily": 7566,
      "ĠBan": 7567,
      "ĠBrowns": 7568,
      "ĠWood": 7569,
      "ĠJoin": 7570,
      "abled": 7571,
      "ective": 7572,
      "Ġearned": 7573,
      "Ġworlds": 7574,
      "minute": 7575,
      "Ġexperim": 7576,
      "Ġobtain": 7577,
      "Ġentry": 7578,
      "Ġinsurgent": 7579,
      "Ġsuggested": 7580,
      "Ġillegally": 7581,
      "missions": 7582,
      "ycos": 7583,
      "ĠSolaris": 7584,
      "Ġanswer": 7585,
      "Ġvirtual": 7586,
      "Ġcitizens": 7587,
      "ĠDELHI": 7588,
      "ĠESPN": 7589,
      "Nov": 7590,
      "ln": 7591,
      "mon": 7592,
      "Ġ/": 7593,
      "reck": 7594,
      "isner": 7595,
      "acement": 7596,
      "Ġnorm": 7597,
      "Ġgam": 7598,
      "Ġgraphics": 7599,
      "ĠFoll": 7600,
      "ĠJP": 7601,
      "umber": 7602,
      "Ġsecretary": 7603,
      "enson": 7604,
      "active": 7605,
      "away": 7606,
      "ĠIndians": 7607,
      "Ġblamed": 7608,
      "Ġhelps": 7609,
      "Ġweaker": 7610,
      "ĠMarlins": 7611,
      "remlin": 7612,
      "ĠXbox": 7613,
      "ĠOrlando": 7614,
      "ĠPlayStation": 7615,
      "Ġexpanded": 7616,
      "Ġdelivered": 7617,
      "Ġtalking": 7618,
      "France": 7619,
      "Ġcouple": 7620,
      "Ġreforms": 7621,
      "GB": 7622,
      "High": 7623,
      "Mon": 7624,
      "OC": 7625,
      "lon": 7626,
      "itches": 7627,
      "Ġfate": 7628,
      "aser": 7629,
      "ĠCat": 7630,
      "ĠCross": 7631,
      "ĠCowboys": 7632,
      "ache": 7633,
      "Ġem": 7634,
      "Ġeuros": 7635,
      "ĠWants": 7636,
      "ĠDick": 7637,
      "aste": 7638,
      "Ġoverhaul": 7639,
      "Ġintens": 7640,
      "ample": 7641,
      "Ġ2008": 7642,
      "Ġdisrupt": 7643,
      "Ġ42": 7644,
      "Ġstring": 7645,
      "Ġwarnings": 7646,
      "Ġrecording": 7647,
      "ĠScience": 7648,
      "Ġinfrastructure": 7649,
      "ĠAbd": 7650,
      "Ġversions": 7651,
      "Ġdemanding": 7652,
      "egas": 7653,
      "etrole": 7654,
      "ĠCharley": 7655,
      "Ġaffect": 7656,
      "Ġoverseas": 7657,
      "umsfeld": 7658,
      "ĠUnveils": 7659,
      "Networks": 7660,
      "VILLE": 7661,
      "burn": 7662,
      "nie": 7663,
      "zech": 7664,
      "Ġtre": 7665,
      "eder": 7666,
      "Ġpowers": 7667,
      "Ġbreat": 7668,
      "Ġinaug": 7669,
      "Ġmil": 7670,
      "olves": 7671,
      "Ġep": 7672,
      "ĠGains": 7673,
      "Ġ150": 7674,
      "ĠStra": 7675,
      "Ġspin": 7676,
      "Ġjailed": 7677,
      "Ġ2007": 7678,
      "Ġ66": 7679,
      "Ġ600": 7680,
      "Ġplants": 7681,
      "Ġroundup": 7682,
      "ĠAndrew": 7683,
      "Ġestimated": 7684,
      "Ġfeared": 7685,
      "Ġfavorite": 7686,
      "ĠSEAT": 7687,
      "Ġlockout": 7688,
      "inho": 7689,
      "ĠIllinois": 7690,
      "employment": 7691,
      "99": 7692,
      "LIN": 7693,
      "best": 7694,
      "cle": 7695,
      "tion": 7696,
      "ĠBasketball": 7697,
      "Ġlove": 7698,
      "ĠFav": 7699,
      "ĠEff": 7700,
      "rif": 7701,
      "ĠYears": 7702,
      "fford": 7703,
      "Ġscreens": 7704,
      "Ġ36": 7705,
      "Ġreturning": 7706,
      "Ġcapsule": 7707,
      "ĠConvention": 7708,
      "Ġtargeting": 7709,
      "ĠAgassi": 7710,
      "Ġprogramme": 7711,
      "ĠElectric": 7712,
      "ĠSydney": 7713,
      "ĠAmid": 7714,
      "Ġeveryone": 7715,
      "ĠPartners": 7716,
      "Ġemerging": 7717,
      "Ġpositions": 7718,
      "Ġdownloads": 7719,
      "Ġesp": 7720,
      "Ġhappy": 7721,
      "ĠEconomy": 7722,
      "Ġflying": 7723,
      "European": 7724,
      "Crude": 7725,
      "ecially": 7726,
      "ĠVIEN": 7727,
      "El": 7728,
      "MT": 7729,
      "SS": 7730,
      "Ġtim": 7731,
      "ĠStern": 7732,
      "ĠWater": 7733,
      "ĠGAZ": 7734,
      "ordin": 7735,
      "Ġperhaps": 7736,
      "Ġfined": 7737,
      "Ġdispl": 7738,
      "ortium": 7739,
      "Ġlarger": 7740,
      "Ġrebound": 7741,
      "Ġtitles": 7742,
      "Ġlowest": 7743,
      "ĠSmart": 7744,
      "ĠSPORTS": 7745,
      "ĠTravel": 7746,
      "ĠEnds": 7747,
      "Ġrolled": 7748,
      "Ġsilver": 7749,
      "ĠSweden": 7750,
      "ymnastics": 7751,
      "etroleum": 7752,
      "Business": 7753,
      "Ins": 7754,
      "LD": 7755,
      "dem": 7756,
      "hour": 7757,
      "nya": 7758,
      "race": 7759,
      "western": 7760,
      "Ġhired": 7761,
      "ĠTay": 7762,
      "stroke": 7763,
      "stein": 7764,
      "ĠHere": 7765,
      "ĠHuman": 7766,
      "chnya": 7767,
      "astic": 7768,
      "ipse": 7769,
      "icking": 7770,
      "Ġremember": 7771,
      "Ġmeetings": 7772,
      "ĠATLAN": 7773,
      "ĠGuinea": 7774,
      "ĠChampionships": 7775,
      "Ġcollabor": 7776,
      "Ġdepartment": 7777,
      "ĠNortel": 7778,
      "Ġensure": 7779,
      "53": 7780,
      "Val": 7781,
      "Yankees": 7782,
      "billion": 7783,
      "oard": 7784,
      "ohn": 7785,
      "vic": 7786,
      "Ġet": 7787,
      "Ġcyc": 7788,
      "aly": 7789,
      "ĠCBC": 7790,
      "olen": 7791,
      "ĠEri": 7792,
      "Ġcompared": 7793,
      "Ġcomplex": 7794,
      "ĠVs": 7795,
      "Ġunpre": 7796,
      "odd": 7797,
      "ĠShan": 7798,
      "ANG": 7799,
      "Ġmonthly": 7800,
      "ĠItanium": 7801,
      "ĠCompanies": 7802,
      "Ġfollow": 7803,
      "Ġfollowed": 7804,
      "ĠBlackBerry": 7805,
      "Ġheavyweight": 7806,
      "ĠProtocol": 7807,
      "ĠSilicon": 7808,
      "ography": 7809,
      "Ġcommissioner": 7810,
      "avaliers": 7811,
      "Ġterritory": 7812,
      "PR": 7813,
      "ien": 7814,
      "na": 7815,
      "ĠSince": 7816,
      "Ġdark": 7817,
      "ĠFerguson": 7818,
      "Ġstands": 7819,
      "ĠEst": 7820,
      "ĠInstitute": 7821,
      "Ġackn": 7822,
      "cedented": 7823,
      "Ġelectric": 7824,
      "ĠFlight": 7825,
      "Ġofferings": 7826,
      "Ġbrother": 7827,
      "Ġinstit": 7828,
      "umbled": 7829,
      "Ġspammers": 7830,
      "What": 7831,
      "Ġdiplomats": 7832,
      "Ġastronauts": 7833,
      "Ġreferendum": 7834,
      "Ġparticular": 7835,
      "ĠGAZA": 7836,
      "48": 7837,
      "AH": 7838,
      "Bank": 7839,
      "card": 7840,
      "ga": 7841,
      "making": 7842,
      "Ġsiege": 7843,
      "Ġpole": 7844,
      "Ġbron": 7845,
      "Ġhunt": 7846,
      "ĠTen": 7847,
      "ĠToyota": 7848,
      "ĠMult": 7849,
      "ĠBuc": 7850,
      "ĠRaf": 7851,
      "ĠDani": 7852,
      "ĠDistrict": 7853,
      "Ġasks": 7854,
      "Ġexec": 7855,
      "Ġexact": 7856,
      "Ġpreseason": 7857,
      "Ġwilling": 7858,
      "abe": 7859,
      "Ġsea": 7860,
      "arket": 7861,
      "oints": 7862,
      "ĠRef": 7863,
      "ĠMaria": 7864,
      "Ġshoulder": 7865,
      "Ġformally": 7866,
      "Ġinvasion": 7867,
      "Ġoutsourcing": 7868,
      "Ġdistribution": 7869,
      "ĠTelecom": 7870,
      "Ġaccepted": 7871,
      "Ġdeputy": 7872,
      "ĠAnthony": 7873,
      "dom": 7874,
      "eet": 7875,
      "no": 7876,
      "sized": 7877,
      "vard": 7878,
      "Ġcabinet": 7879,
      "Ġpan": 7880,
      "ĠPfizer": 7881,
      "ĠBA": 7882,
      "ĠWell": 7883,
      "ĠFile": 7884,
      "ĠRest": 7885,
      "Ġrich": 7886,
      "veral": 7887,
      "Ġprim": 7888,
      "Ġworried": 7889,
      "Ġmarked": 7890,
      "Ġdesert": 7891,
      "Ġprofessional": 7892,
      "ĠAlthough": 7893,
      "Ġdoor": 7894,
      "Ġmostly": 7895,
      "urgents": 7896,
      "ĠSupply": 7897,
      "ITED": 7898,
      "Ġsentiment": 7899,
      "Ġdrivers": 7900,
      "Ġarchitect": 7901,
      "Ġmosque": 7902,
      "elescope": 7903,
      "Ġacknowled": 7904,
      "'ve": 7905,
      "43": 7906,
      "Olymp": 7907,
      "itas": 7908,
      "ĠSell": 7909,
      "teries": 7910,
      "ĠTE": 7911,
      "ĠMeg": 7912,
      "Ġrushed": 7913,
      "ĠLand": 7914,
      "ĠONL": 7915,
      "abil": 7916,
      "Ġclient": 7917,
      "portation": 7918,
      "ĠAdobe": 7919,
      "inked": 7920,
      "offs": 7921,
      "ĠManmohan": 7922,
      "Ġcompetitive": 7923,
      "Ġcompetitors": 7924,
      "aska": 7925,
      "ĠCricket": 7926,
      "Ġwatching": 7927,
      "Ġcapture": 7928,
      "Ġsupplier": 7929,
      "Ġstruggled": 7930,
      "Palm": 7931,
      "Britain": 7932,
      "ĠHenman": 7933,
      "ĠNetscape": 7934,
      "Ġsurface": 7935,
      "ĠHollinger": 7936,
      "Fire": 7937,
      "Res": 7938,
      "fol": 7939,
      "ĠCrit": 7940,
      "ĠFil": 7941,
      "ĠRace": 7942,
      "ĠHills": 7943,
      "riend": 7944,
      "Ġvast": 7945,
      "usts": 7946,
      "ĠChase": 7947,
      "ĠChavez": 7948,
      "obb": 7949,
      "ĠUniversal": 7950,
      "Ġapprove": 7951,
      "Ġappointed": 7952,
      "Ġaccusing": 7953,
      "Ġelected": 7954,
      "ĠiMac": 7955,
      "Ġparents": 7956,
      "Ġpolitics": 7957,
      "ĠParliament": 7958,
      "Ġengineers": 7959,
      "ĠHarry": 7960,
      "Ġgunmen": 7961,
      "ĠUrges": 7962,
      "Ġvaccine": 7963,
      "Ġrelationship": 7964,
      "Ġprospects": 7965,
      "Ġshrine": 7966,
      "vania": 7967,
      "LAMA": 7968,
      "big": 7969,
      "core": 7970,
      "dro": 7971,
      "foot": 7972,
      "worth": 7973,
      "ych": 7974,
      "zen": 7975,
      "Ġtrop": 7976,
      "inoc": 7977,
      "itarian": 7978,
      "ĠMoon": 7979,
      "ĠPict": 7980,
      "imming": 7981,
      "rah": 7982,
      "emale": 7983,
      "ĠVa": 7984,
      "Ġadj": 7985,
      "Ġcru": 7986,
      "ĠBlast": 7987,
      "ĠCommun": 7988,
      "ĠSerena": 7989,
      "ippi": 7990,
      "ĠEarly": 7991,
      "Ġexperience": 7992,
      "ĠPeru": 7993,
      "Indones": 7994,
      "ĠWeigh": 7995,
      "ĠHarr": 7996,
      "Ġfactory": 7997,
      "ĠTrafford": 7998,
      "Canada": 7999,
      "market": 8000,
      "Ġbusy": 8001,
      "ĠFoundation": 8002,
      "ĠCampaign": 8003,
      "ĠSemiconductor": 8004,
      "Ġupdates": 8005,
      "Ġbronze": 8006,
      "LAMABAD": 8007,
      "Can": 8008,
      "Tur": 8009,
      "cut": 8010,
      "gs": 8011,
      "ka": 8012,
      "Ġ39": 8013,
      "Ġtells": 8014,
      "Ġapart": 8015,
      "onics": 8016,
      "rect": 8017,
      "ĠSummary": 8018,
      "ĠMen": 8019,
      "eless": 8020,
      "ĠBes": 8021,
      "oted": 8022,
      "ĠNCAA": 8023,
      "ĠDNA": 8024,
      "ĠHu": 8025,
      "ĠEmp": 8026,
      "ĠOl": 8027,
      "aken": 8028,
      "ugby": 8029,
      "ĠThousands": 8030,
      "Ġflo": 8031,
      "inson": 8032,
      "ĠConcer": 8033,
      "Ġprovides": 8034,
      "Ġincluded": 8035,
      "ĠElectronic": 8036,
      "Ġtransfer": 8037,
      "ĠControl": 8038,
      "Ġcurrently": 8039,
      "Ġshareholder": 8040,
      "Ġawarded": 8041,
      "ĠISLAMABAD": 8042,
      "ĠStephen": 8043,
      "ĠColombia": 8044,
      "ĠATLANTA": 8045,
      "ĠONLINE": 8046,
      "'ll": 8047,
      "23": 8048,
      "85": 8049,
      "Ear": 8050,
      "sl": 8051,
      "Ġtap": 8052,
      "hew": 8053,
      "atically": 8054,
      "Ġfelt": 8055,
      "Ġcult": 8056,
      "ĠCoca": 8057,
      "ĠLinks": 8058,
      "ĠEastern": 8059,
      "ems": 8060,
      "umers": 8061,
      "ĠVegas": 8062,
      "eps": 8063,
      "achi": 8064,
      "Ġfinancing": 8065,
      "ĠAsk": 8066,
      "Ġblame": 8067,
      "ĠProgram": 8068,
      "oking": 8069,
      "phis": 8070,
      "Ġoperators": 8071,
      "Ġtargeted": 8072,
      "ipper": 8073,
      "Ġpayments": 8074,
      "ĠOffic": 8075,
      "ĠAttacks": 8076,
      "Ġlimit": 8077,
      "Ġreasons": 8078,
      "Ġattempts": 8079,
      "Ġindividual": 8080,
      "Brazil": 8081,
      "ĠMargaret": 8082,
      "ĠSEATTLE": 8083,
      "Ag": 8084,
      "Mobile": 8085,
      "Sec": 8086,
      "Ġfamous": 8087,
      "ĠPct": 8088,
      "vement": 8089,
      "ĠGard": 8090,
      "ĠLen": 8091,
      "ĠLuc": 8092,
      "ĠLakers": 8093,
      "Ġang": 8094,
      "osn": 8095,
      "ully": 8096,
      "Ġlets": 8097,
      "Ġcooperation": 8098,
      "Ġprec": 8099,
      "Ġphoto": 8100,
      "ĠZone": 8101,
      "Ġinternal": 8102,
      "Ġsubject": 8103,
      "ĠSupport": 8104,
      "alties": 8105,
      "Ġpatents": 8106,
      "ĠJustin": 8107,
      "Ġmultiple": 8108,
      "Ġeffective": 8109,
      "ĠDoCoMo": 8110,
      "ĠVictory": 8111,
      "ĠRelease": 8112,
      "Ġunprecedented": 8113,
      "AV": 8114,
      "Week": 8115,
      "Ġpet": 8116,
      "Ġtoug": 8117,
      "Ġbrain": 8118,
      "ishes": 8119,
      "icut": 8120,
      "ĠSep": 8121,
      "Ġhackers": 8122,
      "ĠMatch": 8123,
      "ĠDiamond": 8124,
      "Ġhasn": 8125,
      "Ġ37": 8126,
      "Ġuses": 8127,
      "Ġaccel": 8128,
      "Ġsupposed": 8129,
      "Ġsentence": 8130,
      "ĠDemand": 8131,
      "ĠChechnya": 8132,
      "Ġconvoy": 8133,
      "Ġrobot": 8134,
      "ĠPentium": 8135,
      "CNN": 8136,
      "MB": 8137,
      "Putin": 8138,
      "inition": 8139,
      "Ġpounds": 8140,
      "ĠCRM": 8141,
      "ĠMat": 8142,
      "ader": 8143,
      "ĠBec": 8144,
      "uth": 8145,
      "ĠNic": 8146,
      "ĠHalf": 8147,
      "Ġbeef": 8148,
      "Ġheav": 8149,
      "ifies": 8150,
      "Ġwhole": 8151,
      "ĠReady": 8152,
      "Ġserving": 8153,
      "Ġ78": 8154,
      "Ġ800": 8155,
      "Ġassess": 8156,
      "Ġknows": 8157,
      "atorial": 8158,
      "Ġfreeze": 8159,
      "Ġhomered": 8160,
      "ĠPolit": 8161,
      "ĠPeters": 8162,
      "Ġmembership": 8163,
      "Ġlanding": 8164,
      "ĠClemens": 8165,
      "Ġcopies": 8166,
      "Ġcontroversy": 8167,
      "ĠNearly": 8168,
      "uxury": 8169,
      "Ġshipments": 8170,
      "Ġseparatist": 8171,
      "ĠSEOUL": 8172,
      "Ġpenalty": 8173,
      "Ġblew": 8174,
      "ĠSets": 8175,
      "ĠProm": 8176,
      "iga": 8177,
      "ĠNavy": 8178,
      "unar": 8179,
      "ĠEll": 8180,
      "ulated": 8181,
      "ORLD": 8182,
      "ghai": 8183,
      "Ġ43": 8184,
      "Ġboom": 8185,
      "Ġbright": 8186,
      "ĠMcN": 8187,
      "ernand": 8188,
      "apster": 8189,
      "Ġprivately": 8190,
      "Ġfocused": 8191,
      "Ġ1990": 8192,
      "urdoch": 8193,
      "Ġstrategic": 8194,
      "ĠHalliburton": 8195,
      "Scientists": 8196,
      "Ġimmediate": 8197,
      "ĠAbbey": 8198,
      "ĠCeltic": 8199,
      "armaceutical": 8200,
      "ĠVIENNA": 8201,
      "ahead": 8202,
      "face": 8203,
      "Ġfish": 8204,
      "Ġmeth": 8205,
      "ĠTops": 8206,
      "ĠBER": 8207,
      "ĠBills": 8208,
      "ĠNick": 8209,
      "Ġdeterm": 8210,
      "ĠKe": 8211,
      "ĠVice": 8212,
      "Ġreserve": 8213,
      "Ġcrime": 8214,
      "ANN": 8215,
      "ĠUNITED": 8216,
      "Ġpromise": 8217,
      "Ġembattled": 8218,
      "Ġgreatest": 8219,
      "ĠReturn": 8220,
      "Ġprotests": 8221,
      "ĠValley": 8222,
      "Ġtyp": 8223,
      "Ġphotos": 8224,
      "ĠVikings": 8225,
      "DT": 8226,
      "mouth": 8227,
      "ints": 8228,
      "attered": 8229,
      "Ġwides": 8230,
      "Ġwickets": 8231,
      "ĠCOL": 8232,
      "ĠCabinet": 8233,
      "Ġgaming": 8234,
      "ĠHospital": 8235,
      "ĠHamilton": 8236,
      "ĠOF": 8237,
      "ception": 8238,
      "ocide": 8239,
      "Ġcongr": 8240,
      "endi": 8241,
      "Ġshown": 8242,
      "Ġexhib": 8243,
      "Ġuniversity": 8244,
      "Ġmanage": 8245,
      "Ġsluggish": 8246,
      "Ġweigh": 8247,
      "Ġbrings": 8248,
      "leyton": 8249,
      "Ġregulatory": 8250,
      "ĠDefeat": 8251,
      "Ġrevenues": 8252,
      "ointment": 8253,
      "Ġappearance": 8254,
      "Ġresponsibility": 8255,
      "Ġgathered": 8256,
      "Ġscientific": 8257,
      "ĠSymantec": 8258,
      "BR": 8259,
      "Do": 8260,
      "Group": 8261,
      "Hol": 8262,
      "Shell": 8263,
      "said": 8264,
      "wag": 8265,
      "Ġpal": 8266,
      "Ġmother": 8267,
      "ayers": 8268,
      "Ġdiss": 8269,
      "ouble": 8270,
      "Ġgovernor": 8271,
      "ĠFaces": 8272,
      "ĠLleyton": 8273,
      "Ġspons": 8274,
      "Ġclothing": 8275,
      "antan": 8276,
      "ĠSpe": 8277,
      "Ġallies": 8278,
      "ĠRevenue": 8279,
      "Ġbackup": 8280,
      "Ġmeters": 8281,
      "Ġcommander": 8282,
      "Ġpayment": 8283,
      "Ġproducers": 8284,
      "ĠAllen": 8285,
      "Ġfacility": 8286,
      "Ġfamilies": 8287,
      "Ġfeet": 8288,
      "Ġdenies": 8289,
      "Ġlimited": 8290,
      "ĠMilitary": 8291,
      "Ġcrackdown": 8292,
      "ĠRaptors": 8293,
      "Ġflagship": 8294,
      "FCC": 8295,
      "ding": 8296,
      "orp": 8297,
      "armed": 8298,
      "Ġfought": 8299,
      "Ġod": 8300,
      "isf": 8301,
      "ĠClear": 8302,
      "ĠCzech": 8303,
      "ĠPa": 8304,
      "ĠPenn": 8305,
      "ĠRoss": 8306,
      "Ġconver": 8307,
      "ĠInv": 8308,
      "Ġexcl": 8309,
      "abad": 8310,
      "Ġaboard": 8311,
      "ossil": 8312,
      "Ġfloods": 8313,
      "ĠNEC": 8314,
      "ĠMarines": 8315,
      "Ġgrid": 8316,
      "ĠWinter": 8317,
      "ĠDemocrat": 8318,
      "Ġcommitted": 8319,
      "Ġsweeping": 8320,
      "Ġbrokerage": 8321,
      "Ġlandsl": 8322,
      "Ġespecially": 8323,
      "27": 8324,
      "600": 8325,
      "Hurricane": 8326,
      "KO": 8327,
      "gate": 8328,
      "pread": 8329,
      "whel": 8330,
      "ario": 8331,
      "ĠSoon": 8332,
      "ĠSigns": 8333,
      "Ġmig": 8334,
      "oms": 8335,
      "ĠBrew": 8336,
      "ĠNasdaq": 8337,
      "imately": 8338,
      "agues": 8339,
      "Ġconcess": 8340,
      "Ġexerc": 8341,
      "ĠChamp": 8342,
      "Ġfiring": 8343,
      "amped": 8344,
      "roper": 8345,
      "planes": 8346,
      "Ġreligious": 8347,
      "ĠAlliance": 8348,
      "Ġformal": 8349,
      "Ġeducation": 8350,
      "Ġemployee": 8351,
      "Ġpolicies": 8352,
      "meter": 8353,
      "ĠEvery": 8354,
      "Ġpictures": 8355,
      "Ġinitiative": 8356,
      "ĠKenneth": 8357,
      "oenix": 8358,
      "Mer": 8359,
      "UJA": 8360,
      "Year": 8361,
      "has": 8362,
      "ram": 8363,
      "ties": 8364,
      "rey": 8365,
      "Ġhat": 8366,
      "Ġloyal": 8367,
      "Ġreporters": 8368,
      "ĠLas": 8369,
      "ksson": 8370,
      "Ġshoppers": 8371,
      "ĠKremlin": 8372,
      "ĠChirac": 8373,
      "actions": 8374,
      "Ġretired": 8375,
      "ĠExpected": 8376,
      "ĠBriton": 8377,
      "Ġcapabilities": 8378,
      "cessor": 8379,
      "ventus": 8380,
      "fully": 8381,
      "ĠDeutsche": 8382,
      "Ġthreatens": 8383,
      "Ġstudios": 8384,
      "ĠDepot": 8385,
      "Ġpopulation": 8386,
      "Ġequity": 8387,
      "Ġdrops": 8388,
      "Ġreality": 8389,
      "Ġslowdown": 8390,
      "ĠRepublicans": 8391,
      "ĠSwedish": 8392,
      "ĠDevelopment": 8393,
      "Ġorigin": 8394,
      "ebruary": 8395,
      "ĠConnecticut": 8396,
      "After": 8397,
      "Life": 8398,
      "uwait": 8399,
      "where": 8400,
      "Ġtank": 8401,
      "ono": 8402,
      "Ġfierce": 8403,
      "ĠSoutheast": 8404,
      "ĠCNN": 8405,
      "ĠMu": 8406,
      "ĠNATION": 8407,
      "Ġraces": 8408,
      "ĠDoc": 8409,
      "ĠEm": 8410,
      "Ġancient": 8411,
      "acker": 8412,
      "ounter": 8413,
      "Quarter": 8414,
      "Ġblog": 8415,
      "ĠReview": 8416,
      "azard": 8417,
      "Ġsetback": 8418,
      "prises": 8419,
      "Ġ75": 8420,
      "ĠIsraelis": 8421,
      "Ġowned": 8422,
      "Chrysler": 8423,
      "ersonal": 8424,
      "Ġconcerned": 8425,
      "Ġlowered": 8426,
      "anny": 8427,
      "ĠChiefs": 8428,
      "ADEL": 8429,
      "ĠMerc": 8430,
      "IRO": 8431,
      "ĠHenry": 8432,
      "Ġcalm": 8433,
      "Ġbolster": 8434,
      "Ġalternative": 8435,
      "Money": 8436,
      "North": 8437,
      "gins": 8438,
      "gling": 8439,
      "icle": 8440,
      "Ġmob": 8441,
      "Ġmail": 8442,
      "ĠTD": 8443,
      "stop": 8444,
      "ĠBCS": 8445,
      "ĠRFID": 8446,
      "ĠDomin": 8447,
      "ĠUse": 8448,
      "unction": 8449,
      "ĠJul": 8450,
      "istics": 8451,
      "ĠLeast": 8452,
      "Ġteammates": 8453,
      "Ġslowing": 8454,
      "Ġmeets": 8455,
      "ikh": 8456,
      "backed": 8457,
      "ĠSeahawks": 8458,
      "Ġrestore": 8459,
      "Ġrevolution": 8460,
      "ĠBuys": 8461,
      "Eng": 8462,
      "Ġsparked": 8463,
      "Ġoptimistic": 8464,
      "Ġdetermine": 8465,
      "Calif": 8466,
      "Ham": 8467,
      "yers": 8468,
      "Ġbra": 8469,
      "ĠSH": 8470,
      "Ġthin": 8471,
      "ĠIE": 8472,
      "Ġlif": 8473,
      "Ġgap": 8474,
      "Ġstations": 8475,
      "third": 8476,
      "ryst": 8477,
      "ĠSpurs": 8478,
      "Ġimports": 8479,
      "onsin": 8480,
      "aimler": 8481,
      "Ġmodern": 8482,
      "Ġgasoline": 8483,
      "Ġcarriers": 8484,
      "ĠSPACE": 8485,
      "isconsin": 8486,
      "ĠKnicks": 8487,
      "ĠMemphis": 8488,
      "William": 8489,
      "ĠClinton": 8490,
      "ĠShanghai": 8491,
      "inochet": 8492,
      "Ġwidespread": 8493,
      "800": 8494,
      "cap": 8495,
      "iVo": 8496,
      "uate": 8497,
      "Ġcrown": 8498,
      "ĠSoccer": 8499,
      "ĠAC": 8500,
      "ĠRose": 8501,
      "ĠGain": 8502,
      "changed": 8503,
      "Ġquality": 8504,
      "ĠVen": 8505,
      "Ġenforce": 8506,
      "Ġtrend": 8507,
      "ancy": 8508,
      "Ġadap": 8509,
      "Ġdism": 8510,
      "ĠShows": 8511,
      "ĠLehman": 8512,
      "ology": 8513,
      "ĠPhoenix": 8514,
      "Ġswing": 8515,
      "string": 8516,
      "ĠMayor": 8517,
      "ĠContract": 8518,
      "ĠHolds": 8519,
      "ĠLaur": 8520,
      "ĠPentagon": 8521,
      "Ġpipeline": 8522,
      "ingham": 8523,
      "ĠSand": 8524,
      "Ġhurd": 8525,
      "Ġdrag": 8526,
      "ĠCa": 8527,
      "ĠMI": 8528,
      "ĠMust": 8529,
      "ĠMAR": 8530,
      "ĠPS": 8531,
      "adow": 8532,
      "ighed": 8533,
      "ĠJama": 8534,
      "Ġshake": 8535,
      "osevic": 8536,
      "ological": 8537,
      "Ġvictim": 8538,
      "useum": 8539,
      "Ġmedic": 8540,
      "Ġtrials": 8541,
      "Ġeffects": 8542,
      "Ġsuspend": 8543,
      "Ġcoaching": 8544,
      "Ġpeer": 8545,
      "ĠFinance": 8546,
      "Ġfunding": 8547,
      "Ġdisputed": 8548,
      "AKAR": 8549,
      "chenko": 8550,
      "ĠSirius": 8551,
      "Ġmomentum": 8552,
      "Ġorganizations": 8553,
      "Ġfriendly": 8554,
      "Ġrisks": 8555,
      "ĠThanksgiving": 8556,
      "Ġcompensation": 8557,
      "Gre": 8558,
      "Real": 8559,
      "po": 8560,
      "ui": 8561,
      "Ġfemale": 8562,
      "Ġwreck": 8563,
      "ĠSven": 8564,
      "ĠCavaliers": 8565,
      "acom": 8566,
      "ĠPros": 8567,
      "ĠGartner": 8568,
      "ewhere": 8569,
      "eme": 8570,
      "ocus": 8571,
      "ĠKazaa": 8572,
      "ĠChild": 8573,
      "Ġally": 8574,
      "Ġtrue": 8575,
      "angered": 8576,
      "ĠProject": 8577,
      "ASE": 8578,
      "Ġpassing": 8579,
      "backer": 8580,
      "Ġopponent": 8581,
      "ette": 8582,
      "Ġexplosions": 8583,
      "Ġdelivery": 8584,
      "Ġhandsets": 8585,
      "ĠLawsu": 8586,
      "ĠSilver": 8587,
      "Ġstretch": 8588,
      "ĠOfficer": 8589,
      "antanamo": 8590,
      "38": 8591,
      "VP": 8592,
      "WN": 8593,
      "lus": 8594,
      "prom": 8595,
      "oren": 8596,
      "ĠBull": 8597,
      "ĠHarmony": 8598,
      "charg": 8599,
      "ĠOri": 8600,
      "oco": 8601,
      "ivors": 8602,
      "ellor": 8603,
      "Ġclients": 8604,
      "ĠNEWS": 8605,
      "Ġknocked": 8606,
      "ĠAndreas": 8607,
      "ĠResearchers": 8608,
      "peer": 8609,
      "Ġ1999": 8610,
      "Ġpublisher": 8611,
      "Ġcivilian": 8612,
      "Ġcollaps": 8613,
      "Ġloans": 8614,
      "Ġguns": 8615,
      "Ġgenet": 8616,
      "Ġlicense": 8617,
      "breaking": 8618,
      "Ġscientist": 8619,
      "ĠRaiders": 8620,
      "Ġlearned": 8621,
      "Ġliquid": 8622,
      "Ġinfringement": 8623,
      "ĠBuffalo": 8624,
      "44": 8625,
      "Sy": 8626,
      "more": 8627,
      "match": 8628,
      "win": 8629,
      "Ġsue": 8630,
      "Ġtheft": 8631,
      "Ġbowl": 8632,
      "ĠSal": 8633,
      "ĠMO": 8634,
      "Ġnecess": 8635,
      "ĠFebruary": 8636,
      "ĠGro": 8637,
      "Ġplenty": 8638,
      "ĠKo": 8639,
      "ounted": 8640,
      "ogue": 8641,
      "Ġfled": 8642,
      "Ġcoaches": 8643,
      "Ġdesper": 8644,
      "Ġ77": 8645,
      "Ġvictories": 8646,
      "ĠAlso": 8647,
      "ĠResults": 8648,
      "Ġproved": 8649,
      "Ġdiscount": 8650,
      "ENT": 8651,
      "Ġeasily": 8652,
      "Ġrepair": 8653,
      "Ġhandset": 8654,
      "ircuit": 8655,
      "ĠCheney": 8656,
      "ĠHopes": 8657,
      "Ġhumans": 8658,
      "ĠAthletics": 8659,
      "Che": 8660,
      "pur": 8661,
      "rict": 8662,
      "senal": 8663,
      "world": 8664,
      "Ġtape": 8665,
      "Ġsense": 8666,
      "Ġfashion": 8667,
      "Ġbills": 8668,
      "roc": 8669,
      "ĠSO": 8670,
      "ĠMAN": 8671,
      "ĠPut": 8672,
      "ĠBul": 8673,
      "Ġloses": 8674,
      "ĠGives": 8675,
      "ĠGene": 8676,
      "ups": 8677,
      "ĠEisner": 8678,
      "uls": 8679,
      "iable": 8680,
      "Ġcha": 8681,
      "ĠThai": 8682,
      "eyer": 8683,
      "Ġconsole": 8684,
      "encing": 8685,
      "Ġecl": 8686,
      "Ġextending": 8687,
      "Ġteleph": 8688,
      "Ġsubmar": 8689,
      "struments": 8690,
      "Ġlegend": 8691,
      "Ġbarely": 8692,
      "ĠMedical": 8693,
      "Ġconfirm": 8694,
      "Ġstorms": 8695,
      "SPACE": 8696,
      "Ġdominant": 8697,
      "Ġsettled": 8698,
      "Ġinfluence": 8699,
      "Ġtentative": 8700,
      "Ġwelcomed": 8701,
      "ĠDaniel": 8702,
      "250": 8703,
      "Dis": 8704,
      "FOR": 8705,
      "lights": 8706,
      "nan": 8707,
      "Ġpage": 8708,
      "lets": 8709,
      "ĠMAD": 8710,
      "ĠPy": 8711,
      "Ġlanguage": 8712,
      "igation": 8713,
      "ĠGoes": 8714,
      "Ġcomfort": 8715,
      "Ġexisting": 8716,
      "ĠKl": 8717,
      "ivendi": 8718,
      "Ġoverwhel": 8719,
      "Ġunus": 8720,
      "issippi": 8721,
      "tty": 8722,
      "Ġjustice": 8723,
      "Ġrestaur": 8724,
      "ĠSymb": 8725,
      "scar": 8726,
      "ĠGlazer": 8727,
      "Ġdividend": 8728,
      "Ġreaches": 8729,
      "ambling": 8730,
      "Ġsimple": 8731,
      "ĠSuit": 8732,
      "ĠBerlin": 8733,
      "ĠBeats": 8734,
      "Ġprepares": 8735,
      "Ġcasual": 8736,
      "ylvania": 8737,
      "Ġunexpectedly": 8738,
      "Ġinnov": 8739,
      "Ret": 8740,
      "Vir": 8741,
      "ruction": 8742,
      "Ġ\\\\": 8743,
      "inion": 8744,
      "Ġpound": 8745,
      "ĠSach": 8746,
      "acter": 8747,
      "ĠFen": 8748,
      "ĠRE": 8749,
      "ĠHal": 8750,
      "ĠHill": 8751,
      "ĠLittle": 8752,
      "ĠJay": 8753,
      "ĠInst": 8754,
      "ĠKidnapp": 8755,
      "Ġagenda": 8756,
      "ĠChad": 8757,
      "ĠThatcher": 8758,
      "abb": 8759,
      "Ġworked": 8760,
      "Ġmovement": 8761,
      "Ġcolumn": 8762,
      "spam": 8763,
      "Ġgrad": 8764,
      "Ġstrained": 8765,
      "load": 8766,
      "rizz": 8767,
      "Ġpromising": 8768,
      "Ġmarch": 8769,
      "ĠSchumacher": 8770,
      "Ġarrives": 8771,
      "Ġcombined": 8772,
      "Ġvolunt": 8773,
      "ĠInsurance": 8774,
      "Ġbattles": 8775,
      "Ġutility": 8776,
      "Ġgranted": 8777,
      "Nort": 8778,
      "Pat": 8779,
      "Ġbug": 8780,
      "ĠBest": 8781,
      "Ġeast": 8782,
      "ĠWrit": 8783,
      "ĠWisconsin": 8784,
      "ĠRacing": 8785,
      "Ġrum": 8786,
      "imedia": 8787,
      "rage": 8788,
      "ĠHorn": 8789,
      "rie": 8790,
      "sey": 8791,
      "ĠIndies": 8792,
      "Ġconsolid": 8793,
      "Ġ51": 8794,
      "ĠAlitalia": 8795,
      "Ġhopeful": 8796,
      "Ġrounds": 8797,
      "Ġrevised": 8798,
      "Ġengines": 8799,
      "Ġboosting": 8800,
      "Ġdetained": 8801,
      "Ġpromote": 8802,
      "Ġcreation": 8803,
      "ĠSpaceShipOne": 8804,
      "ĠGolden": 8805,
      "Ġletter": 8806,
      "Ġplea": 8807,
      "Ġfrequ": 8808,
      "Ġcrowded": 8809,
      "itzerland": 8810,
      "ĠEverton": 8811,
      "Ġwaters": 8812,
      "ĠAuthority": 8813,
      "ĠBusch": 8814,
      "ĠPHIL": 8815,
      "Cont": 8816,
      "De": 8817,
      "John": 8818,
      "KS": 8819,
      "Powell": 8820,
      "mos": 8821,
      "Ġsand": 8822,
      "orious": 8823,
      "ĠCast": 8824,
      "ĠCredit": 8825,
      "ĠBi": 8826,
      "ĠWake": 8827,
      "Ġrail": 8828,
      "ĠHung": 8829,
      "ĠKent": 8830,
      "ampton": 8831,
      "ELL": 8832,
      "uki": 8833,
      "flix": 8834,
      "ĠBeslan": 8835,
      "Day": 8836,
      "Karzai": 8837,
      "Ukra": 8838,
      "West": 8839,
      "bro": 8840,
      "font": 8841,
      "py": 8842,
      "Ġtask": 8843,
      "Ġfixed": 8844,
      "leading": 8845,
      "ĠAU": 8846,
      "ĠIowa": 8847,
      "utious": 8848,
      "ĠWizards": 8849,
      "ĠLu": 8850,
      "aka": 8851,
      "Ġvows": 8852,
      "Ġexceed": 8853,
      "ĠView": 8854,
      "Ġrough": 8855,
      "Ġroads": 8856,
      "Ġunemployment": 8857,
      "ĠMonetary": 8858,
      "assador": 8859,
      "Ġbecomes": 8860,
      "Ġremove": 8861,
      "ĠMarc": 8862,
      "nsylvania": 8863,
      "Ġ2012": 8864,
      "ĠWho": 8865,
      "Ġministry": 8866,
      "ĠGuid": 8867,
      "Ġcautious": 8868,
      "Ġregulator": 8869,
      "Ġmerge": 8870,
      "Ġestate": 8871,
      "ĠContin": 8872,
      "Black": 8873,
      "Ġdocument": 8874,
      "Ġmagn": 8875,
      "OOG": 8876,
      "Ġpersu": 8877,
      "ĠCeltics": 8878,
      "Ġpeacekeepers": 8879,
      "Briefly": 8880,
      "ĠGarcia": 8881,
      "ĠNATIONS": 8882,
      "Def": 8883,
      "ML": 8884,
      "Not": 8885,
      "bi": 8886,
      "bank": 8887,
      "elect": 8888,
      "vin": 8889,
      "Ġtail": 8890,
      "Ġfal": 8891,
      "ĠDi": 8892,
      "ĠDies": 8893,
      "rapped": 8894,
      "Ġexport": 8895,
      "Ġplaces": 8896,
      "ellow": 8897,
      "ĠUSATODAY": 8898,
      "ĠPrison": 8899,
      "ĠIncre": 8900,
      "Ġdisarm": 8901,
      "Ġ62": 8902,
      "Ġ69": 8903,
      "Ġslowed": 8904,
      "Ġconsortium": 8905,
      "ĠArm": 8906,
      "Ġ56": 8907,
      "USATODAY": 8908,
      "Ġimproper": 8909,
      "Ġhero": 8910,
      "Ġtested": 8911,
      "otte": 8912,
      "Ġdemanded": 8913,
      "ĠArsene": 8914,
      "Ġbillions": 8915,
      "Ġwrite": 8916,
      "Ġidentified": 8917,
      "ĠKenya": 8918,
      "Ġbloody": 8919,
      "ĠNorway": 8920,
      "ĠDoub": 8921,
      "Ġestabl": 8922,
      "ĠEnvironment": 8923,
      "Valley": 8924,
      "folio": 8925,
      "AKARTA": 8926,
      "ĠFenway": 8927,
      "Ab": 8928,
      "Gen": 8929,
      "House": 8930,
      "Sprint": 8931,
      "Tokyo": 8932,
      "War": 8933,
      "care": 8934,
      "jected": 8935,
      "prod": 8936,
      "oran": 8937,
      "enters": 8938,
      "Ġfully": 8939,
      "Ġthrown": 8940,
      "ĠNames": 8941,
      "ĠHun": 8942,
      "Ġanger": 8943,
      "ĠChange": 8944,
      "ĠYank": 8945,
      "ĠUSC": 8946,
      "overning": 8947,
      "Ġscene": 8948,
      "izz": 8949,
      "ĠBln": 8950,
      "nedy": 8951,
      "Ġsoared": 8952,
      "ĠSean": 8953,
      "Ġinvestigators": 8954,
      "holders": 8955,
      "Ġcells": 8956,
      "ĠPatrick": 8957,
      "Ġenvoy": 8958,
      "aughter": 8959,
      "ĠOwen": 8960,
      "Ġmountain": 8961,
      "ĠBroncos": 8962,
      "Nortel": 8963,
      "Egypt": 8964,
      "LA": 8965,
      "alks": 8966,
      "rets": 8967,
      "Ġpath": 8968,
      "Ġpiece": 8969,
      "Ġhiring": 8970,
      "ĠAR": 8971,
      "ĠBird": 8972,
      "Ġluxury": 8973,
      "ira": 8974,
      "ĠFinds": 8975,
      "ĠRays": 8976,
      "ĠEric": 8977,
      "agn": 8978,
      "Ġworse": 8979,
      "Ġoutl": 8980,
      "overty": 8981,
      "Ġhighlight": 8982,
      "AST": 8983,
      "Ġmeant": 8984,
      "Ġcapable": 8985,
      "Ġsomeone": 8986,
      "Ġhoped": 8987,
      "Ġfails": 8988,
      "engals": 8989,
      "Ġpitching": 8990,
      "Ġpilot": 8991,
      "Ġtyphoon": 8992,
      "Ġcommitment": 8993,
      "Feder": 8994,
      "Ġrefugees": 8995,
      "Ġpostponed": 8996,
      "PHIA": 8997,
      "ĠFerrari": 8998,
      "ĠOrders": 8999,
      "41": 9000,
      "Halo": 9001,
      "Security": 9002,
      "To": 9003,
      "bon": 9004,
      "mad": 9005,
      "ping": 9006,
      "Ġticket": 9007,
      "Ġsle": 9008,
      "ĠMod": 9009,
      "Ġneck": 9010,
      "ĠFiles": 9011,
      "ĠGil": 9012,
      "ĠHurt": 9013,
      "ĠLP": 9014,
      "ĠLCD": 9015,
      "Ġcomment": 9016,
      "Ġyield": 9017,
      "Ġperman": 9018,
      "Ġdisk": 9019,
      "Ġdefended": 9020,
      "Ġpreview": 9021,
      "ĠForbes": 9022,
      "ĠClimb": 9023,
      "Ġsearching": 9024,
      "ELD": 9025,
      "ukee": 9026,
      "ĠSwitzerland": 9027,
      "Blue": 9028,
      "Ġsimply": 9029,
      "ĠSmall": 9030,
      "Ġseriously": 9031,
      "Ġsexual": 9032,
      "ĠRamad": 9033,
      "ĠOKs": 9034,
      "initely": 9035,
      "Ġreserves": 9036,
      "Ġrecru": 9037,
      "arrass": 9038,
      "ĠFollowing": 9039,
      "Ġheavily": 9040,
      "ADELPHIA": 9041,
      "NHL": 9042,
      "Wall": 9043,
      "Ziff": 9044,
      "aith": 9045,
      "lies": 9046,
      "with": 9047,
      "inated": 9048,
      "Ġwider": 9049,
      "ĠAmb": 9050,
      "acre": 9051,
      "ĠWhe": 9052,
      "Ġride": 9053,
      "ĠDream": 9054,
      "ĠLOU": 9055,
      "ĠJAKARTA": 9056,
      "Ġconstitution": 9057,
      "ĠStake": 9058,
      "ĠChips": 9059,
      "ĠVill": 9060,
      "owned": 9061,
      "hent": 9062,
      "Ġcoordin": 9063,
      "ĠOpens": 9064,
      "ĠZiff": 9065,
      "ippers": 9066,
      "Ġsuspic": 9067,
      "amily": 9068,
      "ĠAnnounces": 9069,
      "Ġweakness": 9070,
      "Ġcelebrate": 9071,
      "Ġprior": 9072,
      "Ġescal": 9073,
      "Ġwelcome": 9074,
      "Ġprospect": 9075,
      "Ġprompting": 9076,
      "ĠQuarterly": 9077,
      "Ġrecommend": 9078,
      "ĠSquare": 9079,
      "aimlerChrysler": 9080,
      "Williams": 9081,
      "ĠOrioles": 9082,
      "cats": 9083,
      "ratings": 9084,
      "icy": 9085,
      "icate": 9086,
      "ĠSoy": 9087,
      "Ġhar": 9088,
      "Ġdre": 9089,
      "ĠAff": 9090,
      "ĠTalk": 9091,
      "ĠCath": 9092,
      "ĠBor": 9093,
      "Ġreading": 9094,
      "ĠJudge": 9095,
      "Ġacadem": 9096,
      "airn": 9097,
      "ĠPalace": 9098,
      "Ġgren": 9099,
      "Ġaiming": 9100,
      "ICE": 9101,
      "Thursday": 9102,
      "ĠEliot": 9103,
      "ĠMauresmo": 9104,
      "Ġelse": 9105,
      "Ġstormed": 9106,
      "IEW": 9107,
      "ographic": 9108,
      "ĠHugo": 9109,
      "Ġdiscovery": 9110,
      "Ġsurrounding": 9111,
      "Ġaggressive": 9112,
      "Ġexactly": 9113,
      "Cong": 9114,
      "WORLD": 9115,
      "die": 9116,
      "erth": 9117,
      "itable": 9118,
      "Ġfeed": 9119,
      "Ġfinger": 9120,
      "Ġbow": 9121,
      "eted": 9122,
      "ĠWTA": 9123,
      "ĠFort": 9124,
      "Ġrushing": 9125,
      "ĠList": 9126,
      "akh": 9127,
      "agle": 9128,
      "lton": 9129,
      "ĠViolence": 9130,
      "Ġintended": 9131,
      "ancellor": 9132,
      "Ġ67": 9133,
      "Ġflag": 9134,
      "ĠSeveral": 9135,
      "Ġbeaten": 9136,
      "Ġreflect": 9137,
      "ĠAngel": 9138,
      "Ġdetain": 9139,
      "Ġolder": 9140,
      "Ġloan": 9141,
      "Ġstruggles": 9142,
      "Ġsomet": 9143,
      "ĠRodrig": 9144,
      "Ġdestruction": 9145,
      "Ġprosecutor": 9146,
      "coni": 9147,
      "ĠCyber": 9148,
      "Ġhorse": 9149,
      "ĠTaylor": 9150,
      "ĠPHILADELPHIA": 9151,
      "82": 9152,
      "Br": 9153,
      "Treas": 9154,
      "mes": 9155,
      "wall": 9156,
      "Ġtoss": 9157,
      "ĠBelt": 9158,
      "Ġgovern": 9159,
      "ĠNight": 9160,
      "ĠFraud": 9161,
      "Ġstyle": 9162,
      "Ġrape": 9163,
      "ĠHundreds": 9164,
      "ĠEight": 9165,
      "ĠKaz": 9166,
      "Ġupbeat": 9167,
      "ĠIndex": 9168,
      "ĠSpec": 9169,
      "Ġconspiracy": 9170,
      "Ġregime": 9171,
      "Ġsues": 9172,
      "ĠBankrupt": 9173,
      "Ġadvoc": 9174,
      "Ġbreakthrough": 9175,
      "Ġproposals": 9176,
      "Ġrocked": 9177,
      "Indian": 9178,
      "waukee": 9179,
      "ĠSafety": 9180,
      "Ġbaseman": 9181,
      "Ġcommunist": 9182,
      "ĠSiemens": 9183,
      "ĠEquatorial": 9184,
      "Ġdeadliest": 9185,
      "ĠJaguar": 9186,
      "Virgin": 9187,
      "86": 9188,
      "Niger": 9189,
      "UA": 9190,
      "oration": 9191,
      "Ġcos": 9192,
      "Ġwage": 9193,
      "Ġbond": 9194,
      "ĠSav": 9195,
      "irming": 9196,
      "Ġeve": 9197,
      "ĠFans": 9198,
      "Ġstood": 9199,
      "Ġrig": 9200,
      "ĠLet": 9201,
      "oster": 9202,
      "uling": 9203,
      "Ġexit": 9204,
      "Ġroy": 9205,
      "Ġfinals": 9206,
      "ĠPhones": 9207,
      "ĠManager": 9208,
      "ĠATA": 9209,
      "ĠMusab": 9210,
      "Ġpoison": 9211,
      "OME": 9212,
      "Ġaudio": 9213,
      "ĠTyphoon": 9214,
      "Ġkicked": 9215,
      "ĠCosts": 9216,
      "Ġathletes": 9217,
      "ĠEyes": 9218,
      "ĠBallmer": 9219,
      "Ġmaterials": 9220,
      "ĠLynch": 9221,
      "ĠYankee": 9222,
      "Boston": 9223,
      "FDA": 9224,
      "Giants": 9225,
      "double": 9226,
      "gl": 9227,
      "iences": 9228,
      "ta": 9229,
      "ĠSale": 9230,
      "Ġded": 9231,
      "Ġdistrict": 9232,
      "ĠAh": 9233,
      "ĠAward": 9234,
      "ĠCas": 9235,
      "ĠMunich": 9236,
      "acts": 9237,
      "ĠPLC": 9238,
      "Ġgoverning": 9239,
      "ĠRams": 9240,
      "ĠRicky": 9241,
      "Ġstir": 9242,
      "estyle": 9243,
      "ĠDU": 9244,
      "ĠHonda": 9245,
      "ĠLike": 9246,
      "ĠLSU": 9247,
      "chip": 9248,
      "Ġheight": 9249,
      "ĠThrough": 9250,
      "Ġwinners": 9251,
      "ĠLeft": 9252,
      "Ġdesk": 9253,
      "Ġrecorded": 9254,
      "rants": 9255,
      "Ġsignal": 9256,
      "Ġjobless": 9257,
      "lining": 9258,
      "Ġsteam": 9259,
      "iety": 9260,
      "ĠJuventus": 9261,
      "Ġdoubts": 9262,
      "Ġreveal": 9263,
      "ĠKennedy": 9264,
      "newratings": 9265,
      "ĠDebate": 9266,
      "uzz": 9267,
      "ĠPhilippine": 9268,
      "Ġjournalist": 9269,
      "Ġprompted": 9270,
      "Ġabducted": 9271,
      "Global": 9272,
      "Ġassassination": 9273,
      "rystal": 9274,
      "BALL": 9275,
      "Nintendo": 9276,
      "Search": 9277,
      "cr": 9278,
      "tiz": 9279,
      "yon": 9280,
      "Ġerr": 9281,
      "Ġaer": 9282,
      "enport": 9283,
      "Ġpool": 9284,
      "Ġbrew": 9285,
      "ĠSAP": 9286,
      "ĠAlt": 9287,
      "ĠCro": 9288,
      "ĠCop": 9289,
      "idays": 9290,
      "ĠBox": 9291,
      "ĠBosn": 9292,
      "uttle": 9293,
      "Ġsteal": 9294,
      "Ġstroke": 9295,
      "Ġranks": 9296,
      "ĠStorage": 9297,
      "Ġlearn": 9298,
      "ĠKhan": 9299,
      "ially": 9300,
      "Ġdisp": 9301,
      "ortgage": 9302,
      "ĠReach": 9303,
      "Ġtops": 9304,
      "Ġ84": 9305,
      "ociety": 9306,
      "ĠDavenport": 9307,
      "ĠBarb": 9308,
      "ĠMoham": 9309,
      "Ġfactories": 9310,
      "Ġgaining": 9311,
      "ĠIND": 9312,
      "Ġdiplomatic": 9313,
      "Ġflaws": 9314,
      "ĠScottish": 9315,
      "Ġrepresenting": 9316,
      "Ġregarding": 9317,
      "ambodia": 9318,
      "ĠPhillies": 9319,
      "Milit": 9320,
      "OPEC": 9321,
      "RP": 9322,
      "Ty": 9323,
      "ean": 9324,
      "friend": 9325,
      "iec": 9326,
      "yang": 9327,
      "Ġaide": 9328,
      "Ġpark": 9329,
      "Ġmour": 9330,
      "oum": 9331,
      "ĠTown": 9332,
[...]
