{
  "version": "1.0",
  "truncation": null,
  "padding": null,
  "added_tokens": [
    {
      "id": 0,
      "content": "<|endoftext|>",
      "single_word": false,
      "lstrip": false,
      "rstrip": false,
      "normalized": false,
      "special": true
    }
  ],
  "normalizer": null,
  "pre_tokenizer": {
    "type": "Sequence",
    "pretokenizers": [
      {
        "type": "Split",
        "pattern": {
          "Regex": "'(?:[sdmt]|ll|ve|re)| ?\\p{L}+| ?\\p{N}+| ?[^\\s\\p{L}\\p{N}]+|\\s+(?!\\S)|\\s+"
        },
        "behavior": "Isolated",
        "invert": false
      },
      {
        "type": "ByteLevel",
        "add_prefix_space": false,
        "trim_offsets": true,
        "use_regex": false
      }
    ]
  },
  "post_processor": null,
  "decoder": {
    "type": "ByteLevel",
    "add_prefix_space": true,
    "trim_offsets": true,
    "use_regex": true
  },
  "model": {
    "type": "BPE",
    "dropout": null,
    "unk_token": null,
    "continuing_subword_prefix": null,
    "end_of_word_suffix": null,
    "fuse_unk": false,
    "byte_fallback": false,
    "ignore_merges": false,
    "vocab": {
      "<|endoftext|>": 0,
      "!": 1,
      "\"": 2,
      "#": 3,
      "$": 4,
      "%": 5,
      "&": 6,
      "'": 7,
      "(": 8,
      ")": 9,
      "*": 10,
      "+": 11,
      ",": 12,
      "-": 13,
      ".": 14,
      "/": 15,
      "0": 16,
      "1": 17,
      "2": 18,
      "3": 19,
      "4": 20,
      "5": 21,
      "6": 22,
      "7": 23,
      "8": 24,
      "9": 25,
      ":": 26,
      ";": 27,
      "<": 28,
      "=": 29,
      ">": 30,
      "?": 31,
      "@": 32,
      "A": 33,
      "B": 34,
      "C": 35,
      "D": 36,
      "E": 37,
      "F": 38,
      "G": 39,
      "H": 40,
      "I": 41,
      "J": 42,
      "K": 43,
      "L": 44,
      "M": 45,
      "N": 46,
      "O": 47,
      "P": 48,
      "Q": 49,
      "R": 50,
      "S": 51,
      "T": 52,
      "U": 53,
      "V": 54,
      "W": 55,
      "X": 56,
      "Y": 57,
      "Z": 58,
      "[": 59,
      "\\": 60,
      "]": 61,
      "^": 62,
      "_": 63,
      "`": 64,
      "a": 65,
      "b": 66,
      "c": 67,
      "d": 68,
      "e": 69,
      "f": 70,
      "g": 71,
      "h": 72,
      "i": 73,
      "j": 74,
      "k": 75,
      "l": 76,
      "m": 77,
      "n": 78,
      "o": 79,
      "p": 80,
      "q": 81,
      "r": 82,
      "s": 83,
      "t": 84,
      "u": 85,
      "v": 86,
      "w": 87,
      "x": 88,
      "y": 89,
      "z": 90,
      "{": 91,
      "|": 92,
      "}": 93,
      "~": 94,
      "¡": 95,
      "¢": 96,
      "£": 97,
      "¤": 98,
      "¥": 99,
      "¦": 100,
      "§": 101,
      "¨": 102,
      "©": 103,
      "ª": 104,
      "«": 105,
      "¬": 106,
      "®": 107,
      "¯": 108,
      "°": 109,
      "±": 110,
      "²": 111,
      "³": 112,
      "´": 113,
      "µ": 114,
      "¶": 115,
      "·": 116,
      "¸": 117,
      "¹": 118,
      "º": 119,
      "»": 120,
      "¼": 121,
      "½": 122,
      "¾": 123,
      "¿": 124,
      "À": 125,
      "Á": 126,
      "Â": 127,
      "Ã": 128,
      "Ä": 129,
      "Å": 130,
      "Æ": 131,
      "Ç": 132,
      "È": 133,
      "É": 134,
      "Ê": 135,
      "Ë": 136,
      "Ì": 137,
      "Í": 138,
      "Î": 139,
      "Ï": 140,
      "Ð": 141,
      "Ñ": 142,
      "Ò": 143,
      "Ó": 144,
      "Ô": 145,
      "Õ": 146,
      "Ö": 147,
      "×": 148,
      "Ø": 149,
      "Ù": 150,
      "Ú": 151,
      "Û": 152,
      "Ü": 153,
      "Ý": 154,
      "Þ": 155,
      "ß": 156,
      "à": 157,
      "á": 158,
      "â": 159,
      "ã": 160,
      "ä": 161,
      "å": 162,
      "æ": 163,
      "ç": 164,
      "è": 165,
      "é": 166,
      "ê": 167,
      "ë": 168,
      "ì": 169,
      "í": 170,
      "î": 171,
      "ï": 172,
      "ð": 173,
      "ñ": 174,
      "ò": 175,
      "ó": 176,
      "ô": 177,
      "õ": 178,
      "ö": 179,
      "÷": 180,
      "ø": 181,
      "ù": 182,
      "ú": 183,
      "û": 184,
      "ü": 185,
      "ý": 186,
      "þ": 187,
      "ÿ": 188,
      "Ā": 189,
      "ā": 190,
      "Ă": 191,
      "ă": 192,
      "Ą": 193,
      "ą": 194,
      "Ć": 195,
      "ć": 196,
      "Ĉ": 197,
      "ĉ": 198,
      "Ċ": 199,
      "ċ": 200,
      "Č": 201,
      "č": 202,
      "Ď": 203,
      "ď": 204,
      "Đ": 205,
      "đ": 206,
      "Ē": 207,
      "ē": 208,
      "Ĕ": 209,
      "ĕ": 210,
      "Ė": 211,
      "ė": 212,
      "Ę": 213,
      "ę": 214,
      "Ě": 215,
      "ě": 216,
      "Ĝ": 217,
      "ĝ": 218,
      "Ğ": 219,
      "ğ": 220,
      "Ġ": 221,
      "ġ": 222,
      "Ģ": 223,
      "ģ": 224,
      "Ĥ": 225,
      "ĥ": 226,
      "Ħ": 227,
      "ħ": 228,
      "Ĩ": 229,
      "ĩ": 230,
      "Ī": 231,
      "ī": 232,
      "Ĭ": 233,
      "ĭ": 234,
      "Į": 235,
      "į": 236,
      "İ": 237,
      "ı": 238,
      "Ĳ": 239,
      "ĳ": 240,
      "Ĵ": 241,
      "ĵ": 242,
      "Ķ": 243,
      "ķ": 244,
      "ĸ": 245,
      "Ĺ": 246,
      "ĺ": 247,
      "Ļ": 248,
      "ļ": 249,
      "Ľ": 250,
      "ľ": 251,
      "Ŀ": 252,
      "ŀ": 253,
      "Ł": 254,
      "ł": 255,
      "Ń": 256,
      "Ġt": 257,
      "Ġa": 258,
      "he": 259,
      "in": 260,
      "Ġthe": 261,
      "Ġs": 262,
      "re": 263,
      "Ġw": 264,
      "Ġo": 265,
      "is": 266,
      "er": 267,
      "nd": 268,
      "Ġf": 269,
      "Ġm": 270,
      "Ġb": 271,
      "it": 272,
      "at": 273,
      "ing": 274,
      "Ġc": 275,
      "en": 276,
      "es": 277,
      "or": 278,
      "ou": 279,
      "Ġth": 280,
      "on": 281,
      "Ġh": 282,
      "ll": 283,
      "an": 284,
      "Ġand": 285,
      "Ġto": 286,
      "Ġof": 287,
      "Ġp": 288,
      "ar": 289,
      "Ġd": 290,
      "ed": 291,
      "as": 292,
      "Ġin": 293,
      "Ġl": 294,
      "om": 295,
      "Ġis": 296,
      "ĠI": 297,
      "ic": 298,
      "br": 299,
      "Ġg": 300,
      "Ġ/": 301,
      "Ġ/>": 302,
      "le": 303,
      "Ġe": 304,
      "ot": 305,
      "Ġn": 306,
      "al": 307,
      "ut": 308,
      "st": 309,
      "ct": 310,
      "il": 311,
      "Ġit": 312,
      "Ġbe": 313,
      "ve": 314,
      "ie": 315,
      "ly": 316,
      "Ġmo": 317,
      "ĠT": 318,
      "Ġre": 319,
      "Ġon": 320,
      "Ġthat": 321,
      "ver": 322,
      "ow": 323,
      "ad": 324,
      "ent": 325,
      "Ġhe": 326,
      "'s": 327,
      "ion": 328,
      "im": 329,
      "Ġthis": 330,
      "ay": 331,
      "Ġwh": 332,
      "se": 333,
      "Ġst": 334,
      "et": 335,
      "gh": 336,
      "id": 337,
      "ch": 338,
      "Ġwas": 339,
      "Ġmov": 340,
      "Ġy": 341,
      "Ġ/><": 342,
      "ith": 343,
      "ilm": 344,
      "all": 345,
      "Ġfor": 346,
      "Ġfilm": 347,
      "oo": 348,
      "Ġas": 349,
      "Ġu": 350,
      "ce": 351,
      "Ġwith": 352,
      "Ġan": 353,
      "am": 354,
      "ke": 355,
      "ĠS": 356,
      "ld": 357,
      "ĠA": 358,
      "Ġse": 359,
      "ir": 360,
      "Ġmovie": 361,
      "ĠThe": 362,
      "ro": 363,
      "Ġyou": 364,
      "Ġha": 365,
      "ri": 366,
      ".<": 367,
      "ĠB": 368,
      "her": 369,
      "ur": 370,
      "Ġli": 371,
      "Ġbut": 372,
      "ĠM": 373,
      "Ġwe": 374,
      "ra": 375,
      "Ġnot": 376,
      "'t": 377,
      "ally": 378,
      "ill": 379,
      "Ġ(": 380,
      "ter": 381,
      "ĠC": 382,
      "Ġ\"": 383,
      "ĠH": 384,
      "ck": 385,
      "Ġare": 386,
      "Ġsh": 387,
      "ome": 388,
      "Ġhis": 389,
      "Ġch": 390,
      "pe": 391,
      "ers": 392,
      "ould": 393,
      "Ġat": 394,
      "ul": 395,
      "ĠW": 396,
      "Ġhave": 397,
      "ght": 398,
      "..": 399,
      "ĠD": 400,
      "em": 401,
      "if": 402,
      "Ġsu": 403,
      "ust": 404,
      "un": 405,
      "Ġj": 406,
      "Ġfr": 407,
      "out": 408,
      "Ġsc": 409,
      "Ġact": 410,
      "Ġdo": 411,
      "ain": 412,
      "ble": 413,
      "ess": 414,
      "Ġex": 415,
      "Ġwho": 416,
      "Ġone": 417,
      "el": 418,
      "Ġk": 419,
      "Ġso": 420,
      "Ġcom": 421,
      "Ġpl": 422,
      "ood": 423,
      "very": 424,
      "act": 425,
      "Ġall": 426,
      "ant": 427,
      "art": 428,
      "ies": 429,
      "Ġab": 430,
      "ak": 431,
      "pp": 432,
      "Ġby": 433,
      "us": 434,
      "ag": 435,
      "Ġal": 436,
      "ol": 437,
      "Ġv": 438,
      "est": 439,
      "ous": 440,
      "th": 441,
      "op": 442,
      "ĠP": 443,
      "Ġde": 444,
      "ist": 445,
      "and": 446,
      "ĠL": 447,
      "Ġwor": 448,
      "Ġne": 449,
      "Ġfrom": 450,
      "ast": 451,
      "Ġthey": 452,
      "ĠR": 453,
      "one": 454,
      "Ġlike": 455,
      "Ġout": 456,
      "ven": 457,
      "Ġr": 458,
      "Ġsome": 459,
      "Ġint": 460,
      "Ġwhe": 461,
      "ĠF": 462,
      "qu": 463,
      "Ġher": 464,
      "Ġcon": 465,
      "Ġor": 466,
      "ĠJ": 467,
      "ation": 468,
      "um": 469,
      "fe": 470,
      "ough": 471,
      "red": 472,
      "ĠG": 473,
      "au": 474,
      "ate": 475,
      "ĠIt": 476,
      "Ġme": 477,
      "Ġabout": 478,
      "Ġhas": 479,
      "Ġjust": 480,
      "res": 481,
      "ich": 482,
      "ind": 483,
      "os": 484,
      "ive": 485,
      "ory": 486,
      "ard": 487,
      "Ġpro": 488,
      "ack": 489,
      "Ġcan": 490,
      "Ġchar": 491,
      "ĠN": 492,
      "pt": 493,
      "ort": 494,
      "Ġun": 495,
      "Ġtim": 496,
      "ig": 497,
      "his": 498,
      "ire": 499,
      "ud": 500,
      "ĠE": 501,
      "ook": 502,
      "The": 503,
      "ake": 504,
      "Ġle": 505,
      "reat": 506,
      "ight": 507,
      "Ġgood": 508,
      "Ġcharact": 509,
      "Ġany": 510,
      "Ġman": 511,
      "ong": 512,
      "Ġwat": 513,
      "Ġtr": 514,
      "Ġlo": 515,
      "Ġup": 516,
      "Ġmore": 517,
      "ĠO": 518,
      "Ġget": 519,
      "Ġgo": 520,
      "Ġno": 521,
      "ity": 522,
      "Ġfe": 523,
      "Ġwould": 524,
      "Ġvery": 525,
      "Ġsee": 526,
      "ound": 527,
      "ther": 528,
      "Ġmy": 529,
      "Ġwhat": 530,
      "Ġthere": 531,
      "ite": 532,
      "ge": 533,
      "ame": 534,
      "Ġstory": 535,
      "Ġbec": 536,
      "nt": 537,
      "ide": 538,
      "able": 539,
      "Ġshe": 540,
      "Ġtime": 541,
      "od": 542,
      "Ġ1": 543,
      "hing": 544,
      "Ġwhen": 545,
      "Ġen": 546,
      "Ġ-": 547,
      "Ġwere": 548,
      "Ġhad": 549,
      "ure": 550,
      "Ġreally": 551,
      "Ġonly": 552,
      "ell": 553,
      "ore": 554,
      "ab": 555,
      "Ġscen": 556,
      "itt": 557,
      "oy": 558,
      "ĠK": 559,
      "Ġtheir": 560,
      "Ġwatch": 561,
      "Ġhim": 562,
      "Ġif": 563,
      "Ġshow": 564,
      "Ġeven": 565,
      "Ġper": 566,
      "Ġwhich": 567,
      "ious": 568,
      "so": 569,
      "Ġother": 570,
      "pl": 571,
      "ink": 572,
      "ial": 573,
      "ick": 574,
      "Ġcl": 575,
      "man": 576,
      "Ġthan": 577,
      "ment": 578,
      "te": 579,
      "our": 580,
      "ars": 581,
      "Ġthem": 582,
      "ond": 583,
      "ine": 584,
      "ap": 585,
      "Ġdoes": 586,
      "og": 587,
      "Ġdid": 588,
      "Ġkn": 589,
      "ays": 590,
      "uch": 591,
      "ade": 592,
      "Ġend": 593,
      "are": 594,
      "ves": 595,
      "ause": 596,
      "Ġpe": 597,
      "ac": 598,
      "ice": 599,
      "Ġqu": 600,
      "Ġgreat": 601,
      "Ġmuch": 602,
      "Ġbet": 603,
      "Ġbad": 604,
      "Ġlook": 605,
      "Ġar": 606,
      "ue": 607,
      "irect": 608,
      "irst": 609,
      "ople": 610,
      "...": 611,
      "Ġbeen": 612,
      "Ġover": 613,
      "Ġcould": 614,
      "Ġpo": 615,
      "Ġim": 616,
      "Ġwill": 617,
      "ple": 618,
      "Ġinto": 619,
      "Ġhow": 620,
      "ert": 621,
      "lf": 622,
      "ence": 623,
      "ĠThis": 624,
      "ne": 625,
      "int": 626,
      "Ġwell": 627,
      "Ġpre": 628,
      "Ġmost": 629,
      "ry": 630,
      "Ġpeople": 631,
      "ose": 632,
      "Ġthink": 633,
      "Ġro": 634,
      "Ġknow": 635,
      "Ġtw": 636,
      "age": 637,
      "ass": 638,
      "for": 639,
      "Ġbecause": 640,
      "other": 641,
      "Ġad": 642,
      "Ġdis": 643,
      "Ġtoo": 644,
      "per": 645,
      "Ġus": 646,
      "fter": 647,
      "av": 648,
      "ful": 649,
      "ors": 650,
      "Ġag": 651,
      "ff": 652,
      "Ġdirect": 653,
      "Ġmade": 654,
      "Ġreal": 655,
      "Ġfirst": 656,
      "Ġmake": 657,
      "Ġpart": 658,
      "ile": 659,
      "Ġevery": 660,
      "Ġoff": 661,
      "Ġam": 662,
      "ull": 663,
      "Ġthing": 664,
      "ish": 665,
      "ict": 666,
      "aw": 667,
      "Ġway": 668,
      "ere": 669,
      "hat": 670,
      "Ġalso": 671,
      "ny": 672,
      "oll": 673,
      "ated": 674,
      "Ġfun": 675,
      "ost": 676,
      "ary": 677,
      "Ġseem": 678,
      "gin": 679,
      "Ġwr": 680,
      "Ġthr": 681,
      "ty": 682,
      "Ġdon": 683,
      "Ġ'": 684,
      "akes": 685,
      "Ġmovies": 686,
      "Ġits": 687,
      "ical": 688,
      "own": 689,
      "Ġcharacter": 690,
      "ans": 691,
      "ress": 692,
      "ep": 693,
      "Ġwork": 694,
      "iew": 695,
      "Ġbl": 696,
      "ng": 697,
      "Ġsp": 698,
      "Ġcharacters": 699,
      "ace": 700,
      "ob": 701,
      "ually": 702,
      "Ġgu": 703,
      "ĠAnd": 704,
      "hed": 705,
      "ance": 706,
      "ĠY": 707,
      "ĠCh": 708,
      "cc": 709,
      "pect": 710,
      "Ġfl": 711,
      "Ġfilms": 712,
      "fect": 713,
      "Ġplay": 714,
      "iz": 715,
      "Ġte": 716,
      "self": 717,
      "Ġplot": 718,
      "Ġye": 719,
      "ving": 720,
      "Ġthen": 721,
      "Ġseen": 722,
      "ces": 723,
      "Ġwant": 724,
      "ĠBut": 725,
      "omet": 726,
      "Ġser": 727,
      "Ġaw": 728,
      "ittle": 729,
      "Ġbeing": 730,
      "),": 731,
      "Ġyour": 732,
      "ĠV": 733,
      "Ġafter": 734,
      "Ġtwo": 735,
      ").": 736,
      "Ġlove": 737,
      "Ġsay": 738,
      "Ġmany": 739,
      "Ġnever": 740,
      "Ġacting": 741,
      "ĠHe": 742,
      "ip": 743,
      "urn": 744,
      "get": 745,
      "nder": 746,
      "Ġthrough": 747,
      "ang": 748,
      "mer": 749,
      "Ġback": 750,
      "ark": 751,
      "ens": 752,
      "Ġwhere": 753,
      "Ġlife": 754,
      "This": 755,
      "ĠIn": 756,
      "Ġent": 757,
      "ily": 758,
      "Ġlittle": 759,
      "ian": 760,
      "ved": 761,
      "Ġbest": 762,
      "Ġrem": 763,
      "Ġbr": 764,
      "ult": 765,
      "Ġsomet": 766,
      "ild": 767,
      "ather": 768,
      "ber": 769,
      "Ġ<": 770,
      "Ġever": 771,
      "ach": 772,
      "ci": 773,
      "Ġdes": 774,
      "ise": 775,
      "Ġhor": 776,
      "we": 777,
      "Ġrec": 778,
      "ĠSt": 779,
      "vel": 780,
      "Ġbetter": 781,
      "ions": 782,
      "wn": 783,
      "du": 784,
      "hy": 785,
      "ual": 786,
      "Ġperfor": 787,
      "rap": 788,
      "Ġshould": 789,
      "Ġfind": 790,
      "be": 791,
      "!!": 792,
      "aking": 793,
      "vers": 794,
      "Ġsl": 795,
      "Ġscene": 796,
      "Ġspe": 797,
      "thing": 798,
      "ought": 799,
      "Ġgr": 800,
      "Ġcont": 801,
      "Ġfeel": 802,
      "ase": 803,
      "less": 804,
      "Ġpr": 805,
      "Ġatt": 806,
      "Ġagain": 807,
      "'ve": 808,
      "Ġscenes": 809,
      "ertain": 810,
      "ia": 811,
      "ĠU": 812,
      "Ġhere": 813,
      "Ġstill": 814,
      "iend": 815,
      "ents": 816,
      "Ġ2": 817,
      "Ġcr": 818,
      "lie": 819,
      "Ġri": 820,
      "Ġmin": 821,
      "ting": 822,
      "Ġi": 823,
      "ning": 824,
      "Ġunder": 825,
      "ever": 826,
      "erest": 827,
      "me": 828,
      "augh": 829,
      "Ġ19": 830,
      "ably": 831,
      "ĠThere": 832,
      "fore": 833,
      "Ġkill": 834,
      "Ġsuch": 835,
      "Ġinterest": 836,
      "igh": 837,
      "'m": 838,
      "Ġinc": 839,
      "ree": 840,
      "ren": 841,
      "Ġsomething": 842,
      "Ġhapp": 843,
      "ason": 844,
      "les": 845,
      "ating": 846,
      "Ġold": 847,
      "arly": 848,
      "ense": 849,
      "Ġthese": 850,
      "Ġperforman": 851,
      "Ġimp": 852,
      "Ġmay": 853,
      "Ġcast": 854,
      "ations": 855,
      "alk": 856,
      "ath": 857,
      "Ġfam": 858,
      "ave": 859,
      "Ġlot": 860,
      "ail": 861,
      "Ġpoint": 862,
      "Ġgi": 863,
      "Ġhum": 864,
      "ru": 865,
      "the": 866,
      "reen": 867,
      "Ġap": 868,
      "Ġsur": 869,
      "ater": 870,
      "Ġdoesn": 871,
      "Ġdec": 872,
      "iv": 873,
      "Ġwom": 874,
      "ying": 875,
      "ĠAl": 876,
      "joy": 877,
      "Ġyears": 878,
      "ror": 879,
      "ect": 880,
      "Ġthose": 881,
      "Ġwatching": 882,
      "Ġactors": 883,
      "up": 884,
      "Ġsim": 885,
      "Ġgir": 886,
      "Ġres": 887,
      "Ġmus": 888,
      "Ġra": 889,
      "oth": 890,
      "Ġdidn": 891,
      "Ġgen": 892,
      "Ġche": 893,
      "Ġset": 894,
      "Ġenjoy": 895,
      "ock": 896,
      "Ġstart": 897,
      "Ġview": 898,
      "Ġcou": 899,
      "Ġfact": 900,
      "Ġmakes": 901,
      "Ġdown": 902,
      "ffect": 903,
      "Ġfunny": 904,
      "old": 905,
      "Ġbelie": 906,
      "erson": 907,
      "Ġguy": 908,
      "Ġob": 909,
      "Ġfew": 910,
      "ute": 911,
      "Ġev": 912,
      "edy": 913,
      "Ġcomp": 914,
      "oss": 915,
      "az": 916,
      "iss": 917,
      "der": 918,
      "Ġgoing": 919,
      "Ġfin": 920,
      "ale": 921,
      "rigin": 922,
      "oc": 923,
      "Ġsame": 924,
      "Ġbefore": 925,
      "Ġactually": 926,
      "Ġtra": 927,
      "li": 928,
      "ĠIf": 929,
      "Ġpret": 930,
      "Ġgot": 931,
      "Ġorigin": 932,
      "Ġlong": 933,
      "Ġem": 934,
      "Ġyoung": 935,
      "ĠJo": 936,
      "Ġsupp": 937,
      "Ġthough": 938,
      "Ġwhile": 939,
      "Ġdif": 940,
      "--": 941,
      "Ġwhy": 942,
      "**": 943,
      "Ġnow": 944,
      "ience": 945,
      "ool": 946,
      "ft": 947,
      "ub": 948,
      "Ġown": 949,
      "Ġprodu": 950,
      "Ġbit": 951,
      "ript": 952,
      "Ġnew": 953,
      "hen": 954,
      "Ġdirector": 955,
      "ible": 956,
      "Ġter": 957,
      "Ġtri": 958,
      "ction": 959,
      "Ġexce": 960,
      "Ġturn": 961,
      "Ġke": 962,
      "Ġthought": 963,
      "'re": 964,
      "Ġnothing": 965,
      "Ġsub": 966,
      "Ġbig": 967,
      "ons": 968,
      "ince": 969,
      "Ġgirl": 970,
      "aut": 971,
      "Ġanother": 972,
      "ram": 973,
      "iting": 974,
      "Ġrel": 975,
      "Ġquite": 976,
      "cial": 977,
      "Ġcomple": 978,
      "Ġsm": 979,
      "rent": 980,
      "Ġseems": 981,
      "onder": 982,
      "Ġinv": 983,
      "Ġaround": 984,
      "Ġapp": 985,
      "ign": 986,
      "Ġfriend": 987,
      "Ġpretty": 988,
      "Ġ&": 989,
      "Ġeffect": 990,
      "Ġoriginal": 991,
      "Ġthings": 992,
      "ings": 993,
      "Ġneed": 994,
      "ically": 995,
      "ways": 996,
      "air": 997,
      "ew": 998,
      "Ġworld": 999,
      "ched": 1000,
      "ween": 1001,
      "Ġright": 1002,
      "00": 1003,
      "Ġscreen": 1004,
      "Ġenough": 1005,
      "pr": 1006,
      "ib": 1007,
      "arr": 1008,
      "Ġhard": 1009,
      "Ġscript": 1010,
      "most": 1011,
      "ately": 1012,
      "ĠShe": 1013,
      "meric": 1014,
      "ank": 1015,
      "Ġstr": 1016,
      "ness": 1017,
      "Ġbetween": 1018,
      "app": 1019,
      "Ġappe": 1020,
      "ĠBr": 1021,
      "ster": 1022,
      "Ġtake": 1023,
      "Ġacc": 1024,
      "rill": 1025,
      "Ġkid": 1026,
      "ead": 1027,
      "Ġins": 1028,
      "Ġhigh": 1029,
      "Ġfar": 1030,
      "Ġkind": 1031,
      "ention": 1032,
      "Ġperson": 1033,
      "inem": 1034,
      "Ġsec": 1035,
      "hes": 1036,
      "Ġlaugh": 1037,
      "ced": 1038,
      "Ġwonder": 1039,
      "Ġmust": 1040,
      "Ġgive": 1041,
      "Ġseries": 1042,
      "Ġes": 1043,
      "Ġgets": 1044,
      "ward": 1045,
      "Ġreason": 1046,
      "Ġrole": 1047,
      "utes": 1048,
      "Ġhorror": 1049,
      "Ġmom": 1050,
      "Ġtell": 1051,
      "Ġop": 1052,
      "Ġaction": 1053,
      "ord": 1054,
      "Ġtimes": 1055,
      "Ġalways": 1056,
      "vious": 1057,
      "\",": 1058,
      "Ġchild": 1059,
      "aid": 1060,
      "icul": 1061,
      "Ġisn": 1062,
      "ash": 1063,
      "ĠAs": 1064,
      "Ġep": 1065,
      "Ġbu": 1066,
      "Ġhel": 1067,
      "its": 1068,
      "Ġleast": 1069,
      "Ġsex": 1070,
      "ouse": 1071,
      "Ġread": 1072,
      "Ġwhole": 1073,
      "Ġput": 1074,
      "Ġinteresting": 1075,
      "ife": 1076,
      "ĠYou": 1077,
      "Ġsaw": 1078,
      "ased": 1079,
      "Ġbeaut": 1080,
      "Ġcome": 1081,
      "ody": 1082,
      "here": 1083,
      "ĠAmeric": 1084,
      "Ġclass": 1085,
      "ully": 1086,
      "Ġmusic": 1087,
      "Ġfamily": 1088,
      "Ġmain": 1089,
      "ĠHow": 1090,
      "oot": 1091,
      "Ġwithout": 1092,
      "Ġdone": 1093,
      "Ġexpect": 1094,
      "Ġcomedy": 1095,
      "ines": 1096,
      "Ġboth": 1097,
      "Ġhand": 1098,
      "Ġlead": 1099,
      "ĠThey": 1100,
      "Ġcons": 1101,
      "Ġrev": 1102,
      "Ġmight": 1103,
      "Ġalmost": 1104,
      "Ġide": 1105,
      "arn": 1106,
      "Ġdiffe": 1107,
      "Ġminutes": 1108,
      "hn": 1109,
      "Ġshot": 1110,
      "Ġaud": 1111,
      "Ġcinem": 1112,
      "Ġperformance": 1113,
      "Ġlast": 1114,
      "bably": 1115,
      "Ġexpl": 1116,
      "ĠSh": 1117,
      "'ll": 1118,
      "Ġcam": 1119,
      "xt": 1120,
      "Ġbegin": 1121,
      "gg": 1122,
      "Ġanything": 1123,
      "Ġsound": 1124,
      "Ġcomplete": 1125,
      "de": 1126,
      "Ġbook": 1127,
      "uring": 1128,
      "Ġinst": 1129,
      "Ġcour": 1130,
      "ime": 1131,
      "though": 1132,
      "rible": 1133,
      "Ġhelp": 1134,
      "son": 1135,
      "Ġcare": 1136,
      "stand": 1137,
      "Ġworth": 1138,
      "Ġco": 1139,
      "Ġ3": 1140,
      "ĠWh": 1141,
      "It": 1142,
      "cially": 1143,
      "Ġentertain": 1144,
      "ane": 1145,
      "ograp": 1146,
      "\".": 1147,
      "ism": 1148,
      "Ġart": 1149,
      "oney": 1150,
      "ĠTh": 1151,
      "Ġcle": 1152,
      "Ġsince": 1153,
      "Ġel": 1154,
      "ov": 1155,
      "Ġwoman": 1156,
      "Ġfound": 1157,
      "ative": 1158,
      "Ġaway": 1159,
      "atch": 1160,
      "Ġsequ": 1161,
      "ures": 1162,
      "ret": 1163,
      "ition": 1164,
      "istic": 1165,
      "ner": 1166,
      "als": 1167,
      "isod": 1168,
      "Ġprobably": 1169,
      "Ġsure": 1170,
      "era": 1171,
      "ĠAn": 1172,
      "Ġrather": 1173,
      "ĠTV": 1174,
      "rist": 1175,
      "mend": 1176,
      "Ġvers": 1177,
      "Ġext": 1178,
      "ange": 1179,
      "ialog": 1180,
      "Ġrun": 1181,
      "Ġcall": 1182,
      "pecially": 1183,
      "ros": 1184,
      "Ġcar": 1185,
      "oint": 1186,
      "ĠFr": 1187,
      "Ġepisod": 1188,
      "ee": 1189,
      "Ġmaking": 1190,
      "osed": 1191,
      "ady": 1192,
      "apt": 1193,
      "Ġhappen": 1194,
      "led": 1195,
      "wh": 1196,
      "Ġ10": 1197,
      "Ġdialog": 1198,
      "Ġabs": 1199,
      "Ġworst": 1200,
      "ten": 1201,
      "umb": 1202,
      "Ġlik": 1203,
      "olly": 1204,
      "Ġcourse": 1205,
      "ling": 1206,
      "wood": 1207,
      "ither": 1208,
      "Ġbo": 1209,
      "Ġlet": 1210,
      "ER": 1211,
      "Ġour": 1212,
      "Ġcomes": 1213,
      "ject": 1214,
      "ream": 1215,
      "Ġbeautif": 1216,
      "Ġmean": 1217,
      "co": 1218,
      "ah": 1219,
      "Ġdel": 1220,
      ".\"": 1221,
      "Ġadd": 1222,
      "ĠJohn": 1223,
      "ok": 1224,
      "Ġdifferent": 1225,
      "Ġkeep": 1226,
      "Ġtrying": 1227,
      "Ġpoor": 1228,
      "ec": 1229,
      "Ġjob": 1230,
      "Ġless": 1231,
      "ollow": 1232,
      "Ġbelieve": 1233,
      "VD": 1234,
      "Ġrest": 1235,
      "ney": 1236,
      "aster": 1237,
      "Ġgoes": 1238,
      "Ġeach": 1239,
      "ments": 1240,
      "Ġday": 1241,
      "ont": 1242,
      "Ġmind": 1243,
      "ates": 1244,
      "blem": 1245,
      "alf": 1246,
      "Ġsense": 1247,
      "ĠThat": 1248,
      "Ġplace": 1249,
      "uck": 1250,
      "Ġsurpr": 1251,
      "fin": 1252,
      "Ġbor": 1253,
      "Ġanyone": 1254,
      "ex": 1255,
      "Ġlooks": 1256,
      "'d": 1257,
      "ĠSo": 1258,
      "dd": 1259,
      "Ġpol": 1260,
      "empt": 1261,
      "Ġstand": 1262,
      "ingly": 1263,
      "ics": 1264,
      "iter": 1265,
      "Ġsuper": 1266,
      "hip": 1267,
      "ĠWe": 1268,
      "Ġpres": 1269,
      "ph": 1270,
      "ĠDVD": 1271,
      "Ġproblem": 1272,
      "lud": 1273,
      "Ġyet": 1274,
      "Ġplayed": 1275,
      "ommend": 1276,
      "ortun": 1277,
      "Ġmoney": 1278,
      "Ġending": 1279,
      "Ġwasn": 1280,
      "sc": 1281,
      "Ġty": 1282,
      "inc": 1283,
      "Ġinter": 1284,
      "ĠWhat": 1285,
      "Ġshows": 1286,
      "ality": 1287,
      "ues": 1288,
      "Ġgl": 1289,
      "Ġport": 1290,
      "Ġperfect": 1291,
      "arent": 1292,
      "ower": 1293,
      "ray": 1294,
      "Ġac": 1295,
      "Ġactor": 1296,
      "ks": 1297,
      "iece": 1298,
      "Ġboy": 1299,
      "aps": 1300,
      "ope": 1301,
      "way": 1302,
      "Ġwatched": 1303,
      "ember": 1304,
      "Ġwar": 1305,
      "Ġplays": 1306,
      "Ġcre": 1307,
      "Ġdram": 1308,
      "ann": 1309,
      "ĠBl": 1310,
      "Ġfav": 1311,
      "Ġconf": 1312,
      "Ġshort": 1313,
      "ĠNot": 1314,
      "Ġfollow": 1315,
      "Ġrecommend": 1316,
      "Ġsaid": 1317,
      "Ġaudience": 1318,
      "ilar": 1319,
      "Ġhaving": 1320,
      "Ġfan": 1321,
      "Ġcreat": 1322,
      "gether": 1323,
      "Ġtogether": 1324,
      "ĠDe": 1325,
      "llent": 1326,
      "Ġhalf": 1327,
      "Ġtakes": 1328,
      "Ġlooking": 1329,
      "Ġhead": 1330,
      "omb": 1331,
      "ident": 1332,
      "Ġhimself": 1333,
      "Ġnice": 1334,
      "ĠTH": 1335,
      "Ġeffects": 1336,
      "Ġsecond": 1337,
      "Ġversion": 1338,
      "atter": 1339,
      "Ġsomeone": 1340,
      "Ġmiss": 1341,
      "ature": 1342,
      "Ġelse": 1343,
      "ĠAll": 1344,
      "Ġsit": 1345,
      "Ġtrue": 1346,
      "land": 1347,
      "ames": 1348,
      "Ġreview": 1349,
      "ollywood": 1350,
      "Ġcertain": 1351,
      "Ġdep": 1352,
      "ied": 1353,
      "Ġtalk": 1354,
      "not": 1355,
      "Ġunderstand": 1356,
      "Ġvis": 1357,
      "Ġfall": 1358,
      "Ġposs": 1359,
      "Ġimag": 1360,
      "10": 1361,
      "atic": 1362,
      "cept": 1363,
      "Ġleft": 1364,
      "Ġed": 1365,
      "sp": 1366,
      "Ġwife": 1367,
      "Ġspecial": 1368,
      "Ġespecially": 1369,
      "Ġfather": 1370,
      "ited": 1371,
      "ix": 1372,
      "Ġnight": 1373,
      "Ġanim": 1374,
      "ply": 1375,
      "ists": 1376,
      "Ġbeautiful": 1377,
      "day": 1378,
      "Ġentire": 1379,
      "Ġcame": 1380,
      "Ġexc": 1381,
      "Ġrele": 1382,
      "Ġthree": 1383,
      "ier": 1384,
      "ared": 1385,
      "Ġsing": 1386,
      "Ġobvious": 1387,
      "Ġidea": 1388,
      "....": 1389,
      "ted": 1390,
      "ĠSc": 1391,
      "ional": 1392,
      "Ġhour": 1393,
      "Ġph": 1394,
      "Ġele": 1395,
      "Ġdist": 1396,
      "Ġuse": 1397,
      "Ġcomm": 1398,
      "sy": 1399,
      "Ġyear": 1400,
      "ired": 1401,
      "ird": 1402,
      "anc": 1403,
      "Ġmur": 1404,
      "Ġdet": 1405,
      "Ġseeing": 1406,
      "Ġfriends": 1407,
      "uff": 1408,
      "Ġexcellent": 1409,
      "Ġmar": 1410,
      "ĠAmerican": 1411,
      "like": 1412,
      "Ġinvol": 1413,
      "ides": 1414,
      "fully": 1415,
      "Ġhome": 1416,
      "Ġey": 1417,
      "udget": 1418,
      "ĠChrist": 1419,
      "upid": 1420,
      "Ġlater": 1421,
      "Ġeverything": 1422,
      "ĠFor": 1423,
      "Ġmon": 1424,
      "io": 1425,
      "ĠBe": 1426,
      "appoint": 1427,
      "ĠCl": 1428,
      "Ġsk": 1429,
      "ract": 1430,
      "Ġduring": 1431,
      "Ġattempt": 1432,
      "Ġmen": 1433,
      "ised": 1434,
      "ross": 1435,
      "Ġfight": 1436,
      "Ġlow": 1437,
      "ĠRe": 1438,
      "ĠZ": 1439,
      "Ġexp": 1440,
      "ĠSte": 1441,
      "orn": 1442,
      "Ġonce": 1443,
      "ĠUn": 1444,
      "ork": 1445,
      "Ġlack": 1446,
      "Ġeveryone": 1447,
      "Ġdisappoint": 1448,
      "Ġsch": 1449,
      "Ġsimply": 1450,
      "Ġhist": 1451,
      "my": 1452,
      "ains": 1453,
      "ount": 1454,
      "Ġtal": 1455,
      "Ġunt": 1456,
      "Ġmem": 1457,
      "Ġsty": 1458,
      "Ġbeh": 1459,
      "Ġtot": 1460,
      "olute": 1461,
      "Ġcompletely": 1462,
      "Ġdeath": 1463,
      "but": 1464,
      "ets": 1465,
      "Ġused": 1466,
      "Ġstupid": 1467,
      "Ġexper": 1468,
      "iol": 1469,
      "ery": 1470,
      "ĠAr": 1471,
      "Ġtop": 1472,
      "Ġsong": 1473,
      "Ġhuman": 1474,
      "ĠWhen": 1475,
      "Ġ4": 1476,
      "Ġheart": 1477,
      "ĠMar": 1478,
      "att": 1479,
      "Ġsupposed": 1480,
      "Ġmess": 1481,
      "Ġinclud": 1482,
      "Ġpict": 1483,
      "Ġdra": 1484,
      "Ġdefin": 1485,
      "ĠHollywood": 1486,
      "Ġwrong": 1487,
      "Ġperformances": 1488,
      "ien": 1489,
      "ĠRob": 1490,
      "itten": 1491,
      "ĠAt": 1492,
      "ĠSp": 1493,
      "Ġtit": 1494,
      "Ġass": 1495,
      "Ġrep": 1496,
      "Ġserious": 1497,
      "Ġeas": 1498,
      "aring": 1499,
      "Ġfail": 1500,
      "ott": 1501,
      "Ġopen": 1502,
      "Ġhouse": 1503,
      "ography": 1504,
      "uth": 1505,
      "ĠMy": 1506,
      "elt": 1507,
      "Ġstud": 1508,
      "Ġtry": 1509,
      "Ġeither": 1510,
      "Ġret": 1511,
      "Ġgener": 1512,
      "Ġsy": 1513,
      "orm": 1514,
      "ins": 1515,
      "amp": 1516,
      "ideo": 1517,
      "fic": 1518,
      "In": 1519,
      "Ġword": 1520,
      "ĠHowever": 1521,
      "uly": 1522,
      "Ġloc": 1523,
      "ove": 1524,
      "Ġgiven": 1525,
      "Ġconv": 1526,
      "Ġblack": 1527,
      "idd": 1528,
      "Ġexam": 1529,
      "Ġemot": 1530,
      "Ġ--": 1531,
      "Ġkids": 1532,
      "Ġcra": 1533,
      "Ġbecom": 1534,
      "oice": 1535,
      "Ġconc": 1536,
      "Ġabsolute": 1537,
      "Ġsmall": 1538,
      "Ġcamera": 1539,
      "Ġline": 1540,
      "Ġbas": 1541,
      "oon": 1542,
      "Ġclassic": 1543,
      "gr": 1544,
      "ider": 1545,
      "ĠÂ": 1546,
      "Ġboring": 1547,
      "Ġind": 1548,
      "velop": 1549,
      "haps": 1550,
      "Ġwomen": 1551,
      "Ġcount": 1552,
      "Ġparticul": 1553,
      "Ã©": 1554,
      "com": 1555,
      "Ġgra": 1556,
      "Ġrom": 1557,
      "play": 1558,
      "Ġ8": 1559,
      "Ġpain": 1560,
      "ize": 1561,
      "Ġlight": 1562,
      "Ġproduction": 1563,
      "ities": 1564,
      "Ġstar": 1565,
      "Ġuntil": 1566,
      "Ġcop": 1567,
      "itely": 1568,
      "Ġcouple": 1569,
      "Ġalong": 1570,
      "Ġsad": 1571,
      "Ġwon": 1572,
      "Ġfavor": 1573,
      "fortun": 1574,
      "Ġsort": 1575,
      "Ġtruly": 1576,
      "Ġportray": 1577,
      "ike": 1578,
      "iness": 1579,
      "Ġhope": 1580,
      "Ġmoments": 1581,
      "Ġpass": 1582,
      "Ġwa": 1583,
      "ote": 1584,
      "Ġ5": 1585,
      "Ġcred": 1586,
      "ĠOne": 1587,
      "Ġviol": 1588,
      "iant": 1589,
      "ug": 1590,
      "ories": 1591,
      "Ġple": 1592,
      "med": 1593,
      "reak": 1594,
      "sel": 1595,
      "Ġamaz": 1596,
      "Ġinstead": 1597,
      "Ġflick": 1598,
      "Ġremember": 1599,
      "aj": 1600,
      "Ġ7": 1601,
      "Ġfull": 1602,
      "Ġhero": 1603,
      "Ġawful": 1604,
      "Ġepisode": 1605,
      "ming": 1606,
      "ility": 1607,
      "Ġschool": 1608,
      "Ġadv": 1609,
      "Ġhumor": 1610,
      "IN": 1611,
      "ented": 1612,
      "Ġexcept": 1613,
      "Ġname": 1614,
      "Ġgives": 1615,
      "Ġdoing": 1616,
      "Ġgetting": 1617,
      "ric": 1618,
      "Ġbudget": 1619,
      "Ġitself": 1620,
      "ows": 1621,
      "Ġplaying": 1622,
      "Ġz": 1623,
      "ently": 1624,
      "ĠNo": 1625,
      "Ġbecome": 1626,
      "que": 1627,
      "Ġwonderful": 1628,
      "ony": 1629,
      "Ġdevelop": 1630,
      "ĠLe": 1631,
      "ison": 1632,
      "imes": 1633,
      "Ġform": 1634,
      "ler": 1635,
      "ister": 1636,
      "Ġdri": 1637,
      "Ġoften": 1638,
      "Ġterrible": 1639,
      ",\"": 1640,
      "olog": 1641,
      "Ġnext": 1642,
      "Ġface": 1643,
      "Ġlines": 1644,
      "ax": 1645,
      "ton": 1646,
      "Ġothers": 1647,
      "Ġstars": 1648,
      "ized": 1649,
      "Ġdialogue": 1650,
      "Ġfelt": 1651,
      "Ġhowever": 1652,
      "Ġreg": 1653,
      "Ġslow": 1654,
      "ĠWill": 1655,
      "right": 1656,
      "und": 1657,
      "Ġann": 1658,
      "ĠMr": 1659,
      "Ġguess": 1660,
      "Ġliked": 1661,
      "ĠWell": 1662,
      "Ġimpress": 1663,
      "Ġvideo": 1664,
      "Ġpiece": 1665,
      "Ġclose": 1666,
      "aughter": 1667,
      "Ġ9": 1668,
      "Ġcoll": 1669,
      "ĠSe": 1670,
      "Ġquest": 1671,
      "ael": 1672,
      "reme": 1673,
      "Ġcor": 1674,
      "Ġlive": 1675,
      "ibly": 1676,
      "Ġearly": 1677,
      "Ġdead": 1678,
      "ĠCar": 1679,
      "Ġcouldn": 1680,
      "Ġfant": 1681,
      "ps": 1682,
      "ĠMan": 1683,
      "Ġbrill": 1684,
      "If": 1685,
      "There": 1686,
      "Ġactress": 1687,
      "ger": 1688,
      "Ġcase": 1689,
      "ĠDon": 1690,
      "line": 1691,
      "Ġmother": 1692,
      "Ġ.": 1693,
      "ument": 1694,
      "Ġpower": 1695,
      "Ġwent": 1696,
      "ĠOn": 1697,
      "ĠTHE": 1698,
      "vis": 1699,
      "illy": 1700,
      "Ġmention": 1701,
      "tern": 1702,
      "Ġcut": 1703,
      "Ġagainst": 1704,
      "Ġstrong": 1705,
      "Ġwaste": 1706,
      "ĠJack": 1707,
      "ley": 1708,
      "used": 1709,
      "Ġchildren": 1710,
      "Ġref": 1711,
      "ĠNew": 1712,
      "ccess": 1713,
      "Ġstyle": 1714,
      "ured": 1715,
      "Ġrelations": 1716,
      "Ġentertaining": 1717,
      "Ġdark": 1718,
      "ular": 1719,
      "Ġmaybe": 1720,
      "Ġmis": 1721,
      "Ġpast": 1722,
      "lish": 1723,
      "Ġtitle": 1724,
      "Ġtrans": 1725,
      "Ġbeginning": 1726,
      "ined": 1727,
      "ready": 1728,
      "oid": 1729,
      "Ġrid": 1730,
      "pite": 1731,
      "ific": 1732,
      "Ġabsolutely": 1733,
      "yn": 1734,
      "ĠDav": 1735,
      "Ġworse": 1736,
      "ichael": 1737,
      "unch": 1738,
      "body": 1739,
      "Ġdefinitely": 1740,
      "Ġwritten": 1741,
      "ĠHis": 1742,
      "ĠEven": 1743,
      "sh": 1744,
      "atur": 1745,
      "Ġside": 1746,
      "oub": 1747,
      "Ġsomew": 1748,
      "Ġbecomes": 1749,
      "Ġsupport": 1750,
      "iam": 1751,
      "itch": 1752,
      "by": 1753,
      "rew": 1754,
      "selves": 1755,
      "riend": 1756,
      "fortunately": 1757,
      "Ġthrill": 1758,
      "Ġseemed": 1759,
      "Ġsw": 1760,
      "ĠÂĸ": 1761,
      "ts": 1762,
      "Ġalready": 1763,
      "Ġbrother": 1764,
      "Ġpicture": 1765,
      "Ġexample": 1766,
      "Ġsuccess": 1767,
      "Ġlives": 1768,
      "Ġrent": 1769,
      "ĠMc": 1770,
      "Ġcinema": 1771,
      "Ġcertainly": 1772,
      "Ġextreme": 1773,
      "Ġpred": 1774,
      "Ġpop": 1775,
      "ĠEng": 1776,
      "pped": 1777,
      "Ġadm": 1778,
      "Ġbrilliant": 1779,
      "Ġsever": 1780,
      "Ġwanted": 1781,
      "Ġfans": 1782,
      "enn": 1783,
      "Ġfine": 1784,
      "Ġrelationship": 1785,
      "Ġseveral": 1786,
      "Ġmatter": 1787,
      "Ġtou": 1788,
      "Ġalthough": 1789,
      "osp": 1790,
      "Ġdirection": 1791,
      "Ġloved": 1792,
      "het": 1793,
      "vable": 1794,
      "uc": 1795,
      "Ġblood": 1796,
      "Ġself": 1797,
      "ried": 1798,
      "Ġdrama": 1799,
      "aken": 1800,
      "Ġcent": 1801,
      "ief": 1802,
      ").<": 1803,
      "aul": 1804,
      "Ġwalk": 1805,
      "Ġwriting": 1806,
      "Ġwants": 1807,
      "Ġpur": 1808,
      "chn": 1809,
      "aving": 1810,
      "Ġmaster": 1811,
      "Ġlost": 1812,
      "Ġet": 1813,
      "uss": 1814,
      "Ġtries": 1815,
      "cess": 1816,
      "Ġmag": 1817,
      "Ġdem": 1818,
      "Ġworks": 1819,
      "Ġtown": 1820,
      "sych": 1821,
      "Ġannoy": 1822,
      "ided": 1823,
      "ages": 1824,
      "Ġmor": 1825,
      "orge": 1826,
      "ĠSome": 1827,
      "ape": 1828,
      "ĠTo": 1829,
      "oil": 1830,
      "Ġvill": 1831,
      "Ġviewer": 1832,
      "Ġtotally": 1833,
      "Ġguys": 1834,
      "Ġlist": 1835,
      "amed": 1836,
      "Ġav": 1837,
      "Ġson": 1838,
      "Ġocc": 1839,
      "unk": 1840,
      "Ġthroughout": 1841,
      "oke": 1842,
      "Ġsat": 1843,
      "Ġable": 1844,
      "Ġprov": 1845,
      "gu": 1846,
      "Ġnum": 1847,
      "Ġquality": 1848,
      "Ġdeser": 1849,
      "Ġpar": 1850,
      "Ġdoc": 1851,
      "Ġcalled": 1852,
      "Ġcapt": 1853,
      "Ġdaughter": 1854,
      "Ġenjoyed": 1855,
      "Ġnovel": 1856,
      "Ġhistory": 1857,
      "Ġeff": 1858,
      "Ġdr": 1859,
      "!<": 1860,
      "ination": 1861,
      "ung": 1862,
      "Ġcomment": 1863,
      "Ġbased": 1864,
      "Ġmed": 1865,
      "OT": 1866,
      "Ġcol": 1867,
      "Ġstuff": 1868,
      "use": 1869,
      "ms": 1870,
      "Ġturns": 1871,
      "Ġkiller": 1872,
      "Ġamazing": 1873,
      "??": 1874,
      "Ġval": 1875,
      "Ġfem": 1876,
      "Ġgave": 1877,
      "Ġstarts": 1878,
      "ern": 1879,
      "Ġfair": 1880,
      "off": 1881,
      "Ġgame": 1882,
      "ude": 1883,
      "Ġfinally": 1884,
      "Ġbra": 1885,
      "Ġappear": 1886,
      "Ġgenre": 1887,
      "itive": 1888,
      "using": 1889,
      "ĠIs": 1890,
      "ĠMichael": 1891,
      "19": 1892,
      "Ġbehind": 1893,
      "Ġfavorite": 1894,
      "ĠDan": 1895,
      "ĠAfter": 1896,
      "Ġdeal": 1897,
      "ĠChar": 1898,
      "rib": 1899,
      "Ġlearn": 1900,
      "Ġfig": 1901,
      "Ġmyster": 1902,
      "Ġinf": 1903,
      "to": 1904,
      "Ġthemselves": 1905,
      "Ġmoment": 1906,
      "ished": 1907,
      "Ġcult": 1908,
      "Ġhon": 1909,
      "rop": 1910,
      "Ġcontin": 1911,
      "Ġevil": 1912,
      "Ġfinal": 1913,
      "Ġsitu": 1914,
      "ches": 1915,
      "Ġtoday": 1916,
      "Ġlate": 1917,
      "arth": 1918,
      "Ġimport": 1919,
      "As": 1920,
      "ik": 1921,
      "rodu": 1922,
      "Ġparts": 1923,
      "na": 1924,
      "ese": 1925,
      "oup": 1926,
      "ards": 1927,
      "ajor": 1928,
      "ox": 1929,
      "Ġprom": 1930,
      "Ġetc": 1931,
      "Ġstra": 1932,
      "Ġshoot": 1933,
      "Ġdays": 1934,
      "Ġcrit": 1935,
      "ĠThen": 1936,
      "Ġopp": 1937,
      "Ġexact": 1938,
      "Ġlevel": 1939,
      "ump": 1940,
      "Ġtyp": 1941,
      "Ġfeat": 1942,
      "astic": 1943,
      "iet": 1944,
      "akers": 1945,
      "Ġask": 1946,
      "Ġintell": 1947,
      "band": 1948,
      "Ġthinking": 1949,
      "Ġconsider": 1950,
      "Ġir": 1951,
      "Ġfoot": 1952,
      "Ġstories": 1953,
      "ĠBrit": 1954,
      ".)": 1955,
      "Ġmyself": 1956,
      "iculous": 1957,
      "Ġsusp": 1958,
      "Ġdeli": 1959,
      "Ġcost": 1960,
      "Ġpat": 1961,
      "Ġfeeling": 1962,
      "Ġpsych": 1963,
      "ĠGr": 1964,
      "ĠAlso": 1965,
      "Ġvoice": 1966,
      "Ġbus": 1967,
      "Ġmusical": 1968,
      "Ġdecent": 1969,
      "cy": 1970,
      "ene": 1971,
      "AN": 1972,
      "Ġpick": 1973,
      "Ġincred": 1974,
      "Ġeffort": 1975,
      "dy": 1976,
      "Ġdream": 1977,
      "Ġroles": 1978,
      "Ġsoon": 1979,
      "Ġsn": 1980,
      "Ġconst": 1981,
      "ĠWith": 1982,
      "urt": 1983,
      "usband": 1984,
      "arb": 1985,
      "Ġhorrible": 1986,
      "Ġsays": 1987,
      "ior": 1988,
      "Ġstop": 1989,
      "Ġgirls": 1990,
      "Ġheard": 1991,
      "Ġeyes": 1992,
      "ient": 1993,
      "Ġmot": 1994,
      "ĠHer": 1995,
      "Ġtook": 1996,
      "Ġmurder": 1997,
      "Ġdocument": 1998,
      "okes": 1999,
      "Ġcinemat": 2000,
      "Ġwin": 2001,
      "Ġkilled": 2002,
      "Ġstru": 2003,
      "ives": 2004,
      "ising": 2005,
      "antly": 2006,
      "Ġperhaps": 2007,
      "Ġwhite": 2008,
      "Ġ,": 2009,
      "Ġcannot": 2010,
      "yp": 2011,
      "antic": 2012,
      "Ġmajor": 2013,
      "els": 2014,
      "Ġhappens": 2015,
      "Ġfore": 2016,
      "tra": 2017,
      "ances": 2018,
      "LL": 2019,
      "Ġweak": 2020,
      "gan": 2021,
      "ma": 2022,
      "gs": 2023,
      "ĠGod": 2024,
      "uge": 2025,
      "Ġridiculous": 2026,
      "owing": 2027,
      "Ġinvolved": 2028,
      "ey": 2029,
      "Ġpredict": 2030,
      "Ġhilar": 2031,
      "What": 2032,
      "Ġhit": 2033,
      "Ġdirected": 2034,
      "eth": 2035,
      "ering": 2036,
      "Ġhusband": 2037,
      "ĠGe": 2038,
      "Ġroom": 2039,
      "urb": 2040,
      "aves": 2041,
      "ences": 2042,
      "Ġtechn": 2043,
      "Ġtype": 2044,
      "Ġsle": 2045,
      "Ġopin": 2046,
      "ats": 2047,
      "AT": 2048,
      "how": 2049,
      "Ġnon": 2050,
      "ĠWhile": 2051,
      "Ġhappened": 2052,
      "Ġexperience": 2053,
      "ĠOf": 2054,
      "Ġresult": 2055,
      "Ġgroup": 2056,
      "Ġprof": 2057,
      "ution": 2058,
      "Ġsol": 2059,
      "Ġbring": 2060,
      "Ġhold": 2061,
      "ĠOr": 2062,
      "ĠRobert": 2063,
      "Ġchang": 2064,
      "Ġbreak": 2065,
      "ters": 2066,
      "ĠWhy": 2067,
      "Ġevent": 2068,
      "Ġtold": 2069,
      "Ġago": 2070,
      "...<": 2071,
      "Ġviolence": 2072,
      "Ġteen": 2073,
      "Ġtele": 2074,
      "side": 2075,
      "ST": 2076,
      "Ġextremely": 2077,
      "mp": 2078,
      "Ġleave": 2079,
      "apan": 2080,
      "Ġfut": 2081,
      "Ġchance": 2082,
      "Ġcrap": 2083,
      "ĠJust": 2084,
      "ique": 2085,
      "zy": 2086,
      "Ġmove": 2087,
      "ĠMay": 2088,
      "Ġwouldn": 2089,
      "Ġage": 2090,
      "Ġswe": 2091,
      "Ġesc": 2092,
      "ĠGer": 2093,
      "ĠEd": 2094,
      "ky": 2095,
      "Ġ200": 2096,
      "Ġcheap": 2097,
      "But": 2098,
      "Ġ6": 2099,
      "aced": 2100,
      "iddle": 2101,
      "Ġquick": 2102,
      "And": 2103,
      "ered": 2104,
      "ots": 2105,
      "Ġhilarious": 2106,
      "Ġpos": 2107,
      "Ġste": 2108,
      "Ġlooked": 2109,
      "Ġstre": 2110,
      "Ġcareer": 2111,
      "ys": 2112,
      "Ġstay": 2113,
      "rest": 2114,
      "ON": 2115,
      "ement": 2116,
      "Ġscore": 2117,
      "ational": 2118,
      "Ġshown": 2119,
      "Ġfoc": 2120,
      "Ġshock": 2121,
      "ĠRich": 2122,
      "ential": 2123,
      "ĠInd": 2124,
      "ĠHar": 2125,
      "ĠJames": 2126,
      "wards": 2127,
      "Ġpolit": 2128,
      "Ġcoming": 2129,
      "Ġdesc": 2130,
      "ĠPe": 2131,
      "Ġhighly": 2132,
      "Ġdisco": 2133,
      "Ġphot": 2134,
      "vision": 2135,
      "Ġapparent": 2136,
      "Ġobviously": 2137,
      "Ġsometimes": 2138,
      "ĠKe": 2139,
      "ĠPet": 2140,
      "Ġsimilar": 2141,
      "Ġsimple": 2142,
      "Ġcomed": 2143,
      "ĠPaul": 2144,
      "ovie": 2145,
      "Ġnumber": 2146,
      "Ġbody": 2147,
      "any": 2148,
      "Ġinde": 2149,
      "RE": 2150,
      "aged": 2151,
      "Ġannoying": 2152,
      "mb": 2153,
      "Ġant": 2154,
      "ĠEnglish": 2155,
      "Ġtaken": 2156,
      "nds": 2157,
      "enty": 2158,
      "Ġdev": 2159,
      "ground": 2160,
      "ĠEvery": 2161,
      "itting": 2162,
      "aim": 2163,
      "Ġang": 2164,
      "lus": 2165,
      "ĠQ": 2166,
      "Ġyourself": 2167,
      "Ġparticularly": 2168,
      "Ġopinion": 2169,
      "nded": 2170,
      "ili": 2171,
      "Ġvar": 2172,
      "Ġhours": 2173,
      "Ġexactly": 2174,
      "iety": 2175,
      "ĠJapan": 2176,
      "ĠOsc": 2177,
      "Ġstrange": 2178,
      "ury": 2179,
      "rence": 2180,
      "Ġgun": 2181,
      "Ġcountry": 2182,
      "Ġtreat": 2183,
      "ino": 2184,
      "Ġones": 2185,
      "Ġunc": 2186,
      "Ġfour": 2187,
      "Ġalone": 2188,
      "Ġdeep": 2189,
      "Ġstarted": 2190,
      "Ġreturn": 2191,
      "Ġhuge": 2192,
      "pping": 2193,
      "Ġwriter": 2194,
      "ones": 2195,
      "Ġill": 2196,
      "Ġlar": 2197,
      "Ġknown": 2198,
      "Ġends": 2199,
      "Ġfinds": 2200,
      "ina": 2201,
      "Ġpay": 2202,
      "rench": 2203,
      "Ġpossible": 2204,
      "Ġsomewhat": 2205,
      "bel": 2206,
      "Ġcool": 2207,
      "Ġgore": 2208,
      "read": 2209,
      "Ġmoder": 2210,
      "Ġdoub": 2211,
      "Ġchange": 2212,
      "Ġreleased": 2213,
      "Ġwhose": 2214,
      "Ġacross": 2215,
      "aces": 2216,
      "Ġusual": 2217,
      "Ġcinematography": 2218,
      "Ġseason": 2219,
      "ator": 2220,
      "Ġprem": 2221,
      "Ġdisc": 2222,
      "Ġfilmm": 2223,
      "ubl": 2224,
      "cks": 2225,
      "Ġopening": 2226,
      "Ġfa": 2227,
      "Ġhot": 2228,
      "outh": 2229,
      "Ġshots": 2230,
      "Ġtalent": 2231,
      "rit": 2232,
      "Ġsubject": 2233,
      "lt": 2234,
      "Ġpot": 2235,
      "Ġzomb": 2236,
      "unt": 2237,
      "lo": 2238,
      "Ġnarr": 2239,
      "ield": 2240,
      "Ġforget": 2241,
      "Ġjokes": 2242,
      "Ġepisodes": 2243,
      "ians": 2244,
      "Ġsaying": 2245,
      "ball": 2246,
      "Ġreality": 2247,
      "ouble": 2248,
      "ĠWar": 2249,
      "Ġpull": 2250,
      "Ġdest": 2251,
      "Ġpolice": 2252,
      "Ġsent": 2253,
      "ĠNow": 2254,
      "Ġdisappointed": 2255,
      "!\"": 2256,
      "wise": 2257,
      "anger": 2258,
      "omp": 2259,
      "Ġorder": 2260,
      "Ġsingle": 2261,
      "Ġfill": 2262,
      "Ġbuild": 2263,
      "!!!!": 2264,
      "Ġproduc": 2265,
      "Ġfemale": 2266,
      "mosp": 2267,
      "Ġwish": 2268,
      "Ġlocal": 2269,
      "Ġliving": 2270,
      "Ġwee": 2271,
      "Ġvict": 2272,
      "Ġrating": 2273,
      "ĠPer": 2274,
      "ron": 2275,
      "Ġsister": 2276,
      "ral": 2277,
      "ĠDavid": 2278,
      "aker": 2279,
      "Ġevents": 2280,
      "Ġtalking": 2281,
      "Al": 2282,
      "Ġmist": 2283,
      "ĠTom": 2284,
      "Ġnear": 2285,
      "Ġprot": 2286,
      "Ġrunning": 2287,
      "Ġsign": 2288,
      "Ġattention": 2289,
      "Ġhonest": 2290,
      "ĠAd": 2291,
      "****": 2292,
      "hetic": 2293,
      "AR": 2294,
      "ush": 2295,
      "Ġremind": 2296,
      "Ġtouch": 2297,
      "Ġatmosp": 2298,
      "light": 2299,
      "real": 2300,
      "Ġimportant": 2301,
      "Ġsave": 2302,
      "Ġturned": 2303,
      "Ġplan": 2304,
      "Ġknew": 2305,
      "Ġdocumentary": 2306,
      "Ġmiddle": 2307,
      "ald": 2308,
      "reci": 2309,
      "lling": 2310,
      "orth": 2311,
      "Ġsongs": 2312,
      "Ġut": 2313,
      "head": 2314,
      "asy": 2315,
      "iction": 2316,
      "oud": 2317,
      "iel": 2318,
      "Ġtells": 2319,
      "Ġsuspense": 2320,
      "ole": 2321,
      "ĠBritish": 2322,
      "ĠNe": 2323,
      "ĠEl": 2324,
      "Ġparent": 2325,
      "Ġmeet": 2326,
      "Ġdespite": 2327,
      "Ġproblems": 2328,
      "uri": 2329,
      "ctor": 2330,
      "Ġsequence": 2331,
      "ING": 2332,
      "ĠJe": 2333,
      "Ġmodern": 2334,
      "rely": 2335,
      "ises": 2336,
      "Ġtaking": 2337,
      "Ġcompl": 2338,
      "ants": 2339,
      "Ġdetail": 2340,
      "Ġair": 2341,
      "ital": 2342,
      "Ġinn": 2343,
      "Ġknows": 2344,
      "Ġ20": 2345,
      "which": 2346,
      "ĠWilliam": 2347,
      "eng": 2348,
      "Ġapart": 2349,
      "Ġsubt": 2350,
      "Ġstraight": 2351,
      "oe": 2352,
      "Ġintellig": 2353,
      "ires": 2354,
      "otic": 2355,
      "iod": 2356,
      "Ġteam": 2357,
      "Ġrespect": 2358,
      "Ġpri": 2359,
      "Ġequ": 2360,
      "Ġaren": 2361,
      "ained": 2362,
      "Ġunf": 2363,
      "Ġscary": 2364,
      "Ġusually": 2365,
      "Ġten": 2366,
      "Ġhop": 2367,
      "Ġhell": 2368,
      "OR": 2369,
      "Ġfuture": 2370,
      "arch": 2371,
      "Ġcomic": 2372,
      "ĠDis": 2373,
      "Ġcontro": 2374,
      "Ġsilly": 2375,
      "Ġdue": 2376,
      "aterial": 2377,
      "orable": 2378,
      "ĠMe": 2379,
      "Ġeasily": 2380,
      "Ġromantic": 2381,
      "Ġincluding": 2382,
      "ris": 2383,
      "Ġve": 2384,
      "ubb": 2385,
      "Ġmark": 2386,
      "Ġquestion": 2387,
      "My": 2388,
      "Ġ!": 2389,
      "Ġamong": 2390,
      "che": 2391,
      "Ġca": 2392,
      "oul": 2393,
      "Ġtelevision": 2394,
      "An": 2395,
      "ichÃ©": 2396,
      "Ġpresent": 2397,
      "Ġaspect": 2398,
      "Ġadult": 2399,
      "Ġsets": 2400,
      "Ġsupporting": 2401,
      "Ġwords": 2402,
      "Ġcart": 2403,
      "Ġland": 2404,
      "Ġappears": 2405,
      "Ġforg": 2406,
      "yond": 2407,
      "Ġhappy": 2408,
      "ĠPr": 2409,
      "ĠYork": 2410,
      "Ġfast": 2411,
      "Ġear": 2412,
      "St": 2413,
      "Ġdull": 2414,
      "Ġpredictable": 2415,
      "Ġmaterial": 2416,
      "Ġenjoyable": 2417,
      "Ġappreci": 2418,
      "ltim": 2419,
      "Ġsexual": 2420,
      "ĠDo": 2421,
      "Ġhands": 2422,
      "Ġclearly": 2423,
      "go": 2424,
      "Ġneeds": 2425,
      "Ġeng": 2426,
      "Ġprog": 2427,
      "Ġfalls": 2428,
      "form": 2429,
      "Ġmostly": 2430,
      "who": 2431,
      "irector": 2432,
      "gy": 2433,
      "rated": 2434,
      "Wh": 2435,
      "back": 2436,
      "asc": 2437,
      "oof": 2438,
      "Ġactual": 2439,
      "nding": 2440,
      "Ġprevious": 2441,
      "Ġbox": 2442,
      "Ġcreep": 2443,
      "ĠTr": 2444,
      "Ġpleas": 2445,
      "ĠOscar": 2446,
      "ara": 2447,
      "Ġodd": 2448,
      "Ġsold": 2449,
      "Ġentertainment": 2450,
      "ĠRichard": 2451,
      "Ġsum": 2452,
      "iest": 2453,
      "Ġways": 2454,
      "Ġgiving": 2455,
      "EN": 2456,
      "Ġnone": 2457,
      "aught": 2458,
      "Ġcheck": 2459,
      "Ġeye": 2460,
      "attle": 2461,
      "estern": 2462,
      "ressed": 2463,
      "Ġsequel": 2464,
      "Ġseriously": 2465,
      "Ġherself": 2466,
      "Ġpoints": 2467,
      "inal": 2468,
      "ĠclichÃ©": 2469,
      "Ġspir": 2470,
      "where": 2471,
      "Ġreve": 2472,
      "Ġfeels": 2473,
      "ension": 2474,
      "Ġ197": 2475,
      "ĠGerman": 2476,
      "ublic": 2477,
      "Ġfeature": 2478,
      "Ġsurprised": 2479,
      "Ġvictim": 2480,
      "Ġflaw": 2481,
      "Ġmessage": 2482,
      "ĠKing": 2483,
      "Ġperiod": 2484,
      "amb": 2485,
      "ĠAny": 2486,
      "ĠCon": 2487,
      "Ġ198": 2488,
      "ĠAm": 2489,
      "Ġsetting": 2490,
      "Ġsecret": 2491,
      "Ġanimation": 2492,
      "Ġmet": 2493,
      "ĠMor": 2494,
      "Ġabove": 2495,
      "Ġadapt": 2496,
      "Ġgang": 2497,
      "Ġdoubt": 2498,
      "ining": 2499,
      "Ġhaven": 2500,
      "Ġexist": 2501,
      "Ġtheme": 2502,
      "Ġstoryline": 2503,
      "Ġcamp": 2504,
      "ĠBen": 2505,
      "Ġclear": 2506,
      "work": 2507,
      "orry": 2508,
      "Ġslight": 2509,
      "Ġattack": 2510,
      "Ġvisual": 2511,
      "track": 2512,
      "Ġru": 2513,
      "ĠPh": 2514,
      "?<": 2515,
      "Ġbunch": 2516,
      "Ġmoving": 2517,
      "ĠLee": 2518,
      "Ġelements": 2519,
      "ficult": 2520,
      "',": 2521,
      "Ġhate": 2522,
      "irt": 2523,
      "ggest": 2524,
      "iment": 2525,
      "Ġemb": 2526,
      "Ġthriller": 2527,
      "aby": 2528,
      "Ġ80": 2529,
      "wr": 2530,
      "arre": 2531,
      "uses": 2532,
      "Ġbegins": 2533,
      "ĠGeorge": 2534,
      "Ġtheat": 2535,
      "ĠIM": 2536,
      "Ġviewers": 2537,
      "atural": 2538,
      "verage": 2539,
      "Ġcomb": 2540,
      "Ġnearly": 2541,
      "Ġfell": 2542,
      "Ġsuperb": 2543,
      "Ġaccept": 2544,
      "Ġwithin": 2545,
      "Ġupon": 2546,
      "Ġdifficult": 2547,
      "Ġbeyond": 2548,
      "ously": 2549,
      "Ġspoil": 2550,
      "Ġdecided": 2551,
      "Ġtried": 2552,
      "row": 2553,
      "Ġmil": 2554,
      "Ġpersonal": 2555,
      "Ġeasy": 2556,
      "Ġsuggest": 2557,
      "Ġmeans": 2558,
      "Ġrelease": 2559,
      "ening": 2560,
      "ĠSam": 2561,
      "Ġsuff": 2562,
      "ĠNOT": 2563,
      "OU": 2564,
      "!)": 2565,
      "oun": 2566,
      "Ġnamed": 2567,
      "ĠSu": 2568,
      "view": 2569,
      "Ġshowing": 2570,
      "Ġbro": 2571,
      "ices": 2572,
      "Ġtre": 2573,
      "Ġcomments": 2574,
      "Ġtwist": 2575,
      "Ġlarge": 2576,
      "Ġinsp": 2577,
      "Ġsoundtrack": 2578,
      "aur": 2579,
      "Ġoverall": 2580,
      "Ġfive": 2581,
      "Ġhear": 2582,
      "Ġclim": 2583,
      "Ġworking": 2584,
      "Ġtrag": 2585,
      "sw": 2586,
      "Ġfigure": 2587,
      "Ġwit": 2588,
      "ett": 2589,
      "Ġdru": 2590,
      "omin": 2591,
      "Ġfantastic": 2592,
      "Ġtypical": 2593,
      "ival": 2594,
      "Ġkept": 2595,
      "Ġtheater": 2596,
      "Ġleads": 2597,
      "Ġtale": 2598,
      "Ġfree": 2599,
      "ceed": 2600,
      "ĠSim": 2601,
      "ĠUS": 2602,
      "incing": 2603,
      "Ġtruth": 2604,
      "Ġusing": 2605,
      "cl": 2606,
      "ially": 2607,
      "ĠPl": 2608,
      "IL": 2609,
      "orld": 2610,
      "Ġstri": 2611,
      "Ġfamous": 2612,
      "Ġediting": 2613,
      "Ġviewing": 2614,
      "ĠDisney": 2615,
      "bs": 2616,
      "atever": 2617,
      "Ġbrought": 2618,
      "!!!": 2619,
      "Ġparticular": 2620,
      "Ġmix": 2621,
      "Ġweird": 2622,
      "af": 2623,
      "Ġatmosphere": 2624,
      "mas": 2625,
      "oor": 2626,
      "lier": 2627,
      "Ġdanc": 2628,
      "Ġsurv": 2629,
      "Ġsequences": 2630,
      "vent": 2631,
      "Ġrealistic": 2632,
      "hic": 2633,
      "let": 2634,
      "Ġintrodu": 2635,
      "Ġwrit": 2636,
      "Ġparents": 2637,
      "ai": 2638,
      "Ġstage": 2639,
      "ively": 2640,
      "Ġpost": 2641,
      "Ġbusiness": 2642,
      "Ġwood": 2643,
      "Ġwhether": 2644,
      "rific": 2645,
      "lin": 2646,
      "ĠAmerica": 2647,
      "Ġwait": 2648,
      "Ġbackground": 2649,
      "dden": 2650,
      "of": 2651,
      "Ġnorm": 2652,
      "Ġreviews": 2653,
      "Ġred": 2654,
      "Ġobs": 2655,
      "Ġbuy": 2656,
      "ĠFrench": 2657,
      "Ġpremise": 2658,
      "Ġgreatest": 2659,
      "rey": 2660,
      "Ġund": 2661,
      "Ġlame": 2662,
      "Ġrese": 2663,
      "Ġspeak": 2664,
      "Ġiss": 2665,
      "oose": 2666,
      "ĠChe": 2667,
      "Ġexpected": 2668,
      "Ġsil": 2669,
      "Ġcity": 2670,
      "aling": 2671,
      "host": 2672,
      "Ġfilmed": 2673,
      "ĠCol": 2674,
      "Ġbelievable": 2675,
      "So": 2676,
      "Ġcat": 2677,
      "ĠSm": 2678,
      "Ġcrime": 2679,
      "ĠJim": 2680,
      "Ġ199": 2681,
      "?\"": 2682,
      "Ġsoc": 2683,
      "Ġdesign": 2684,
      "Ġbasically": 2685,
      "Ġstrugg": 2686,
      "bers": 2687,
      "Ġbecame": 2688,
      "ĠAlthough": 2689,
      "kay": 2690,
      "Ġstun": 2691,
      "'.": 2692,
      "urther": 2693,
      "Ġfront": 2694,
      "ana": 2695,
      "avy": 2696,
      "ged": 2697,
      "verall": 2698,
      "Ġexec": 2699,
      "Ġutter": 2700,
      "Ġpure": 2701,
      "lfriend": 2702,
      "Ġnature": 2703,
      "ĠFrank": 2704,
      "iences": 2705,
      "ges": 2706,
      "Ġlaw": 2707,
      "Ġsudden": 2708,
      "Ġpoorly": 2709,
      "Ġavoid": 2710,
      "Ġappro": 2711,
      "esy": 2712,
      "ĠMaybe": 2713,
      "ĠItal": 2714,
      "ear": 2715,
      "Ġrock": 2716,
      "ĠUnfortunately": 2717,
      "ĠPeter": 2718,
      "ĠJapanese": 2719,
      "Ġmeaning": 2720,
      "ES": 2721,
      "Ġ*": 2722,
      "lor": 2723,
      "spect": 2724,
      "Ġcur": 2725,
      "Ġultim": 2726,
      "Ġleaves": 2727,
      "Ġdumb": 2728,
      "ĠOK": 2729,
      "ogn": 2730,
      "Ġlos": 2731,
      "ĠDr": 2732,
      "hood": 2733,
      "Ġapparently": 2734,
      "Ġaverage": 2735,
      "Ġneeded": 2736,
      "Ġsurprise": 2737,
      "Ġlim": 2738,
      "ills": 2739,
      "You": 2740,
      "bor": 2741,
      "Ġtast": 2742,
      "ĠOh": 2743,
      "cted": 2744,
      "Ġmystery": 2745,
      "Ġbar": 2746,
      "icks": 2747,
      "hys": 2748,
      "more": 2749,
      "Ġment": 2750,
      "Ġdie": 2751,
      "piece": 2752,
      "ĠMost": 2753,
      "Ġvillain": 2754,
      "Ġsituation": 2755,
      "Ġsens": 2756,
      "Ġfire": 2757,
      "irc": 2758,
      "Ġlots": 2759,
      "pend": 2760,
      "ĠGu": 2761,
      "rom": 2762,
      "Ġmale": 2763,
      "Ġthird": 2764,
      "EA": 2765,
      "set": 2766,
      "Ġbored": 2767,
      "Ġcredits": 2768,
      "One": 2769,
      "uro": 2770,
      "Ġproject": 2771,
      "Ġkilling": 2772,
      "anks": 2773,
      "ĠWho": 2774,
      "Ġcostum": 2775,
      "Ġer": 2776,
      "Ġforced": 2777,
      "Ġrealize": 2778,
      "Ġcap": 2779,
      "Ġpublic": 2780,
      "Ġliter": 2781,
      "Ġgone": 2782,
      "Ġmeant": 2783,
      "Th": 2784,
      "Ġadvent": 2785,
      "Ġearlier": 2786,
      "Ġwind": 2787,
      "ager": 2788,
      "udd": 2789,
      "Ġmemorable": 2790,
      "Ġemotional": 2791,
      "When": 2792,
      "Ġid": 2793,
      "ored": 2794,
      "time": 2795,
      "ĠMart": 2796,
      "Ġinte": 2797,
      "Ġmeets": 2798,
      "Ġwrite": 2799,
      "Ch": 2800,
      "isf": 2801,
      "ĠNight": 2802,
      "ĠScott": 2803,
      "bert": 2804,
      "erry": 2805,
      "Ġsomehow": 2806,
      "chie": 2807,
      "Ġunique": 2808,
      "Ġtrad": 2809,
      "Ġemotion": 2810,
      "ĠIMD": 2811,
      "urd": 2812,
      "ppy": 2813,
      "Ġminute": 2814,
      "king": 2815,
      "inger": 2816,
      "ĠCan": 2817,
      "Ġinterested": 2818,
      "Ġfootage": 2819,
      "key": 2820,
      "Ġolder": 2821,
      "rif": 2822,
      "Ġprop": 2823,
      "Ġresp": 2824,
      "Ġscreenplay": 2825,
      "Ġkeeps": 2826,
      "well": 2827,
      "Ġshame": 2828,
      "Ġlaughs": 2829,
      "Ġ30": 2830,
      "ĠTim": 2831,
      "Ġreading": 2832,
      "Ġoper": 2833,
      "Ġconcept": 2834,
      "Ġdisturb": 2835,
      "ĠGra": 2836,
      "Ġpossibly": 2837,
      "fer": 2838,
      "Ġbel": 2839,
      "ĠSch": 2840,
      "Ġunlike": 2841,
      "Ġdirectors": 2842,
      "Ġexpress": 2843,
      "por": 2844,
      "Ġdance": 2845,
      "Ġsociety": 2846,
      "Ġallow": 2847,
      "acing": 2848,
      "friend": 2849,
      "look": 2850,
      "Ġfasc": 2851,
      "Ġconne": 2852,
      "cessary": 2853,
      "Ġfeatures": 2854,
      "cious": 2855,
      "Âħ": 2856,
      "Ġbadly": 2857,
      "Ġ70": 2858,
      "Ġquickly": 2859,
      "Ġmill": 2860,
      "Ġdam": 2861,
      "Ġforward": 2862,
      "uel": 2863,
      "Ġworked": 2864,
      "Ġgrand": 2865,
      "Ġpopular": 2866,
      "Ġprofess": 2867,
      "Ġyes": 2868,
      "ĠAN": 2869,
      "ĠAng": 2870,
      "Ġbrings": 2871,
      "Ġsick": 2872,
      "ĠPar": 2873,
      "angu": 2874,
      "ĠJoe": 2875,
      "Ġdramatic": 2876,
      "Ġ$": 2877,
      "Ġ/>\"": 2878,
      "Ġnor": 2879,
      "ĠWood": 2880,
      "Ġanyway": 2881,
      "Ġperfectly": 2882,
      "iliar": 2883,
      "All": 2884,
      "acy": 2885,
      "Ġimagine": 2886,
      "Ġdevelopment": 2887,
      "?)": 2888,
      "ele": 2889,
      "Ġgirlfriend": 2890,
      "Ġadmit": 2891,
      "ula": 2892,
      "Ġromance": 2893,
      "ived": 2894,
      "Ġstere": 2895,
      "ĠThese": 2896,
      "Ġwriters": 2897,
      "reed": 2898,
      "allow": 2899,
      "this": 2900,
      "ĠIts": 2901,
      "Ġgeneral": 2902,
      "Ġcreepy": 2903,
      "onic": 2904,
      "ĠMat": 2905,
      "Ġrob": 2906,
      "belie": 2907,
      "ĠBy": 2908,
      "zz": 2909,
      "Ġdirecting": 2910,
      "hel": 2911,
      "ries": 2912,
      "Ġ`": 2913,
      "ĠTw": 2914,
      "ius": 2915,
      "iny": 2916,
      "Ġband": 2917,
      "Ġcatch": 2918,
      "erv": 2919,
      "Ġflat": 2920,
      "Ġ195": 2921,
      "arring": 2922,
      "Ġfails": 2923,
      "ĠLike": 2924,
      "Ġclever": 2925,
      "Ġpotential": 2926,
      "erm": 2927,
      "ashing": 2928,
      "Ġcopy": 2929,
      "over": 2930,
      "Ġmad": 2931,
      "Ġagree": 2932,
      "Ġsleep": 2933,
      "Ġeventually": 2934,
      "Ġtowards": 2935,
      "Ġbattle": 2936,
      "Ġnud": 2937,
      "ague": 2938,
      "ĠJul": 2939,
      "Ġimm": 2940,
      "Ġcreate": 2941,
      "Ġjoke": 2942,
      "Ġcheesy": 2943,
      "ĠGood": 2944,
      "Ġwhom": 2945,
      "Ġenc": 2946,
      "Ġpowerful": 2947,
      "Ġcartoon": 2948,
      "Ġoccas": 2949,
      "ĠJane": 2950,
      "ĠYes": 2951,
      "ĠInst": 2952,
      "Ġhistor": 2953,
      "Ġpurp": 2954,
      "Ġvarious": 2955,
      "Ġcry": 2956,
      "arl": 2957,
      "ases": 2958,
      "Ġrepe": 2959,
      "Ġrecogn": 2960,
      "Ġprison": 2961,
      "ero": 2962,
      "oman": 2963,
      "Ġamount": 2964,
      "Ġattract": 2965,
      "Ġ90": 2966,
      "venge": 2967,
      "ivid": 2968,
      "een": 2969,
      "vered": 2970,
      "ĠChristmas": 2971,
      "Ġreasons": 2972,
      "Ġincredibly": 2973,
      "kn": 2974,
      "Ġideas": 2975,
      "Ġplease": 2976,
      "with": 2977,
      "Ġsocial": 2978,
      "Ġinnoc": 2979,
      "Ġstereot": 2980,
      "IS": 2981,
      "iver": 2982,
      "Ġbare": 2983,
      "aked": 2984,
      "ivers": 2985,
      "Ġplain": 2986,
      "Ġleading": 2987,
      "ĠFrom": 2988,
      "action": 2989,
      "Ġ193": 2990,
      "Ġ...": 2991,
      "Ġaut": 2992,
      "ĠFilm": 2993,
      "Ġinvest": 2994,
      "Ġportrayed": 2995,
      "Ġdeserves": 2996,
      "ĠEx": 2997,
      "Ġclaim": 2998,
      "Ġspace": 2999,
      "Ġign": 3000,
      "arrass": 3001,
      "Ġmanages": 3002,
      "Ġcommun": 3003,
      "Ġtotal": 3004,
      "Ġexpecting": 3005,
      "Ġsweet": 3006,
      "ĠIMDb": 3007,
      "mist": 3008,
      "Ġ:": 3009,
      "ĠFirst": 3010,
      "Ġcasting": 3011,
      "Ġcollect": 3012,
      "Ġpositive": 3013,
      "Ġspirit": 3014,
      "ĠFred": 3015,
      "Ġattempts": 3016,
      "Ġmasterpiece": 3017,
      "Ġest": 3018,
      "Ġmatch": 3019,
      "Ġstep": 3020,
      "itty": 3021,
      "vin": 3022,
      "ĠCom": 3023,
      "Ġneg": 3024,
      "berg": 3025,
      "Ġcover": 3026,
      "Ġfantasy": 3027,
      "oles": 3028,
      "Ġrevol": 3029,
      "Ġindeed": 3030,
      "wart": 3031,
      "Ġjour": 3032,
      "Ġrich": 3033,
      "su": 3034,
      "Ġcond": 3035,
      "ĠAf": 3036,
      "Ġsounds": 3037,
      "Ġphys": 3038,
      "Ġplenty": 3039,
      "ĠEm": 3040,
      "ology": 3041,
      "Ġcolle": 3042,
      "Ġembarrass": 3043,
      "ĠEuro": 3044,
      "ips": 3045,
      "Ġdesper": 3046,
      "\")": 3047,
      "For": 3048,
      "Ġess": 3049,
      "Ġcirc": 3050,
      "Ġacted": 3051,
      "Ġfairly": 3052,
      "Ġpolitical": 3053,
      "Ġmissing": 3054,
      "How": 3055,
      "Ġachie": 3056,
      "Ġremake": 3057,
      "asher": 3058,
      "iller": 3059,
      "pper": 3060,
      "elly": 3061,
      "Ġbeauty": 3062,
      "Ġextra": 3063,
      "ĠLu": 3064,
      "itted": 3065,
      "ford": 3066,
      "Ġfighting": 3067,
      "ĠQu": 3068,
      "ask": 3069,
      "lex": 3070,
      "Ġoutside": 3071,
      "Ġnudity": 3072,
      "ĠAust": 3073,
      "Ġmurd": 3074,
      "medi": 3075,
      "Ġlangu": 3076,
      "Ġsymp": 3077,
      "gest": 3078,
      "ze": 3079,
      "unny": 3080,
      "ĠStre": 3081,
      "Ġinside": 3082,
      "Ġtalented": 3083,
      "val": 3084,
      "ĠBra": 3085,
      "Ġaf": 3086,
      "Ġfurther": 3087,
      "Ġhom": 3088,
      "Ġexplain": 3089,
      "Ġcrew": 3090,
      "Ġhardly": 3091,
      "andy": 3092,
      "Ġremark": 3093,
      "Ġrecently": 3094,
      "Ġfamiliar": 3095,
      "Ġmarried": 3096,
      "Ġgay": 3097,
      "iff": 3098,
      "Ġtelling": 3099,
      "Ġwasted": 3100,
      "Ġnote": 3101,
      "Ġcrazy": 3102,
      "Ġrelig": 3103,
      "idden": 3104,
      "Ġfilmmakers": 3105,
      "Ġident": 3106,
      "irl": 3107,
      "Ġdog": 3108,
      "Ġmentioned": 3109,
      "cked": 3110,
      "TH": 3111,
      "Ġlady": 3112,
      "agon": 3113,
      "iving": 3114,
      "Ġera": 3115,
      "Ġaff": 3116,
      "Ġscient": 3117,
      "resh": 3118,
      "Ġdecides": 3119,
      "bo": 3120,
      "ades": 3121,
      "Ġansw": 3122,
      "Ġdestro": 3123,
      "Ġbed": 3124,
      "alth": 3125,
      "ĠGold": 3126,
      "Ġtrail": 3127,
      "lusion": 3128,
      "OO": 3129,
      "Ġcaught": 3130,
      "izing": 3131,
      "Ġdelight": 3132,
      "Ġrequ": 3133,
      "iously": 3134,
      "Ġclos": 3135,
      "Ġmissed": 3136,
      "Ġmembers": 3137,
      "olf": 3138,
      "Ġdepth": 3139,
      "Ġcommon": 3140,
      "Ġmid": 3141,
      "Ġaccident": 3142,
      "ding": 3143,
      "ites": 3144,
      "ened": 3145,
      "Ġpace": 3146,
      "Ġstat": 3147,
      "Ġscream": 3148,
      "Ġended": 3149,
      "Ġsorry": 3150,
      "lying": 3151,
      "Ġhair": 3152,
      "Ġintri": 3153,
      "Ġunbelie": 3154,
      "ĠBlack": 3155,
      "bl": 3156,
      "Ġvamp": 3157,
      "Ġrecord": 3158,
      "Ġcomplex": 3159,
      "Ġdraw": 3160,
      "Ġmel": 3161,
      "Ġbiz": 3162,
      "uter": 3163,
      "uted": 3164,
      "Ġuses": 3165,
      "Ġexplo": 3166,
      "par": 3167,
      "Ġcute": 3168,
      "Ġwhatever": 3169,
      "Ġsees": 3170,
      "room": 3171,
      "Ġ(\"": 3172,
      "Ġflash": 3173,
      "Ġmedi": 3174,
      "cent": 3175,
      "Ġimmedi": 3176,
      "imp": 3177,
      "ishing": 3178,
      "Ġrece": 3179,
      "ĠMary": 3180,
      "Ġfunn": 3181,
      "ossible": 3182,
      "Ġconvincing": 3183,
      "Ġwaiting": 3184,
      "come": 3185,
      "aine": 3186,
      "ĠPat": 3187,
      "ictor": 3188,
      "Ġimpro": 3189,
      "ĠBill": 3190,
      "ĠWorld": 3191,
      "Ġcredit": 3192,
      "Ġble": 3193,
      "Ġhy": 3194,
      "Ġspent": 3195,
      "Ġcreated": 3196,
      "cher": 3197,
      "Ġmod": 3198,
      "Ġporn": 3199,
      "oop": 3200,
      "ĠDes": 3201,
      "Ġwrote": 3202,
      "Ġslightly": 3203,
      "ĠEurope": 3204,
      "ibility": 3205,
      "Ġentirely": 3206,
      "Ġrap": 3207,
      "ĠBar": 3208,
      "Ġbrief": 3209,
      "Ġtension": 3210,
      "ieces": 3211,
      "ĠHere": 3212,
      "Ġamb": 3213,
      "Ġformer": 3214,
      "ĠStar": 3215,
      "Ġmonster": 3216,
      "Ġsolid": 3217,
      "vil": 3218,
      "itation": 3219,
      "ette": 3220,
      "rage": 3221,
      "ĠWatch": 3222,
      "Ġrate": 3223,
      "Ġoffic": 3224,
      "Ġcontrol": 3225,
      "Ġidi": 3226,
      "ĠMac": 3227,
      "acher": 3228,
      "ha": 3229,
      "lict": 3230,
      "alt": 3231,
      "Ġmoves": 3232,
      "Ġpointless": 3233,
      "ĠOther": 3234,
      "inating": 3235,
      "Ġwall": 3236,
      "ĠIr": 3237,
      "iced": 3238,
      "Ġstick": 3239,
      "Ġlaughing": 3240,
      "VER": 3241,
      "Ġwater": 3242,
      "uine": 3243,
      "Ġghost": 3244,
      "vern": 3245,
      "Ġchoice": 3246,
      "Ġsuccessful": 3247,
      "Ġcolor": 3248,
      "esome": 3249,
      "Ġine": 3250,
      "eless": 3251,
      "Ġ15": 3252,
      "lu": 3253,
      "men": 3254,
      "Ġmass": 3255,
      "aging": 3256,
      "con": 3257,
      "emy": 3258,
      "gend": 3259,
      "ective": 3260,
      "while": 3261,
      "ĠInstead": 3262,
      "Ġ196": 3263,
      "Ġaccent": 3264,
      "Ġsatisf": 3265,
      "Ġvalue": 3266,
      "Ġescape": 3267,
      "isingly": 3268,
      "ĠTra": 3269,
      "Ġrad": 3270,
      "ashion": 3271,
      "Ġportrayal": 3272,
      "OW": 3273,
      "ĠSer": 3274,
      "Ġboys": 3275,
      "On": 3276,
      "str": 3277,
      "ĠMad": 3278,
      "oph": 3279,
      "Ġeffective": 3280,
      "Ġfollowing": 3281,
      "Ġintelligent": 3282,
      "Ġappreciate": 3283,
      "ilt": 3284,
      "rian": 3285,
      "Ġunfortunately": 3286,
      "Ġslasher": 3287,
      "standing": 3288,
      "Ġexciting": 3289,
      "uthor": 3290,
      "Ġsubtle": 3291,
      "ED": 3292,
      "iers": 3293,
      "inary": 3294,
      "Ġjud": 3295,
      "Ġrecent": 3296,
      "ĠItalian": 3297,
      "mon": 3298,
      "Ġkills": 3299,
      "Ġtravel": 3300,
      "Ġbiggest": 3301,
      "oes": 3302,
      "Ġwild": 3303,
      "Ġarri": 3304,
      "boy": 3305,
      "Ġjump": 3306,
      "Ġcompe": 3307,
      "cast": 3308,
      "Ġstore": 3309,
      "Ġspend": 3310,
      "Ġmach": 3311,
      "Ġgenuine": 3312,
      "Ġconcern": 3313,
      "Ġzombie": 3314,
      "Ġbreat": 3315,
      "Ġdied": 3316,
      "ĠRed": 3317,
      "Ġamusing": 3318,
      "Ġbrain": 3319,
      "Ġincredible": 3320,
      "Ġforgot": 3321,
      "ging": 3322,
      "Ġfollows": 3323,
      "Well": 3324,
      "ĠRock": 3325,
      "000": 3326,
      "aven": 3327,
      "ĠBur": 3328,
      "ĠBig": 3329,
      "ĠGreat": 3330,
      "Ġfocus": 3331,
      "Ġstereotyp": 3332,
      "cing": 3333,
      "Ġcritic": 3334,
      "Ġopportun": 3335,
      "PO": 3336,
      "itary": 3337,
      "ĠMon": 3338,
      "ĠDead": 3339,
      "ateur": 3340,
      "Ġfit": 3341,
      "ĠBat": 3342,
      "Ġcontr": 3343,
      "Ġrepres": 3344,
      "Ġimpressive": 3345,
      "idered": 3346,
      "Ġyounger": 3347,
      "Ġdancing": 3348,
      "mistry": 3349,
      "Ġbooks": 3350,
      "Ġsinging": 3351,
      "Ġlanguage": 3352,
      "ĠII": 3353,
      "ĠAct": 3354,
      "bb": 3355,
      "even": 3356,
      "lect": 3357,
      "Ġearth": 3358,
      "Ġrede": 3359,
      "Ġglad": 3360,
      "Ġdepict": 3361,
      "Ġshowed": 3362,
      "Ġproduced": 3363,
      "Don": 3364,
      "Ġexception": 3365,
      "Ġweek": 3366,
      "Ġtort": 3367,
      "Ġsoul": 3368,
      "Ġball": 3369,
      "Ġweren": 3370,
      "Ġbrut": 3371,
      "ribly": 3372,
      "Ġcontinu": 3373,
      "Ġbizarre": 3374,
      "Ġfol": 3375,
      "Ġsuspect": 3376,
      "ĠPro": 3377,
      "ĠAfric": 3378,
      "rel": 3379,
      "Ġtrouble": 3380,
      "Ġdecide": 3381,
      "Ġcompared": 3382,
      "Ġsituations": 3383,
      "ĠLou": 3384,
      "Ġcrim": 3385,
      "ĠPark": 3386,
      "no": 3387,
      "arily": 3388,
      "une": 3389,
      "Ġotherwise": 3390,
      "ĠVan": 3391,
      "Ġchanged": 3392,
      "ener": 3393,
      "Ġ50": 3394,
      "Ġfilled": 3395,
      "Ġdanger": 3396,
      "Ġluck": 3397,
      "ĠVictor": 3398,
      "Ġground": 3399,
      "Ġsuddenly": 3400,
      "OM": 3401,
      "Ġrevenge": 3402,
      "Ġchemistry": 3403,
      "Ġconsidered": 3404,
      "ĠHouse": 3405,
      "Ġmanner": 3406,
      "Ġtrip": 3407,
      "Ġviolent": 3408,
      "Ġpurpose": 3409,
      "Ġpract": 3410,
      "Ġlonger": 3411,
      "Ġwestern": 3412,
      "Ġgarb": 3413,
      "irty": 3414,
      "ĠCor": 3415,
      "ĠHor": 3416,
      "ĠEn": 3417,
      "Ġruns": 3418,
      "Ġquestions": 3419,
      "Ġmagic": 3420,
      "eg": 3421,
      "ified": 3422,
      "Ġunin": 3423,
      "ondon": 3424,
      "Ġspot": 3425,
      "Ġfailed": 3426,
      "Ġdisturbing": 3427,
      "rect": 3428,
      "sters": 3429,
      "ĠSmith": 3430,
      "ares": 3431,
      "iles": 3432,
      "Ġfear": 3433,
      "Ġcarry": 3434,
      "fort": 3435,
      "Ġbother": 3436,
      "ĠCra": 3437,
      "Ġdoll": 3438,
      "Ġamateur": 3439,
      "Ġstudio": 3440,
      "Ġanti": 3441,
      "Not": 3442,
      "owers": 3443,
      "plic": 3444,
      "Ġcompet": 3445,
      "Ġconclusion": 3446,
      "Ġawesome": 3447,
      "Ġfat": 3448,
      "ĠTony": 3449,
      "ization": 3450,
      "Ġfavour": 3451,
      "Ġbarely": 3452,
      "Ġmer": 3453,
      "Ġsuit": 3454,
      "Ġtrash": 3455,
      "Ġappeal": 3456,
      "annel": 3457,
      "gl": 3458,
      "Ġtough": 3459,
      "Ġbull": 3460,
      "Ġbaby": 3461,
      "iding": 3462,
      "appe": 3463,
      "Ġaudiences": 3464,
      "fi": 3465,
      "ales": 3466,
      "sequ": 3467,
      "Ġunless": 3468,
      "Ġtaste": 3469,
      "aper": 3470,
      "Ġshooting": 3471,
      "Ġproducers": 3472,
      "LE": 3473,
      "Ġsuc": 3474,
      "Ġvalues": 3475,
      "Ġlikes": 3476,
      "Ġredeem": 3477,
      "min": 3478,
      "Ġaffect": 3479,
      "Ġdoctor": 3480,
      "Ġparty": 3481,
      "known": 3482,
      "Ġroll": 3483,
      "Ġassum": 3484,
      "Ġprogram": 3485,
      "aus": 3486,
      "inn": 3487,
      "Ġsav": 3488,
      "thur": 3489,
      "opher": 3490,
      "Ġoffice": 3491,
      "Ġimpossible": 3492,
      "rupt": 3493,
      "Ġregard": 3494,
      "ength": 3495,
      "Ġpers": 3496,
      "Ġnatural": 3497,
      "Ġmood": 3498,
      "Ġinvolving": 3499,
      "Ġfaith": 3500,
      "Ġstate": 3501,
      "ille": 3502,
      "Ġ194": 3503,
      "Ġimages": 3504,
      "Ġsqu": 3505,
      "Ġfake": 3506,
      "ĠMel": 3507,
      "Ġtrack": 3508,
      "***": 3509,
      "First": 3510,
      "Ġauthor": 3511,
      "Ġability": 3512,
      "Ġdisg": 3513,
      "ĠStan": 3514,
      "Ġproduct": 3515,
      "Ġanimated": 3516,
      "Ġculture": 3517,
      "Ġbought": 3518,
      "Ġheavy": 3519,
      "ĠLondon": 3520,
      "Ġcharming": 3521,
      "ensive": 3522,
      "Ġrare": 3523,
      "formation": 3524,
      "war": 3525,
      "Ġhang": 3526,
      "ĠMovie": 3527,
      "ĠRuss": 3528,
      "Ġhumour": 3529,
      "Ġimpression": 3530,
      "Ġcollege": 3531,
      "lessly": 3532,
      "ottom": 3533,
      "Ġstunning": 3534,
      "\".<": 3535,
      "Ġcold": 3536,
      "iring": 3537,
      "riage": 3538,
      "Ġkick": 3539,
      "Ġneigh": 3540,
      "Ġrand": 3541,
      "Ġcompany": 3542,
      "Ġappearance": 3543,
      "Ġsucceed": 3544,
      "Ġloud": 3545,
      "Ġimmediately": 3546,
      "Ġgarbage": 3547,
      "uk": 3548,
      "Ġcomputer": 3549,
      "anna": 3550,
      "mark": 3551,
      "night": 3552,
      "Ġtest": 3553,
      "Ġrefe": 3554,
      "ĠAlex": 3555,
      "Ġunex": 3556,
      "Ġclot": 3557,
      "ĠAnn": 3558,
      "Ġbasic": 3559,
      "Ġadventure": 3560,
      "ĠCity": 3561,
      "Ġdoor": 3562,
      "Ġleaving": 3563,
      "ĠOF": 3564,
      "izes": 3565,
      "Ġcross": 3566,
      "ĠBest": 3567,
      "Ġpathetic": 3568,
      "Ġstreet": 3569,
      "rid": 3570,
      "iche": 3571,
      "ecause": 3572,
      "Ġsympat": 3573,
      "urch": 3574,
      "Ġinsult": 3575,
      "Ġadaptation": 3576,
      "Ġobsess": 3577,
      "Ġbeat": 3578,
      "Ġsci": 3579,
      "Ġultimately": 3580,
      "anic": 3581,
      "idence": 3582,
      "ĠBro": 3583,
      "Ġminor": 3584,
      "movie": 3585,
      "ĠAnt": 3586,
      "Ġcontri": 3587,
      "Ġreveal": 3588,
      "Ġutterly": 3589,
      "Be": 3590,
      "round": 3591,
      "Ġfashion": 3592,
      "vey": 3593,
      "ĠSuper": 3594,
      "rend": 3595,
      "vert": 3596,
      "Ġtradition": 3597,
      "Ġinvestig": 3598,
      "Ġrandom": 3599,
      "Ġspect": 3600,
      "that": 3601,
      "reg": 3602,
      "Ġnumb": 3603,
      "ĠHam": 3604,
      "ĠRo": 3605,
      "ĠEarth": 3606,
      "aire": 3607,
      "ena": 3608,
      "Ġgovern": 3609,
      "ressing": 3610,
      "stem": 3611,
      "ĠST": 3612,
      "ĠLuc": 3613,
      "Ġuns": 3614,
      "Ġ100": 3615,
      "Ġgenius": 3616,
      "Ġterror": 3617,
      "Ġterms": 3618,
      "ological": 3619,
      "Ġoccur": 3620,
      "Ġclimax": 3621,
      "We": 3622,
      "Ġthinks": 3623,
      "Ġsomewhere": 3624,
      "AS": 3625,
      "After": 3626,
      "Ġpack": 3627,
      "ĠWay": 3628,
      "ify": 3629,
      "ĠLove": 3630,
      "Ġneither": 3631,
      "ode": 3632,
      "ĠStewart": 3633,
      "Ġdeliver": 3634,
      "Ġapproach": 3635,
      "Ġmult": 3636,
      "Ġlab": 3637,
      "Ġaccur": 3638,
      "Ġabsurd": 3639,
      "Ġconsidering": 3640,
      "you": 3641,
      "Ġdad": 3642,
      "Ġgrap": 3643,
      "Ġseg": 3644,
      "ILER": 3645,
      "Ġsitting": 3646,
      "Ġpu": 3647,
      "Ġstarring": 3648,
      "ĠBoy": 3649,
      "unting": 3650,
      "house": 3651,
      "Ġsearch": 3652,
      "Ġgod": 3653,
      "Ġroad": 3654,
      "ĠHarry": 3655,
      "Ġcause": 3656,
      "ĠMur": 3657,
      "anda": 3658,
      "Ġmanaged": 3659,
      "Ġpun": 3660,
      "ĠChristian": 3661,
      "iven": 3662,
      "Ġstandard": 3663,
      "Ġdig": 3664,
      "Ġindust": 3665,
      "POILER": 3666,
      "reaking": 3667,
      "itions": 3668,
      "Ġlau": 3669,
      "ĠHen": 3670,
      "Ġdef": 3671,
      "Ġadded": 3672,
      "ropri": 3673,
      "ĠIndian": 3674,
      "Ġtouching": 3675,
      "Ġfresh": 3676,
      "Ġnotice": 3677,
      "uster": 3678,
      "Ġdefe": 3679,
      "Ġunbelievable": 3680,
      "Ġrepl": 3681,
      "Ġlikely": 3682,
      "Ġgenerally": 3683,
      "ID": 3684,
      "aff": 3685,
      "yle": 3686,
      "Ġfully": 3687,
      "ĠJeff": 3688,
      "Ġnormal": 3689,
      "mm": 3690,
      "ĠBru": 3691,
      "Ġcharm": 3692,
      "Ġthemes": 3693,
      "Ġterrific": 3694,
      "ĠSteve": 3695,
      "To": 3696,
      "Ġtone": 3697,
      "Ġgem": 3698,
      "uts": 3699,
      "Ġforce": 3700,
      "ĠHarr": 3701,
      "elling": 3702,
      "Ġcomedies": 3703,
      "Ġnarrative": 3704,
      "Sh": 3705,
      "vir": 3706,
      "Ġthreat": 3707,
      "Ġtwists": 3708,
      "Ġremains": 3709,
      "Ġnowhere": 3710,
      "OV": 3711,
      "Ġcuri": 3712,
      "awn": 3713,
      "Ġaddition": 3714,
      "Ġconstantly": 3715,
      "making": 3716,
      "Ġsix": 3717,
      "Ġserial": 3718,
      "Ġconflict": 3719,
      "Ġmonth": 3720,
      "Ġdrive": 3721,
      "Ġmistake": 3722,
      "ĠKelly": 3723,
      "Ġlaughable": 3724,
      "aining": 3725,
      "Ġpresence": 3726,
      "played": 3727,
      "Ġliterally": 3728,
      "BC": 3729,
      "esides": 3730,
      "Ġdro": 3731,
      "Ġgag": 3732,
      "ands": 3733,
      "ailable": 3734,
      "Ġ40": 3735,
      "ĠPerhaps": 3736,
      "Ġissues": 3737,
      "Ġsystem": 3738,
      "Ġzombies": 3739,
      "Ġintrigu": 3740,
      "AD": 3741,
      "He": 3742,
      "cer": 3743,
      "riff": 3744,
      "rag": 3745,
      "Ġbeautifully": 3746,
      "Ġpresented": 3747,
      "Ġelement": 3748,
      "Ġrespons": 3749,
      "At": 3750,
      "lyn": 3751,
      "anted": 3752,
      "oughly": 3753,
      "orts": 3754,
      "Ġfinish": 3755,
      "ring": 3756,
      "ĠSw": 3757,
      "Ġscenery": 3758,
      "Ġsexy": 3759,
      "ĠCharlie": 3760,
      "Ġcostumes": 3761,
      "Ġboss": 3762,
      "Ġoffe": 3763,
      "irth": 3764,
      "Ġjo": 3765,
      "Ġinterview": 3766,
      "Ġpictures": 3767,
      "Ġequally": 3768,
      "Ġmilitary": 3769,
      "Ġcho": 3770,
      "Ġtrain": 3771,
      "Ġpainful": 3772,
      "Ġwitness": 3773,
      "part": 3774,
      "lease": 3775,
      "Ġsto": 3776,
      "ĠCal": 3777,
      "ĠDen": 3778,
      "estival": 3779,
      "ability": 3780,
      "Ġprep": 3781,
      "Ġcinematic": 3782,
      "Ġsurprisingly": 3783,
      "Ġdisappointing": 3784,
      "Ġindivid": 3785,
      "ision": 3786,
      "Ġplaces": 3787,
      "Ġthrow": 3788,
      "Ġthrown": 3789,
      "Ġdrawn": 3790,
      "Ġbomb": 3791,
      "Ġartist": 3792,
      "Ġdetails": 3793,
      "icated": 3794,
      "Ġleg": 3795,
      "ached": 3796,
      "Ġoffer": 3797,
      "rences": 3798,
      "Ġmarriage": 3799,
      "Ġdisappointment": 3800,
      "Ġflashback": 3801,
      "Ġmakers": 3802,
      "Ġur": 3803,
      "Ġscience": 3804,
      "Ġsmart": 3805,
      "IT": 3806,
      "That": 3807,
      "Ġchall": 3808,
      "Ġalive": 3809,
      "Ġexcuse": 3810,
      "ĠAdam": 3811,
      "Ġaspects": 3812,
      "ĠSure": 3813,
      "ĠMiss": 3814,
      "Ġknowing": 3815,
      "Ġdreams": 3816,
      "Ġ60": 3817,
      "Ġinnocent": 3818,
      "cle": 3819,
      "heart": 3820,
      "ĠBer": 3821,
      "Ġstands": 3822,
      "face": 3823,
      "itude": 3824,
      "Ġhar": 3825,
      "ribe": 3826,
      "Ġlog": 3827,
      "Ġexpectations": 3828,
      "just": 3829,
      "Ġfeelings": 3830,
      "Ġsuppose": 3831,
      "Ġanimals": 3832,
      "Ġescap": 3833,
      "Ġdestroy": 3834,
      "ĠCr": 3835,
      "ĠDirector": 3836,
      "Ġoutstanding": 3837,
      "Ġslowly": 3838,
      "Ġinflu": 3839,
      "ĠPeople": 3840,
      "Ġphotography": 3841,
      "Ġokay": 3842,
      "Ġdate": 3843,
      "Ġ18": 3844,
      "Ġkey": 3845,
      "Ġboyfriend": 3846,
      "Ġrecommended": 3847,
      "Ġbehav": 3848,
      "Ġhistorical": 3849,
      "arsh": 3850,
      "Ġspec": 3851,
      "Ġdescrib": 3852,
      "Ġdiscuss": 3853,
      "Ġhoping": 3854,
      "ĠParis": 3855,
      "Ġspl": 3856,
      "aton": 3857,
      "ica": 3858,
      "ĠDick": 3859,
      "ĠPal": 3860,
      "Ġsubst": 3861,
      "Ġmedioc": 3862,
      "Ġopportunity": 3863,
      "Ġisland": 3864,
      "ĠBel": 3865,
      "Ġplus": 3866,
      "ĠStr": 3867,
      "Ġjourney": 3868,
      "Ġburn": 3869,
      "Ġinit": 3870,
      "illing": 3871,
      "aint": 3872,
      "Ġcompar": 3873,
      "Ġcentury": 3874,
      "Ġdrunk": 3875,
      "Ġaffair": 3876,
      "ini": 3877,
      "icide": 3878,
      "ĠRay": 3879,
      "ĠStill": 3880,
      "Ġdemon": 3881,
      "Ġmillion": 3882,
      "ham": 3883,
      "ĠTre": 3884,
      "Ġfilming": 3885,
      "ĠSci": 3886,
      "Ġnames": 3887,
      "Ġbreath": 3888,
      "CH": 3889,
      "anch": 3890,
      "Ġsoft": 3891,
      "Ġcommer": 3892,
      "Ġproper": 3893,
      "Ġlovely": 3894,
      "Ġphotograp": 3895,
      "Jo": 3896,
      "Some": 3897,
      "under": 3898,
      "Ġmir": 3899,
      "ĠDou": 3900,
      "asty": 3901,
      "Ġener": 3902,
      "Ġcontains": 3903,
      "Ġsurround": 3904,
      "ancy": 3905,
      "Ġemotions": 3906,
      "Ġwalking": 3907,
      "Ġmysterious": 3908,
      "Ġintended": 3909,
      "ĠAg": 3910,
      "ĠBob": 3911,
      "ploy": 3912,
      "Ġhappening": 3913,
      "oking": 3914,
      "Ġintern": 3915,
      "elebr": 3916,
      "Ġindividual": 3917,
      "ss": 3918,
      "Ġast": 3919,
      "itz": 3920,
      "ĠYet": 3921,
      "Ġpassion": 3922,
      "Ġprotagon": 3923,
      "Ġsoldiers": 3924,
      "ghed": 3925,
      "yl": 3926,
      "Ġsight": 3927,
      "Ġdin": 3928,
      "icip": 3929,
      "ĠSouth": 3930,
      "ĠBecause": 3931,
      "Ġlif": 3932,
      "ĠAllen": 3933,
      "Ġpil": 3934,
      "ĠCG": 3935,
      "Ġintense": 3936,
      "appy": 3937,
      "Ġputs": 3938,
      "Ġdrug": 3939,
      "Ġfascinating": 3940,
      "Ġcompelling": 3941,
      "IE": 3942,
      "Ġtired": 3943,
      "inct": 3944,
      "Ġfright": 3945,
      "Ġmoral": 3946,
      "Ġchanges": 3947,
      "ĠAngel": 3948,
      "Ġgovernment": 3949,
      "uous": 3950,
      "Ġacts": 3951,
      "Ġlikable": 3952,
      "gue": 3953,
      "hol": 3954,
      "pro": 3955,
      "uit": 3956,
      "Ġdim": 3957,
      "Ġdies": 3958,
      "ĠSand": 3959,
      "ĠAb": 3960,
      "ĠHigh": 3961,
      "Ġloves": 3962,
      "Ġinclude": 3963,
      "Now": 3964,
      "Ġlength": 3965,
      "ĠLet": 3966,
      "Ġdifference": 3967,
      "Ġavailable": 3968,
      "Ġfool": 3969,
      "ural": 3970,
      "Ġride": 3971,
      "Ġqual": 3972,
      "Ġbuilding": 3973,
      "Ġsilent": 3974,
      "budget": 3975,
      "lla": 3976,
      "Ġpieces": 3977,
      "entially": 3978,
      "ĠWest": 3979,
      "ĠJes": 3980,
      "ples": 3981,
      "Ġobject": 3982,
      "mar": 3983,
      "ishes": 3984,
      "Ġlad": 3985,
      "istent": 3986,
      "ĠFl": 3987,
      "Ġserv": 3988,
      "exic": 3989,
      "ĠOnly": 3990,
      "table": 3991,
      "Ġwarn": 3992,
      "Ġmat": 3993,
      "anced": 3994,
      "Ġnoir": 3995,
      "Ġmagn": 3996,
      "IG": 3997,
      "ĠPart": 3998,
      "Ġlegend": 3999,
      "ledge": 4000,
      "Ġdeveloped": 4001,
      "While": 4002,
      "ĠHard": 4003,
      "Ġship": 4004,
      "Ġhasn": 4005,
      "tend": 4006,
      "Ġteacher": 4007,
      "down": 4008,
      "ki": 4009,
      "Ġmouth": 4010,
      "Ġbase": 4011,
      "orter": 4012,
      "Ġloose": 4013,
      "Ġshare": 4014,
      "abb": 4015,
      "Ġappeared": 4016,
      "gged": 4017,
      "Ġvictims": 4018,
      "Ġfellow": 4019,
      "ken": 4020,
      "Ġthor": 4021,
      "ĠBo": 4022,
      "ĠRog": 4023,
      "ĠGo": 4024,
      "ĠAnother": 4025,
      "Ġedge": 4026,
      "Ġcritics": 4027,
      "ta": 4028,
      "ĠIS": 4029,
      "Ġord": 4030,
      "ospital": 4031,
      "text": 4032,
      "Ġdetective": 4033,
      "Ġlacks": 4034,
      "orgeous": 4035,
      "Ġdrink": 4036,
      "Ġadults": 4037,
      "Un": 4038,
      "Ġcelebr": 4039,
      "onna": 4040,
      "Ġham": 4041,
      "ĠSec": 4042,
      "ustr": 4043,
      "pret": 4044,
      "ĠMus": 4045,
      "azz": 4046,
      "Ġdamn": 4047,
      "ipp": 4048,
      "inally": 4049,
      "ander": 4050,
      "Ġthank": 4051,
      "ĠChris": 4052,
      "Ġnegative": 4053,
      "Ġmelod": 4054,
      "see": 4055,
      "raid": 4056,
      "Ġhelps": 4057,
      "Ġconfused": 4058,
      "Ġrelationships": 4059,
      "Ġnumbers": 4060,
      "ĠWhere": 4061,
      "Ġcontent": 4062,
      "Ġflaws": 4063,
      "Ġtrailer": 4064,
      "Oh": 4065,
      "erous": 4066,
      "ĠTar": 4067,
      "ĠCo": 4068,
      "ĠJones": 4069,
      "ĠYoung": 4070,
      "Ġmotion": 4071,
      "ĠCanad": 4072,
      "Ġcommercial": 4073,
      "Ġproves": 4074,
      "Ġimage": 4075,
      "Ġfollowed": 4076,
      "Ġstudent": 4077,
      "Ġcurrent": 4078,
      "kin": 4079,
      "Ġ****": 4080,
      "ift": 4081,
      "Ġjoy": 4082,
      "ushed": 4083,
      "Ġunne": 4084,
      "ĠChristopher": 4085,
      "Ġdisgust": 4086,
      "ĠX": 4087,
      "pected": 4088,
      "ĠStory": 4089,
      "Ġprim": 4090,
      "ĠBruce": 4091,
      "Ġcell": 4092,
      "Ġlatter": 4093,
      "ĠWW": 4094,
      "Ġvirt": 4095,
      "akespe": 4096,
      "Ġwondering": 4097,
      "Ġclean": 4098,
      "Ġstandards": 4099,
      "Ġconfusing": 4100,
      "ency": 4101,
      "omething": 4102,
      "ĠCharles": 4103,
      "Ġdelivers": 4104,
      "Ġlaughed": 4105,
      "Ġdread": 4106,
      "Ġdubb": 4107,
      "Ġlived": 4108,
      "ĠMexic": 4109,
      "Ġmerely": 4110,
      "Ġchildhood": 4111,
      "ĠThough": 4112,
      "Ġfalling": 4113,
      "Ġimagination": 4114,
      "Ġlighting": 4115,
      "Ġfault": 4116,
      "?!": 4117,
      "gly": 4118,
      "ront": 4119,
      "Ġahead": 4120,
      "Ġmart": 4121,
      "Ġunus": 4122,
      "Ġquiet": 4123,
      "Ġstudents": 4124,
      "Ġprovides": 4125,
      "Ġtragedy": 4126,
      "ein": 4127,
      "Ġgorgeous": 4128,
      "ĠDark": 4129,
      "Ġflicks": 4130,
      "Ġimpressed": 4131,
      "Ġirrit": 4132,
      "Ġforever": 4133,
      "Ġdiscover": 4134,
      "Ġwise": 4135,
      "oned": 4136,
      "Ġnaked": 4137,
      "ĠMark": 4138,
      "Ġrout": 4139,
      "Ġremote": 4140,
      "Ġmulti": 4141,
      "ĠHenry": 4142,
      "life": 4143,
      "Ġden": 4144,
      "ĠPol": 4145,
      "Ġlover": 4146,
      "Ġimpact": 4147,
      "Ġoppos": 4148,
      "writer": 4149,
      "Ġmediocre": 4150,
      "field": 4151,
      "Ġhide": 4152,
      "Ġdiv": 4153,
      "asure": 4154,
      "ilities": 4155,
      "Ġyouth": 4156,
      "Ġoffers": 4157,
      "Ġbrothers": 4158,
      "herent": 4159,
      "asing": 4160,
      "ĠGl": 4161,
      "ĠNor": 4162,
      "dered": 4163,
      "Ġhig": 4164,
      "Ġhost": 4165,
      "ĠGreen": 4166,
      "ĠNothing": 4167,
      "Ġindepend": 4168,
      "eal": 4169,
      "Ġpaid": 4170,
      "Ġalien": 4171,
      "ĠVery": 4172,
      "Ġhighlight": 4173,
      "Ġmainly": 4174,
      "Ġbecoming": 4175,
      "Ġformula": 4176,
      "ĠDavis": 4177,
      "Ġtragic": 4178,
      "Ġthoroughly": 4179,
      "Overall": 4180,
      "itor": 4181,
      "ĠSant": 4182,
      "ĠMag": 4183,
      "Ġchase": 4184,
      "Ġgold": 4185,
      "inese": 4186,
      "Ġcentral": 4187,
      "ĠMartin": 4188,
      "Ġattractive": 4189,
      "ĠBatman": 4190,
      "cra": 4191,
      "phen": 4192,
      "ops": 4193,
      "Ġnobody": 4194,
      "Ġrip": 4195,
      "ĠJean": 4196,
      "Ġachieve": 4197,
      "Ġmurders": 4198,
      "Ġanswer": 4199,
      "Ġfunniest": 4200,
      ".,": 4201,
      "ffe": 4202,
      "now": 4203,
      "she": 4204,
      "Ġfort": 4205,
      "Ġdisaster": 4206,
      "Ġfolks": 4207,
      "Ġfac": 4208,
      "Ġdisappe": 4209,
      "Ġoh": 4210,
      "Ġrated": 4211,
      "Ġjustice": 4212,
      "osh": 4213,
      "abl": 4214,
      "Ġrape": 4215,
      "Ġcreative": 4216,
      "Ġplanet": 4217,
      "ĠAustral": 4218,
      "Any": 4219,
      "roc": 4220,
      ".....": 4221,
      "rama": 4222,
      "ĠTwo": 4223,
      "LY": 4224,
      "Ġfiction": 4225,
      "Ġhospital": 4226,
      "aries": 4227,
      "ĠDay": 4228,
      "Ġsun": 4229,
      "good": 4230,
      "hero": 4231,
      "lled": 4232,
      "Ġdouble": 4233,
      "Ġreach": 4234,
      "Ġstuck": 4235,
      "ĠJerry": 4236,
      "Ġknock": 4237,
      "Ġsurely": 4238,
      "Ġadds": 4239,
      "Ġproducer": 4240,
      "Ġreminded": 4241,
      "Ġnons": 4242,
      "Ġheld": 4243,
      "ĠHol": 4244,
      "ĠLo": 4245,
      "Ġwilling": 4246,
      "mbol": 4247,
      "Ġspectac": 4248,
      "akespeare": 4249,
      "icious": 4250,
      "ĠHit": 4251,
      "Ġcontem": 4252,
      "ĠSteven": 4253,
      "ĠWilliams": 4254,
      "Bl": 4255,
      "ĠSee": 4256,
      "Ġprocess": 4257,
      "Ġtwice": 4258,
      "Ġseemingly": 4259,
      "azy": 4260,
      "Ġactresses": 4261,
      "Ġoccasion": 4262,
      "Ġafraid": 4263,
      "board": 4264,
      "AL": 4265,
      "No": 4266,
      "rough": 4267,
      "Ġbi": 4268,
      "Ġinformation": 4269,
      "iday": 4270,
      "Ġforgotten": 4271,
      "what": 4272,
      "Ġeight": 4273,
      "ĠBas": 4274,
      "ooks": 4275,
      "Ġblond": 4276,
      "ĠCarl": 4277,
      "Ġrented": 4278,
      "Ġapartment": 4279,
      "Ġmarket": 4280,
      "hor": 4281,
      "Ġasks": 4282,
      "irgin": 4283,
      "ĠBilly": 4284,
      "agger": 4285,
      "Ġblind": 4286,
      "Ġputting": 4287,
      "Ġcorrect": 4288,
      "Ġdescribe": 4289,
      "Ġhonestly": 4290,
      "ĠPhil": 4291,
      "Ġindustry": 4292,
      "Ġver": 4293,
      "oted": 4294,
      "ĠEy": 4295,
      "Ġresc": 4296,
      "Ġready": 4297,
      "anish": 4298,
      "Ġaside": 4299,
      "illed": 4300,
      "Ġunw": 4301,
      "ĠAmericans": 4302,
      "Ġseconds": 4303,
      "ĠJackson": 4304,
      "ĠAND": 4305,
      "ium": 4306,
      "Ġonto": 4307,
      "entious": 4308,
      "alled": 4309,
      "Ġround": 4310,
      "Ġanymore": 4311,
      "Ġrace": 4312,
      "Ġpersonality": 4313,
      "De": 4314,
      "Ġwide": 4315,
      "ament": 4316,
      "ĠMs": 4317,
      "ĠLittle": 4318,
      "Ġconvers": 4319,
      "aches": 4320,
      "Ġgiant": 4321,
      "Ġstreng": 4322,
      "AY": 4323,
      "With": 4324,
      "Ġfaces": 4325,
      "oos": 4326,
      "rog": 4327,
      "ĠBad": 4328,
      "Ġlocation": 4329,
      "Ġsadly": 4330,
      "Ġpicked": 4331,
      "zan": 4332,
      "Ġaim": 4333,
      "Ġeat": 4334,
      "Ġarea": 4335,
      "Ġturning": 4336,
      "Ġredeeming": 4337,
      "Ġclothes": 4338,
      "vol": 4339,
      "Ġthin": 4340,
      "Ġnasty": 4341,
      "Ġlose": 4342,
      "Ġrelative": 4343,
      "Ġhelped": 4344,
      "Ġdrag": 4345,
      "Ġfilmmaker": 4346,
      "Ġopera": 4347,
      "Ġprofessional": 4348,
      "IC": 4349,
      "Ġmount": 4350,
      "Ġpath": 4351,
      "Ġdesert": 4352,
      "Ġfinding": 4353,
      "Ġnews": 4354,
      "entional": 4355,
      "Ġallowed": 4356,
      "Ġcollection": 4357,
      "ech": 4358,
      "gar": 4359,
      "mes": 4360,
      "Ġbright": 4361,
      "Ġbottom": 4362,
      "ĠSpe": 4363,
      "Ġexplan": 4364,
      "Ġstruggle": 4365,
      "iac": 4366,
      "ube": 4367,
      "Ġmember": 4368,
      "Ġbegan": 4369,
      "soever": 4370,
      "Ġunderst": 4371,
      "ios": 4372,
      "ita": 4373,
      "Ġled": 4374,
      "Ġmoved": 4375,
      "Ġnecessary": 4376,
      "Ġunreal": 4377,
      "Ġshouldn": 4378,
      "Ġrac": 4379,
      "Ġaccom": 4380,
      "Ġsymbol": 4381,
      "Ġbroad": 4382,
      "Ġunexpected": 4383,
      "film": 4384,
      "win": 4385,
      "Ġgri": 4386,
      "aylor": 4387,
      "sey": 4388,
      "Ġstation": 4389,
      "eman": 4390,
      "Ġtrust": 4391,
      "Ġsuperior": 4392,
      ".'": 4393,
      "Americ": 4394,
      "Ġwhatsoever": 4395,
      "Ġ12": 4396,
      "Ġthanks": 4397,
      "Ġgrow": 4398,
      "Ġfavourite": 4399,
      "AC": 4400,
      "leep": 4401,
      "arded": 4402,
      "ĠOverall": 4403,
      "Ġincludes": 4404,
      "Ġinspired": 4405,
      "Ġwooden": 4406,
      "Ġ1950": 4407,
      "mare": 4408,
      "year": 4409,
      "requ": 4410,
      "aded": 4411,
      "ĠWin": 4412,
      "ĠWal": 4413,
      "ĠFox": 4414,
      "Ġwarm": 4415,
      "ĠArthur": 4416,
      "Ġscientist": 4417,
      "glas": 4418,
      "AM": 4419,
      "rick": 4420,
      "Ġbank": 4421,
      "Ġpen": 4422,
      "ĠLyn": 4423,
      "uman": 4424,
      "Ġinsight": 4425,
      "ĠShakespeare": 4426,
      "Ġshocking": 4427,
      "Ġhotel": 4428,
      "ropriate": 4429,
      "Ġtar": 4430,
      "usion": 4431,
      "ache": 4432,
      "Ġblock": 4433,
      "Ġartistic": 4434,
      "Ġangry": 4435,
      "Ġdrugs": 4436,
      "ka": 4437,
      "ifer": 4438,
      "Ġactions": 4439,
      "ĠON": 4440,
      "ĠChinese": 4441,
      "ĠAlan": 4442,
      "Ġdeeply": 4443,
      "Ġintelligence": 4444,
      "erk": 4445,
      "arry": 4446,
      "ateg": 4447,
      "Ġeverybody": 4448,
      "pective": 4449,
      "Ġbuff": 4450,
      "ĠBlood": 4451,
      "Ġsupposedly": 4452,
      "ET": 4453,
      "abr": 4454,
      "ras": 4455,
      "rors": 4456,
      "ashed": 4457,
      "Ġna": 4458,
      "ĠSin": 4459,
      "ĠSar": 4460,
      "Ġremem": 4461,
      "Ġtechnical": 4462,
      "Ġencoun": 4463,
      "Ġrepeated": 4464,
      "ek": 4465,
      "Ġtem": 4466,
      "owd": 4467,
      "ĠBoth": 4468,
      "ĠJon": 4469,
      "osen": 4470,
      "abe": 4471,
      "Ġwonderfully": 4472,
      "Ġdepart": 4473,
      "afe": 4474,
      "ĠBrian": 4475,
      "Ġclub": 4476,
      "Ġvision": 4477,
      "Ġfriendship": 4478,
      "Ġresemb": 4479,
      "Ġphysical": 4480,
      "Ġenergy": 4481,
      "Ġhint": 4482,
      "Ġreact": 4483,
      "ĠTheir": 4484,
      "Ġrealized": 4485,
      "ddie": 4486,
      "Ġcomedic": 4487,
      "Ġintroduced": 4488,
      "Ġsour": 4489,
      "Ġhat": 4490,
      "edding": 4491,
      "Ġweap": 4492,
      "ĠRoy": 4493,
      "Ġtears": 4494,
      "ovies": 4495,
      "Ġprovide": 4496,
      "Ġvampire": 4497,
      "mi": 4498,
      "ading": 4499,
      "ĠWalk": 4500,
      "aud": 4501,
      "Ġphone": 4502,
      "ĠMcC": 4503,
      "Ġcommentary": 4504,
      "Ġcontinue": 4505,
      "John": 4506,
      "Ġstrength": 4507,
      "wolf": 4508,
      "Ġholes": 4509,
      "Ġsell": 4510,
      "Ġemploy": 4511,
      "Ġlisten": 4512,
      "hand": 4513,
      "Ġpair": 4514,
      "Ġaware": 4515,
      "ording": 4516,
      "Ġworthy": 4517,
      "Ġdeserved": 4518,
      "Sc": 4519,
      "Ġbene": 4520,
      "Ġhook": 4521,
      "Ġdying": 4522,
      "ĠDu": 4523,
      "Ġloving": 4524,
      "apped": 4525,
      "ĠAnyway": 4526,
      "Ġneighbor": 4527,
      "vate": 4528,
      "Ġpra": 4529,
      "Ġla": 4530,
      "otes": 4531,
      "ĠTaylor": 4532,
      "ĠAc": 4533,
      "Ġplane": 4534,
      "uddy": 4535,
      "Ġanywhere": 4536,
      "Ġtend": 4537,
      "Ġpossess": 4538,
      "Ġpleasure": 4539,
      "Ġbrutal": 4540,
      "ĠDouglas": 4541,
      "Ġunnecessary": 4542,
      "Ġmartial": 4543,
      "Ġflying": 4544,
      "ĠToo": 4545,
      "Ġugly": 4546,
      "irk": 4547,
      "ĠMore": 4548,
      "Ġwearing": 4549,
      "Ġchannel": 4550,
      "Ġscared": 4551,
      "Ġremarkable": 4552,
      "do": 4553,
      "eed": 4554,
      "Ġthus": 4555,
      "illa": 4556,
      "Ġrubb": 4557,
      "ĠFord": 4558,
      "Ġagent": 4559,
      "resses": 4560,
      "Ġepic": 4561,
      "Ġelect": 4562,
      "Ġmental": 4563,
      "Ġfood": 4564,
      "Ġdu": 4565,
      "Ġder": 4566,
      "ademy": 4567,
      "Ġscare": 4568,
      "Ġdoz": 4569,
      "Ġdeb": 4570,
      "asts": 4571,
      "ĠNick": 4572,
      "ivil": 4573,
      "Ġkidn": 4574,
      "Ġsignific": 4575,
      "Ġwoods": 4576,
      "Ġunusual": 4577,
      "rical": 4578,
      "Ġsuicide": 4579,
      "Ġperform": 4580,
      "Ġslap": 4581,
      "Ġpersonally": 4582,
      "Ġmemory": 4583,
      "enge": 4584,
      "ario": 4585,
      "ĠIN": 4586,
      "cture": 4587,
      "Ġdeg": 4588,
      "Ġknowledge": 4589,
      "ipul": 4590,
      "Ġfinished": 4591,
      "Ġengaging": 4592,
      "kward": 4593,
      "Ġbirth": 4594,
      "Ġloss": 4595,
      "Ġrelie": 4596,
      "ĠNever": 4597,
      "odies": 4598,
      "Ġspeaking": 4599,
      "Ġhumans": 4600,
      "Ġcompare": 4601,
      "Ġsurprising": 4602,
      "ĠRobin": 4603,
      "undred": 4604,
      "Ġaccompl": 4605,
      "ators": 4606,
      "Ġcal": 4607,
      "ĠApp": 4608,
      "ĠVH": 4609,
      "Ġteenage": 4610,
      "ĠCGI": 4611,
      "bian": 4612,
      "father": 4613,
      "ĠDam": 4614,
      "terest": 4615,
      "ĠYe": 4616,
      "ĠShow": 4617,
      "ugs": 4618,
      "esh": 4619,
      "adow": 4620,
      "Ġcoun": 4621,
      "Ġempt": 4622,
      "Ġbits": 4623,
      "Ġexpert": 4624,
      "ĠStephen": 4625,
      "ĠEngland": 4626,
      "Ġasked": 4627,
      "Ġmotiv": 4628,
      "Ġholds": 4629,
      "Ġdesperate": 4630,
      "SE": 4631,
      "rs": 4632,
      "Ġdebut": 4633,
      "Ġawkward": 4634,
      "Ġaccount": 4635,
      "Sp": 4636,
      "Ġmild": 4637,
      "oring": 4638,
      "owell": 4639,
      "ĠJr": 4640,
      "Ġprefer": 4641,
      "Ġbland": 4642,
      "Ġgrat": 4643,
      "olds": 4644,
      "ĠBrother": 4645,
      "Ġinstance": 4646,
      "Ġvisit": 4647,
      "ĠOnce": 4648,
      "ĠDanny": 4649,
      "ĠKeaton": 4650,
      "Ġlimited": 4651,
      "Ġintriguing": 4652,
      ")<": 4653,
      "kes": 4654,
      "rous": 4655,
      "especially": 4656,
      "ousy": 4657,
      "bered": 4658,
      "ĠMany": 4659,
      "Ġvehic": 4660,
      "rifying": 4661,
      "Ġtarget": 4662,
      "port": 4663,
      "Ġted": 4664,
      "Ġpacing": 4665,
      "ĠBarb": 4666,
      "ĠLes": 4667,
      "Ġwatchable": 4668,
      "Ġwanting": 4669,
      "Ġcrowd": 4670,
      "Ġrarely": 4671,
      "Ġwinning": 4672,
      "Ġsentiment": 4673,
      "ĠRussian": 4674,
      "Ġpilot": 4675,
      "ĠHitler": 4676,
      "TV": 4677,
      "miss": 4678,
      "Ġsac": 4679,
      "Ġbal": 4680,
      "omen": 4681,
      "ĠTe": 4682,
      "ĠWH": 4683,
      "ĠRy": 4684,
      "ĠOl": 4685,
      "Ġcraft": 4686,
      "Ġreminds": 4687,
      "ĠMorgan": 4688,
      "Ġreligious": 4689,
      "UT": 4690,
      "Ġhundred": 4691,
      "ano": 4692,
      "Ġlay": 4693,
      "ĠSl": 4694,
      "ĠWil": 4695,
      "ĠLau": 4696,
      "Ġ11": 4697,
      "tered": 4698,
      "Ġimpl": 4699,
      "cient": 4700,
      "Ġhorse": 4701,
      "Ġgotten": 4702,
      "Ġsmile": 4703,
      "ĠWhite": 4704,
      "ĠZomb": 4705,
      "Ġdeserve": 4706,
      "Although": 4707,
      "Ġbelong": 4708,
      "200": 4709,
      "Even": 4710,
      "uct": 4711,
      "orious": 4712,
      "ilst": 4713,
      "Ġsuck": 4714,
      "plot": 4715,
      "teen": 4716,
      "Ġ1970": 4717,
      "Ġcriminal": 4718,
      "Ġindependent": 4719,
      "Ġbur": 4720,
      "Ġhurt": 4721,
      "ooper": 4722,
      "iro": 4723,
      "ĠJoan": 4724,
      "ĠclichÃ©s": 4725,
      "Ġaccurate": 4726,
      "Ġing": 4727,
      "Ġtour": 4728,
      "Ġmut": 4729,
      "Ġcow": 4730,
      "Ġstret": 4731,
      "ĠAndy": 4732,
      "Ġenth": 4733,
      "Ġexplos": 4734,
      "Ġborn": 4735,
      "aturally": 4736,
      "Ġcapture": 4737,
      "Ġtorture": 4738,
      ":<": 4739,
      "Just": 4740,
      "ĠSus": 4741,
      "ĠLi": 4742,
      "ĠLind": 4743,
      "ĠJew": 4744,
      "ĠJenn": 4745,
      "ourne": 4746,
      "ĠAndrew": 4747,
      "Ġplayers": 4748,
      "ominated": 4749,
      "mo": 4750,
      "oom": 4751,
      "rays": 4752,
      "xual": 4753,
      "Ġwond": 4754,
      "Ġopt": 4755,
      "Ġfreak": 4756,
      "ĠAv": 4757,
      "Ġsepar": 4758,
      "Ġris": 4759,
      "ogy": 4760,
      "ression": 4761,
      "Ġboard": 4762,
      "Ġcreature": 4763,
      "eper": 4764,
      "yer": 4765,
      "Ġchurch": 4766,
      "ĠLife": 4767,
      "Ġrul": 4768,
      "ĠNaz": 4769,
      "Ġunknown": 4770,
      "Ġanybody": 4771,
      "abor": 4772,
      "Ġblame": 4773,
      "Ġexplained": 4774,
      "Ġarts": 4775,
      "Ġlets": 4776,
      "Ġconstant": 4777,
      "Ġexplanation": 4778,
      "Ġhated": 4779,
      "aly": 4780,
      "stein": 4781,
      "entions": 4782,
      "imal": 4783,
      "ĠSad": 4784,
      "ĠDid": 4785,
      "Ġdesire": 4786,
      "ruction": 4787,
      "Ġinterpret": 4788,
      "lock": 4789,
      "rem": 4790,
      "ĠHel": 4791,
      "Ġaband": 4792,
      "ĠPac": 4793,
      "Ġmanage": 4794,
      "Ġpretentious": 4795,
      "Ġcops": 4796,
      "Ġcommunity": 4797,
      "ean": 4798,
      "reck": 4799,
      "atra": 4800,
      "Ġpet": 4801,
      "ĠPres": 4802,
      "ĠRus": 4803,
      "Ġhadn": 4804,
      "Ġbelief": 4805,
      "Ġheads": 4806,
      "Ġmedia": 4807,
      "Ġ1980": 4808,
      "Ġissue": 4809,
      "Ġmagnific": 4810,
      "Ġcateg": 4811,
      "ĠSil": 4812,
      "ĠWestern": 4813,
      "ĠJud": 4814,
      "ounds": 4815,
      "Ġcreating": 4816,
      "Ġphil": 4817,
      "Ġregret": 4818,
      "Ġguns": 4819,
      "Ġprotect": 4820,
      "âĢ": 4821,
      "atory": 4822,
      "Ġthous": 4823,
      "Ġtoward": 4824,
      "esty": 4825,
      "ĠEr": 4826,
      "Ġ13": 4827,
      "pless": 4828,
      "Ġnicely": 4829,
      "Ġconvin": 4830,
      "ĠDespite": 4831,
      "ĠLynch": 4832,
      "ĠDO": 4833,
      "unted": 4834,
      "ĠLaw": 4835,
      "ĠLady": 4836,
      "ĠJason": 4837,
      ".\"<": 4838,
      "Ġuncon": 4839,
      "Ġmixed": 4840,
      "looking": 4841,
      "Ġradio": 4842,
      "Ġcars": 4843,
      "arp": 4844,
      "othy": 4845,
      "Ġstink": 4846,
      "Ġsoap": 4847,
      "ĠJose": 4848,
      "Ġlovers": 4849,
      "Ġfloor": 4850,
      "Ġtext": 4851,
      "Ġgrad": 4852,
      "ewis": 4853,
      "Ġreturns": 4854,
      "Ġhopes": 4855,
      "ĠVHS": 4856,
      "Ar": 4857,
      "iance": 4858,
      "Ġhidden": 4859,
      "Ġgames": 4860,
      "stal": 4861,
      "sec": 4862,
      "Ġchore": 4863,
      "Ġvo": 4864,
      "Ġcontext": 4865,
      "Ġgrowing": 4866,
      "ĠAlbert": 4867,
      "Ġheroine": 4868,
      "Ġresults": 4869,
      "ĠColumb": 4870,
      "director": 4871,
      "vy": 4872,
      "hered": 4873,
      "Ġthats": 4874,
      "Ġchick": 4875,
      "Ġproceed": 4876,
      "soci": 4877,
      "Ġaward": 4878,
      "Ġfights": 4879,
      "Ġhumanity": 4880,
      "Ġvillains": 4881,
      "Ġintellect": 4882,
      "Ġtreated": 4883,
      "Ġpulled": 4884,
      "Ġcontrast": 4885,
      "ĠHorror": 4886,
      "Ġresponsible": 4887,
      "OK": 4888,
      "natural": 4889,
      "vant": 4890,
      "Ġtur": 4891,
      "Ġlies": 4892,
      "Ġarmy": 4893,
      "ĠJohnny": 4894,
      "Ġmemories": 4895,
      "Ġincluded": 4896,
      "ĠEverything": 4897,
      "Ġmonths": 4898,
      "aa": 4899,
      "ned": 4900,
      "Ġic": 4901,
      "Ġhyp": 4902,
      "Ġcharism": 4903,
      "Ġplayer": 4904,
      "Ġdesp": 4905,
      "Ġunderstanding": 4906,
      "Ġdeterm": 4907,
      "Ġskin": 4908,
      "ĠDaniel": 4909,
      "ashington": 4910,
      "ĠStreet": 4911,
      "Ġbehavior": 4912,
      ");": 4913,
      "bad": 4914,
      "cock": 4915,
      "point": 4916,
      "Ġhits": 4917,
      "Ġ/>-": 4918,
      "star": 4919,
      "Ġstock": 4920,
      "ĠSy": 4921,
      "Ġnoticed": 4922,
      "ushing": 4923,
      "ueen": 4924,
      "Ġfinest": 4925,
      "oons": 4926,
      "upp": 4927,
      "Ġfield": 4928,
      "Ġmine": 4929,
      "Ġcard": 4930,
      "omas": 4931,
      "ĠHall": 4932,
      "ĠREA": 4933,
      "ĠFre": 4934,
      "umps": 4935,
      "Ġpartner": 4936,
      "Ġskills": 4937,
      "Ġsoldier": 4938,
      "Ġcircum": 4939,
      "Ġrubbish": 4940,
      "nie": 4941,
      "vit": 4942,
      "Ġfate": 4943,
      "thony": 4944,
      "ĠRon": 4945,
      "ĠGirl": 4946,
      "oses": 4947,
      "Ġtwenty": 4948,
      "there": 4949,
      "Ġterribly": 4950,
      "Ġanimal": 4951,
      "Ġconcerned": 4952,
      "Ġrepresent": 4953,
      "Ġsafe": 4954,
      "entle": 4955,
      "iful": 4956,
      "ĠEddie": 4957,
      "ĠKate": 4958,
      "Ġlacking": 4959,
      "Ġperspective": 4960,
      "Of": 4961,
      "Rob": 4962,
      "cise": 4963,
      "Ġfrequ": 4964,
      "ĠBond": 4965,
      "ulf": 4966,
      "Ġring": 4967,
      "away": 4968,
      "ensional": 4969,
      "ivity": 4970,
      "Ġbloody": 4971,
      "Ġdangerous": 4972,
      "American": 4973,
      "Re": 4974,
      "gn": 4975,
      "sen": 4976,
      "isc": 4977,
      "ĠWas": 4978,
      "agers": 4979,
      "ĠEast": 4980,
      "They": 4981,
      "Ġfinale": 4982,
      "Ġimagin": 4983,
      "Ġtalents": 4984,
      "ĠSpanish": 4985,
      "oh": 4986,
      "Ġ?": 4987,
      "isa": 4988,
      "Ġreaction": 4989,
      "icked": 4990,
      "Ġtransl": 4991,
      "Ġdelightful": 4992,
      "fortable": 4993,
      "Ġsaved": 4994,
      "sion": 4995,
      "Ġtight": 4996,
      "Ġban": 4997,
      "ĠMi": 4998,
      "ĠCam": 4999,
      "ulous": 5000,
      "Ġnumerous": 5001,
      "Ġcontinues": 5002,
      "ĠEuropean": 5003,
      "Ġopposite": 5004,
      "Ġboo": 5005,
      "Ġearn": 5006,
      "ĠMen": 5007,
      "ĠWashington": 5008,
      "ĠLord": 5009,
      "Ġprove": 5010,
      "Ġresol": 5011,
      "Ġassist": 5012,
      "Ġlocations": 5013,
      "Why": 5014,
      "tle": 5015,
      "Ġdated": 5016,
      "Ġwealth": 5017,
      "ĠDel": 5018,
      "ĠRam": 5019,
      "ĠVer": 5020,
      "Ġincre": 5021,
      "ails": 5022,
      "screen": 5023,
      "Ġheroes": 5024,
      "Ġbreaks": 5025,
      "Ġpriest": 5026,
      "Ġloses": 5027,
      "za": 5028,
      "Ġsin": 5029,
      "ilies": 5030,
      "Ġmob": 5031,
      "rix": 5032,
      "ĠMike": 5033,
      "ĠHart": 5034,
      "Ġsucks": 5035,
      "Ġvan": 5036,
      "they": 5037,
      "Ġreviewers": 5038,
      "Ġmurdered": 5039,
      "Ġhumorous": 5040,
      "Ġtheatre": 5041,
      "Ġgags": 5042,
      "Ġnaive": 5043,
      "Ġwitch": 5044,
      "Ġcable": 5045,
      "ids": 5046,
      "ribut": 5047,
      "Ġdeals": 5048,
      "Ġmanipul": 5049,
      "Ġtroub": 5050,
      "Ġbigger": 5051,
      "ĠDeath": 5052,
      "Ġsatire": 5053,
      "Ġunfunny": 5054,
      "Ġbelow": 5055,
      "Ġtraditional": 5056,
      "Ġempty": 5057,
      "Yes": 5058,
      "Ġner": 5059,
      "etic": 5060,
      "ĠPlease": 5061,
      "ummer": 5062,
      "Ġremain": 5063,
      "Ġkinda": 5064,
      "Ġopens": 5065,
      "Ġkeeping": 5066,
      "Ġcaptured": 5067,
      "Ġdiscovered": 5068,
      "POILERS": 5069,
      "ĠJesus": 5070,
      "lle": 5071,
      "ĠCass": 5072,
      "Ġunint": 5073,
      "ĠEric": 5074,
      "Ġens": 5075,
      "Ġowner": 5076,
      "ĠSpace": 5077,
      "Ġefforts": 5078,
      "Ġsummer": 5079,
      "Ġcircumst": 5080,
      "asm": 5081,
      "sell": 5082,
      "idge": 5083,
      "Ġforces": 5084,
      "irm": 5085,
      "urity": 5086,
      "Ġorgan": 5087,
      "Ġstarting": 5088,
      "Ġcalls": 5089,
      "arently": 5090,
      "anned": 5091,
      "Ġadvice": 5092,
      "Ġdriving": 5093,
      "Ġregular": 5094,
      "Ġdealing": 5095,
      "Also": 5096,
      "However": 5097,
      "Ġreceived": 5098,
      "Ġmodel": 5099,
      "OL": 5100,
      "bur": 5101,
      "spe": 5102,
      "tw": 5103,
      "although": 5104,
      "aybe": 5105,
      "ching": 5106,
      "Ġconfront": 5107,
      "Ġdistract": 5108,
      "Ġlearned": 5109,
      "Ġsteal": 5110,
      "Ġsed": 5111,
      "Ġsal": 5112,
      "ads": 5113,
      "alling": 5114,
      "oore": 5115,
      "Ġju": 5116,
      "Ġframe": 5117,
      "Ġdisplay": 5118,
      "Ġincomp": 5119,
      "arner": 5120,
      "Ġcameo": 5121,
      "Ġpsychological": 5122,
      "Ġsurvive": 5123,
      "Ġrevealed": 5124,
      "ĠSuperman": 5125,
      "Ġnonsense": 5126,
      "some": 5127,
      "Ġtor": 5128,
      "hester": 5129,
      "Ġge": 5130,
      "ruct": 5131,
      "ups": 5132,
      "Ġinsane": 5133,
      "Ġversions": 5134,
      "Ġmarry": 5135,
      "Ġcorrupt": 5136,
      "iverse": 5137,
      "Ġmachine": 5138,
      "ĠBroad": 5139,
      "tr": 5140,
      "uh": 5141,
      "Ġbath": 5142,
      "itter": 5143,
      "atives": 5144,
      "Ġshallow": 5145,
      "unter": 5146,
      "osaur": 5147,
      "Then": 5148,
      "Ġrealism": 5149,
      "Ġcuts": 5150,
      "Ġuncle": 5151,
      "ĠSimon": 5152,
      "hearted": 5153,
      "Ġcomparison": 5154,
      "Ġphilos": 5155,
      "ILL": 5156,
      "ban": 5157,
      "Ġpark": 5158,
      "Ġgrew": 5159,
      "ĠSid": 5160,
      "ĠRose": 5161,
      "Ġproved": 5162,
      "Ġdisp": 5163,
      "Ġprint": 5164,
      "Ġdecade": 5165,
      "Ġoriginally": 5166,
      "Ġexistence": 5167,
      "Ġvisuals": 5168,
      "ĠFreddy": 5169,
      "Ġladies": 5170,
      "don": 5171,
      "mary": 5172,
      "top": 5173,
      "hent": 5174,
      "Ġhall": 5175,
      "Ġdry": 5176,
      "ĠSince": 5177,
      "hern": 5178,
      "Ġjunk": 5179,
      "Ġsomebody": 5180,
      "Ġgrown": 5181,
      "Ġsurreal": 5182,
      "ĠWhich": 5183,
      "Ġeduc": 5184,
      "Ġsword": 5185,
      "porary": 5186,
      "Ġgenuinely": 5187,
      "ĠHarris": 5188,
      "Ġremembered": 5189,
      "!).": 5190,
      "ued": 5191,
      "Ġinex": 5192,
      "Ġallows": 5193,
      "ĠJess": 5194,
      "ivered": 5195,
      "Ġcourt": 5196,
      "Ġexperiment": 5197,
      "ĠKevin": 5198,
      "Another": 5199,
      "Ġofficer": 5200,
      "Ġordinary": 5201,
      "Ġfict": 5202,
      "Ġpit": 5203,
      "ĠBet": 5204,
      "ĠColl": 5205,
      "ĠGene": 5206,
      "Ġtherefore": 5207,
      "ĠKong": 5208,
      "Ġblue": 5209,
      "ordon": 5210,
      "Ġconsist": 5211,
      "luding": 5212,
      "Ġexperien": 5213,
      "ĠAfrican": 5214,
      "Ġsegment": 5215,
      "viron": 5216,
      "mble": 5217,
      "ashes": 5218,
      "Ġinh": 5219,
      "ication": 5220,
      "ĠCapt": 5221,
      "Ġfrank": 5222,
      "ĠJan": 5223,
      "Ġuncom": 5224,
      "acc": 5225,
      "Ġoverly": 5226,
      "ometimes": 5227,
      "Ġfeaturing": 5228,
      "Ġforeign": 5229,
      "ĠEveryone": 5230,
      "Ġgangster": 5231,
      "va": 5232,
      "ym": 5233,
      "Ġsake": 5234,
      "Ġbat": 5235,
      "Ġgreen": 5236,
      "ĠRom": 5237,
      "ĠRain": 5238,
      "Ġarm": 5239,
      "ĠVal": 5240,
      "Ġspeed": 5241,
      "Ġpassed": 5242,
      "Ġhigher": 5243,
      "Ġrelief": 5244,
      "Ġtack": 5245,
      "Ġwitty": 5246,
      "Ġbear": 5247,
      "Ġseven": 5248,
      "ĠHell": 5249,
      "ĠEVER": 5250,
      "Ġarch": 5251,
      "Ġstudy": 5252,
      "ĠJimmy": 5253,
      "Ġconnect": 5254,
      "50": 5255,
      "Ste": 5256,
      "Ġtun": 5257,
      "asp": 5258,
      "Ġunable": 5259,
      "Ġplots": 5260,
      "anged": 5261,
      "ĠThose": 5262,
      "ĠFranc": 5263,
      "Ġwarning": 5264,
      "ĠTHIS": 5265,
      "ĠWelles": 5266,
      "Ġmorning": 5267,
      "???": 5268,
      "uitous": 5269,
      "Ġirritating": 5270,
      "Ġunconv": 5271,
      "enny": 5272,
      "Ġlat": 5273,
      "Ġles": 5274,
      "Ġredu": 5275,
      "ĠCent": 5276,
      "Ġsucked": 5277,
      "Ġvul": 5278,
      "Ġsheer": 5279,
      "Ġ14": 5280,
      "Ġadvert": 5281,
      "ĠHoward": 5282,
      "finitely": 5283,
      "Ġcreates": 5284,
      "ĠLeon": 5285,
      "Ġdiscovers": 5286,
      "Ġwindow": 5287,
      "Ġconnection": 5288,
      "alloween": 5289,
      "Ġscreaming": 5290,
      "Ġcurious": 5291,
      "Ġsite": 5292,
      "Ġfif": 5293,
      "Ġpress": 5294,
      "Ġpowers": 5295,
      "Ġassoci": 5296,
      "ĠHitch": 5297,
      "Ġdelivered": 5298,
      "Ġfailure": 5299,
      "Ġtypes": 5300,
      "Ġrevolution": 5301,
      "ores": 5302,
      "rie": 5303,
      "Ġhur": 5304,
      "Ġgonna": 5305,
      "Ġnet": 5306,
      "ĠMal": 5307,
      "ĠCage": 5308,
      "ĠCarr": 5309,
      "Ġconvey": 5310,
      "ĠStone": 5311,
      "Ġobl": 5312,
      "entionally": 5313,
      "Ġleader": 5314,
      "Ġmission": 5315,
      "Ġresearch": 5316,
      "ĠLuke": 5317,
      "Ġstereotypes": 5318,
      "ĠSanta": 5319,
      "Ġspectacular": 5320,
      "Ġdi": 5321,
      "icate": 5322,
      "Ġgoof": 5323,
      "theless": 5324,
      "oken": 5325,
      "Ġlesson": 5326,
      "Ġedited": 5327,
      "Ġmarvel": 5328,
      "ĠSean": 5329,
      "Ġmajority": 5330,
      "Ġtechnology": 5331,
      "Ġreferences": 5332,
      "ba": 5333,
      "lim": 5334,
      "Ġwedding": 5335,
      "arc": 5336,
      "Ġemer": 5337,
      "Ġreun": 5338,
      "ĠSund": 5339,
      "Ġnecess": 5340,
      "Ġenviron": 5341,
      "ĠYOU": 5342,
      "ĠAnthony": 5343,
      "Ġbrilliantly": 5344,
      "reedom": 5345,
      "==": 5346,
      "fit": 5347,
      "law": 5348,
      "nox": 5349,
      "iser": 5350,
      "Ġbot": 5351,
      "unning": 5352,
      "Ġkiss": 5353,
      "ĠNorth": 5354,
      "ĠEs": 5355,
      "Ġteach": 5356,
      "Ġrelate": 5357,
      "Ġsinger": 5358,
      "ĠBeat": 5359,
      "ugos": 5360,
      "Ġrefres": 5361,
      "Ġmiser": 5362,
      "orthy": 5363,
      "Ġsubtit": 5364,
      "Ġcaused": 5365,
      "hentic": 5366,
      "lly": 5367,
      "Ġshop": 5368,
      "iforn": 5369,
      "ums": 5370,
      "Ġspeech": 5371,
      "Ġprinc": 5372,
      "Ġmini": 5373,
      "Ġfamilies": 5374,
      "Ġobsc": 5375,
      "Ġlaughter": 5376,
      "Ġgrace": 5377,
      "Ġcolour": 5378,
      "Ġemotionally": 5379,
      "Ġprotagonist": 5380,
      "She": 5381,
      "ville": 5382,
      "Ġfal": 5383,
      "Ġfare": 5384,
      "stit": 5385,
      "iling": 5386,
      "ĠThing": 5387,
      "ĠDor": 5388,
      "Ġaltern": 5389,
      "ques": 5390,
      "Ġrecall": 5391,
      "ĠBrown": 5392,
      "Ġentertained": 5393,
      "Ġpainfully": 5394,
      "Ġreflect": 5395,
      "RI": 5396,
      "ser": 5397,
      "yal": 5398,
      "Ġtick": 5399,
      "Ġsole": 5400,
      "acting": 5401,
      "ĠRod": 5402,
      "indere": 5403,
      "Ġsyn": 5404,
      "Ġcrappy": 5405,
      "Ġtreatment": 5406,
      "Ġultimate": 5407,
      "dom": 5408,
      "done": 5409,
      "tt": 5410,
      "Ġgross": 5411,
      "ĠTex": 5412,
      "ĠWars": 5413,
      "Ġfrustr": 5414,
      "Ġattitude": 5415,
      "Ġcompan": 5416,
      "Ġcorny": 5417,
      "LLY": 5418,
      "Ġcombination": 5419,
      "RA": 5420,
      "mother": 5421,
      "yr": 5422,
      "Ġcyn": 5423,
      "Ġgory": 5424,
      "chan": 5425,
      "Ġsend": 5426,
      "ĠGary": 5427,
      "ĠKenn": 5428,
      "Ġtrib": 5429,
      "Ġexcited": 5430,
      "bell": 5431,
      "Ġcash": 5432,
      "ĠSH": 5433,
      "Ġran": 5434,
      "ĠFe": 5435,
      "Ġspoof": 5436,
      "Ġemp": 5437,
      "Ġbuilt": 5438,
      "........": 5439,
      "Ġskill": 5440,
      "Ġexecuted": 5441,
      "Ġidentity": 5442,
      "Ġinept": 5443,
      "Ġamateurish": 5444,
      "Ġchalleng": 5445,
      "Ġlogic": 5446,
      "ĠTrek": 5447,
      "ĠSinatra": 5448,
      "Ġvehicle": 5449,
      "Ġmagnificent": 5450,
      "inderella": 5451,
      "ker": 5452,
      "ÂĹ": 5453,
      "ether": 5454,
      "ĠHad": 5455,
      "ulation": 5456,
      "Ġdecision": 5457,
      "Ġbelieves": 5458,
      "Ġmeeting": 5459,
      "Ġveter": 5460,
      "Ġpleasant": 5461,
      "Ġgraphic": 5462,
      "ĠAcademy": 5463,
      "Ġgratuitous": 5464,
      "ifornia": 5465,
      "From": 5466,
      "ault": 5467,
      "whel": 5468,
      "ĠIT": 5469,
      "aming": 5470,
      "ĠMaster": 5471,
      "ĠMoore": 5472,
      "liver": 5473,
      "Ġappl": 5474,
      "Ġportrays": 5475,
      "ĠUnivers": 5476,
      "ynam": 5477,
      "Ġparody": 5478,
      "Ġlevels": 5479,
      "Ġestabl": 5480,
      "ĠLouis": 5481,
      "Ġassume": 5482,
      "Ġdescribed": 5483,
      "ĠTarzan": 5484,
      "Ġlone": 5485,
      "ĠIm": 5486,
      "stream": 5487,
      "iration": 5488,
      "ĠDra": 5489,
      "ĠKim": 5490,
      "Ġunderrated": 5491,
      "cohol": 5492,
      "Ġreviewer": 5493,
      "Ġtheaters": 5494,
      "Ġstopped": 5495,
      "Ġflashbacks": 5496,
      "Ġdreadful": 5497,
      "Ġoccasionally": 5498,
      "teresting": 5499,
      "ye": 5500,
      "Ġpaper": 5501,
      "stick": 5502,
      "ĠMont": 5503,
      "ĠHay": 5504,
      "outs": 5505,
      "Ġscrew": 5506,
      "Ġpeace": 5507,
      "angers": 5508,
      "Ġseasons": 5509,
      "Ġexpression": 5510,
      "Ġrefreshing": 5511,
      "Every": 5512,
      "ls": 5513,
      "Ġtape": 5514,
      "Ġbond": 5515,
      "Ġharsh": 5516,
      "omed": 5517,
      "urs": 5518,
      "ĠCast": 5519,
      "ĠGar": 5520,
      "Ġendless": 5521,
      "ĠAnderson": 5522,
      "Ġcruel": 5523,
      "Ġproduce": 5524,
      "ĠFrance": 5525,
      "Ġexcit": 5526,
      "Ġinvolves": 5527,
      "Ġlearns": 5528,
      "Ġasking": 5529,
      "Ġhandsome": 5530,
      "Ġruined": 5531,
      "Ġembarrassing": 5532,
      "Ġcontrived": 5533,
      "Ġblonde": 5534,
      "EL": 5535,
      "Let": 5536,
      "taking": 5537,
      "telling": 5538,
      "Ġfle": 5539,
      "omer": 5540,
      "ilty": 5541,
      "ama": 5542,
      "kend": 5543,
      "ĠLong": 5544,
      "Ġrange": 5545,
      "ĠGordon": 5546,
      "ights": 5547,
      "ĠViet": 5548,
      "Ġboat": 5549,
      "Ġbroken": 5550,
      "Ġcapable": 5551,
      "Ġreligion": 5552,
      "ĠVictoria": 5553,
      "Ġpractically": 5554,
      "mat": 5555,
      "ĠCinem": 5556,
      "Ġking": 5557,
      "Ġages": 5558,
      "Ġappealing": 5559,
      "Ġessentially": 5560,
      "Ġsympathetic": 5561,
      "ĠWayne": 5562,
      "ĠBroadway": 5563,
      "II": 5564,
      "ja": 5565,
      "Ġfund": 5566,
      "Ġpal": 5567,
      "Ġchoose": 5568,
      "Ġscar": 5569,
      "ĠEll": 5570,
      "phy": 5571,
      "ugg": 5572,
      "espite": 5573,
      "Ġstalk": 5574,
      "usi": 5575,
      "Ġsports": 5576,
      "Ġnormally": 5577,
      "Ġauthentic": 5578,
      "ĠParker": 5579,
      "UN": 5580,
      "ients": 5581,
      "nam": 5582,
      "inis": 5583,
      "Ġpunch": 5584,
      "Ġwel": 5585,
      "ĠHaw": 5586,
      "Ġfeet": 5587,
      "abeth": 5588,
      "urns": 5589,
      "ĠThank": 5590,
      "ĠMarie": 5591,
      "aturday": 5592,
      "Ġcosts": 5593,
      "Ġstreets": 5594,
      "Ġmurdere": 5595,
      "ĠJennifer": 5596,
      "ĠHitchcock": 5597,
      "core": 5598,
      "ichol": 5599,
      "Ġspin": 5600,
      "ĠBrad": 5601,
      "ĠThomas": 5602,
      "Ġportraying": 5603,
      "Ġcares": 5604,
      "Ġsuffering": 5605,
      "class": 5606,
      "Ġsatisfying": 5607,
      "Ġsubstance": 5608,
      "IGH": 5609,
      "ĠJoseph": 5610,
      "Ġcircumstances": 5611,
      "buster": 5612,
      "ked": 5613,
      "isher": 5614,
      "ĠCat": 5615,
      "ĠWild": 5616,
      "uns": 5617,
      "Ġvac": 5618,
      "ĠOut": 5619,
      "----": 5620,
      "Ġthoughts": 5621,
      "Ġappropriate": 5622,
      "Ġstanding": 5623,
      "Ġmonsters": 5624,
      "ĠMrs": 5625,
      "ĠGermany": 5626,
      "Ġlargely": 5627,
      "Ġjudge": 5628,
      "Ġunrealistic": 5629,
      "gent": 5630,
      "nal": 5631,
      "walk": 5632,
      "ndo": 5633,
      "Ġeating": 5634,
      "Ġwhilst": 5635,
      "amily": 5636,
      "ĠSky": 5637,
      "Ġconce": 5638,
      "udic": 5639,
      "Ġmyth": 5640,
      "Ġproud": 5641,
      "Ġevidence": 5642,
      "ĠAsian": 5643,
      "Ġdepressing": 5644,
      "ĠGrant": 5645,
      "ĠAgain": 5646,
      "Ġroutine": 5647,
      "Ġenvironment": 5648,
      "Ġexcitement": 5649,
      "Cl": 5650,
      "long": 5651,
      "ule": 5652,
      "zo": 5653,
      "Ġdressed": 5654,
      "Ġinner": 5655,
      "ĠInt": 5656,
      "ĠTime": 5657,
      "ada": 5658,
      "Ġhearing": 5659,
      "Ġancient": 5660,
      "ĠALL": 5661,
      "ĠMax": 5662,
      "ĠMiche": 5663,
      "Ġneat": 5664,
      "Ġflesh": 5665,
      "ĠAsh": 5666,
      "Ġsequels": 5667,
      "ĠAnne": 5668,
      "ĠTHAT": 5669,
      "Ġtedious": 5670,
      "Ġvoices": 5671,
      "pet": 5672,
      "erie": 5673,
      "ari": 5674,
      "Ġ/>*": 5675,
      "oting": 5676,
      "roll": 5677,
      "Ġchosen": 5678,
      "orted": 5679,
      "Ġwhenever": 5680,
      "Ġtalks": 5681,
      "Ġvisually": 5682,
      "Ġpurch": 5683,
      "Ġvillage": 5684,
      "Ġcaptures": 5685,
      "Ġtheatrical": 5686,
      "Ġconvinced": 5687,
      "ooth": 5688,
      "pass": 5689,
      "rate": 5690,
      "Ġfly": 5691,
      "Ġda": 5692,
      "ĠTO": 5693,
      "ĠPre": 5694,
      "ĠLA": 5695,
      "ĠRos": 5696,
      "ĠOver": 5697,
      "ĠKu": 5698,
      "oster": 5699,
      "Ġyeah": 5700,
      "Ġcompos": 5701,
      "Ġinvolve": 5702,
      "Ġzero": 5703,
      "Ġmatters": 5704,
      "ethod": 5705,
      "Ġfictional": 5706,
      ",'": 5707,
      "upt": 5708,
      "Ġfame": 5709,
      "Ġfits": 5710,
      "Ġcab": 5711,
      "arian": 5712,
      "ilogy": 5713,
      "Ġseat": 5714,
      "ĠWr": 5715,
      "Ġsoph": 5716,
      "ĠPitt": 5717,
      "ĠLast": 5718,
      "ĠLewis": 5719,
      "Ġunfortun": 5720,
      "Ġerotic": 5721,
      "Ġpropag": 5722,
      "Ġ1930": 5723,
      "ĠAnton": 5724,
      "ĠCanadian": 5725,
      "Ġrescue": 5726,
      "fl": 5727,
      "Ġasleep": 5728,
      "Ġvs": 5729,
      "Ġvague": 5730,
      "apes": 5731,
      "ĠUK": 5732,
      "Ġwalks": 5733,
      "ĠPrince": 5734,
      "Ġexploitation": 5735,
      "Ġinevit": 5736,
      "Ġcounter": 5737,
      "ĠFrancis": 5738,
      "__": 5739,
      "made": 5740,
      "ĠMatt": 5741,
      "ĠCare": 5742,
      "Ġcrack": 5743,
      "ĠJackie": 5744,
      "Ġcenter": 5745,
      "Ġteenager": 5746,
      "ĠWoody": 5747,
      "ĠAfrica": 5748,
      "Ġdisgusting": 5749,
      "ga": 5750,
      "nan": 5751,
      "Ġcant": 5752,
      "icol": 5753,
      "ĠTer": 5754,
      "raction": 5755,
      "Ġalcohol": 5756,
      "olic": 5757,
      "Ġstrongly": 5758,
      "Ġteenagers": 5759,
      "Ġdepicted": 5760,
      "ĠSecond": 5761,
      "mind": 5762,
      "pir": 5763,
      "produ": 5764,
      "tain": 5765,
      "Ġlousy": 5766,
      "Ġforth": 5767,
      "ĠMir": 5768,
      "ĠPowell": 5769,
      "ĠChan": 5770,
      "ĠClark": 5771,
      "Ġsteals": 5772,
      "anagh": 5773,
      "Ġcriticism": 5774,
      "):": 5775,
      "GM": 5776,
      "Ġbre": 5777,
      "Ġhol": 5778,
      "otion": 5779,
      "Ġrend": 5780,
      "imate": 5781,
      "Ġanime": 5782,
      "ĠAre": 5783,
      "ĠDar": 5784,
      "ĠDog": 5785,
      "ĠFull": 5786,
      "ĠNO": 5787,
      "ĠVER": 5788,
      "Ġexcess": 5789,
      "Ġassass": 5790,
      "Ġextraord": 5791,
      "Ġqualities": 5792,
      "Le": 5793,
      "ait": 5794,
      "Ġbodies": 5795,
      "Ġlower": 5796,
      "uther": 5797,
      "ĠTor": 5798,
      "rocious": 5799,
      "ĠMoon": 5800,
      "Ġrot": 5801,
      "ĠNancy": 5802,
      "Ġfacts": 5803,
      "Ġglass": 5804,
      "Ġgeneration": 5805,
      "Ġinitial": 5806,
      "Ġdubbed": 5807,
      "ĠRyan": 5808,
      "Ġsaving": 5809,
      "ani": 5810,
      "Ġrevel": 5811,
      "Ġsharp": 5812,
      "Ġvol": 5813,
      "ĠPlus": 5814,
      "ume": 5815,
      "Ġclue": 5816,
      "osexual": 5817,
      "Ġgrade": 5818,
      "Ġrival": 5819,
      "Ġbelieved": 5820,
      "irds": 5821,
      "Ġrefer": 5822,
      "Ġstructure": 5823,
      "Ġlosing": 5824,
      "Ġcapital": 5825,
      "Ġhyster": 5826,
      "ĠMurphy": 5827,
      "Ġunfortunate": 5828,
      "Do": 5829,
      "Pl": 5830,
      "ners": 5831,
      "chy": 5832,
      "orting": 5833,
      "ĠKarl": 5834,
      "Ġhorribly": 5835,
      "Ġrental": 5836,
      "Ġtouches": 5837,
      "199": 5838,
      "Ġunlikely": 5839,
      "Ġobsessed": 5840,
      "ĠRussell": 5841,
      "Ġcategory": 5842,
      "Ġfalse": 5843,
      "ae": 5844,
      "orb": 5845,
      "Ġpile": 5846,
      "Ġludic": 5847,
      "Ġheav": 5848,
      "etime": 5849,
      "Ġvote": 5850,
      "Ġconsequ": 5851,
      "ĠKh": 5852,
      "aret": 5853,
      "Ġpregn": 5854,
      "Ġoffensive": 5855,
      "Ġpromise": 5856,
      "Ġdescript": 5857,
      "Ġangles": 5858,
      "Ġcontrovers": 5859,
      "Ġcostume": 5860,
      "Ġvirtually": 5861,
      "Ġcontemporary": 5862,
      "Ġrelatively": 5863,
      "ĠBarbara": 5864,
      "Watch": 5865,
      "Ġ#": 5866,
      "Ġgig": 5867,
      "ĠTri": 5868,
      "Ġheaven": 5869,
      "ĠSan": 5870,
      "ĠSur": 5871,
      "ĠMil": 5872,
      "Ġchose": 5873,
      "ĠLook": 5874,
      "elle": 5875,
      "tended": 5876,
      "Ġmakeup": 5877,
      "Ġserves": 5878,
      "Ġspell": 5879,
      "---": 5880,
      "Ġaccents": 5881,
      "Ġhandled": 5882,
      "phas": 5883,
      "Ġsitcom": 5884,
      "Ġexpos": 5885,
      "198": 5886,
      "Ġfootball": 5887,
      "Ġprior": 5888,
      "Ġruin": 5889,
      "Ġlawyer": 5890,
      "Ġclaims": 5891,
      "Ġbaseball": 5892,
      "pent": 5893,
      "Â´": 5894,
      "itiz": 5895,
      "Ġdrop": 5896,
      "Ġreject": 5897,
      "Ġplans": 5898,
      "Ġcann": 5899,
      "achel": 5900,
      "Ġviewed": 5901,
      "Ġacqu": 5902,
      "ĠArt": 5903,
      "Ġreput": 5904,
      "Ġbringing": 5905,
      "Ġholding": 5906,
      "ENT": 5907,
      "Ġspoilers": 5908,
      "Ġsuffers": 5909,
      "Ġspeaks": 5910,
      "ĠBarry": 5911,
      "Ġlatest": 5912,
      "chen": 5913,
      "Ġwid": 5914,
      "ĠCle": 5915,
      "Ġatrocious": 5916,
      "ĠWhe": 5917,
      "ĠDem": 5918,
      "Ġvide": 5919,
      "Ġunfor": 5920,
      "ella": 5921,
      "ogether": 5922,
      "ĠAnna": 5923,
      "Ġexperiences": 5924,
      "Who": 5925,
      "Ġhanging": 5926,
      "Ġinfluence": 5927,
      "Ġmultiple": 5928,
      "Ġsource": 5929,
      "ĠTexas": 5930,
      "GE": 5931,
      "VE": 5932,
      "Ġcivil": 5933,
      "Ġpity": 5934,
      "ĠSun": 5935,
      "Ġsemi": 5936,
      "ĠBon": 5937,
      "Ġtrick": 5938,
      "Ġtruck": 5939,
      "Ġevening": 5940,
      "Ġreminis": 5941,
      "beat": 5942,
      "ivan": 5943,
      "Ġtraining": 5944,
      "Ġpolic": 5945,
      "Ġpresents": 5946,
      "Ġdeaths": 5947,
      "Ġpursu": 5948,
      "Ġprovided": 5949,
      "Ġpromising": 5950,
      "Ġshocked": 5951,
      "written": 5952,
      "Ġlucky": 5953,
      "Ġenthusi": 5954,
      "hi": 5955,
      "inging": 5956,
      "anity": 5957,
      "anny": 5958,
      "arning": 5959,
      "ĠBern": 5960,
      "ĠHill": 5961,
      "Ġarrest": 5962,
      "Ġrealizes": 5963,
      "Ġparticip": 5964,
      "athan": 5965,
      "Ġfactor": 5966,
      "viously": 5967,
      "Ġreporter": 5968,
      "Ġforgettable": 5969,
      "Ġexecution": 5970,
      "ĠIrish": 5971,
      "Ġharm": 5972,
      "ĠCaptain": 5973,
      "sm": 5974,
      "Ġsne": 5975,
      "Ġbound": 5976,
      "Ġbatt": 5977,
      "eness": 5978,
      "ĠHo": 5979,
      "ĠLa": 5980,
      "Ġrise": 5981,
      "ĠFestival": 5982,
      "Ġquir": 5983,
      "ĠStates": 5984,
      "Ġclassics": 5985,
      "Ġconvince": 5986,
      "Ġbrave": 5987,
      "ĠIsland": 5988,
      "Ġpolitics": 5989,
      "aura": 5990,
      "Ġuninteresting": 5991,
      "ĠAustralian": 5992,
      "Ġdegree": 5993,
      "Ġintellectual": 5994,
      "rehen": 5995,
      "Ġhen": 5996,
      "ĠSn": 5997,
      "ĠMOV": 5998,
      "ummy": 5999,
      "ĠGill": 6000,
      "aren": 6001,
      "ressive": 6002,
      "Ġcovered": 6003,
      "Ġsurprises": 6004,
      "Ġpaint": 6005,
      "Ġpainting": 6006,
      "Ġmistakes": 6007,
      "ĠWilson": 6008,
      "ION": 6009,
      "iat": 6010,
      "ship": 6011,
      "Ġbag": 6012,
      "Ġlink": 6013,
      "Ġnominated": 6014,
      "Ġhey": 6015,
      "ioned": 6016,
      "amous": 6017,
      "ĠCas": 6018,
      "Ġsho": 6019,
      "Ġende": 6020,
      "Ġmovement": 6021,
      "loved": 6022,
      "Ġweeks": 6023,
      "Ġcomplain": 6024,
      "Ġcartoons": 6025,
      "Ġcloser": 6026,
      "ausible": 6027,
      "Ġgraph": 6028,
      "ĠBrothers": 6029,
      "ugosi": 6030,
      "cr": 6031,
      "yes": 6032,
      "Ġabr": 6033,
      "Ġfreedom": 6034,
      "Ġnin": 6035,
      "ĠTit": 6036,
      "ĠAdd": 6037,
      "ĠBor": 6038,
      "ĠCaine": 6039,
      "Ġexagger": 6040,
      "ĠPage": 6041,
      "ĠGener": 6042,
      "ĠUs": 6043,
      "ighter": 6044,
      "Ġbitter": 6045,
      "Ġsupernatural": 6046,
      "including": 6047,
      "Ġfocused": 6048,
      "Ġcontinuity": 6049,
      "Ġfrankly": 6050,
      "Ġlesbian": 6051,
      "\"),": 6052,
      "Man": 6053,
      "och": 6054,
      "Ġ)": 6055,
      "inated": 6056,
      "Ġfestival": 6057,
      "Ġmask": 6058,
      "Ġcas": 6059,
      "ĠTed": 6060,
      "ida": 6061,
      "olph": 6062,
      "umph": 6063,
      "ĠNE": 6064,
      "odd": 6065,
      "Ġarg": 6066,
      "Ġoverlook": 6067,
      "formed": 6068,
      "ullivan": 6069,
      "Ġinvent": 6070,
      "ĠBefore": 6071,
      "Ġskip": 6072,
      "ĠReally": 6073,
      "ennis": 6074,
      "Ġpreviously": 6075,
      "ĠPatrick": 6076,
      "Ġidiot": 6077,
      "ĠPacino": 6078,
      "Ġpropaganda": 6079,
      "ixt": 6080,
      "Ġsection": 6081,
      "ĠCamp": 6082,
      "ĠHaving": 6083,
      "ĠHoff": 6084,
      "cker": 6085,
      "ulated": 6086,
      "ĠFer": 6087,
      "ĠKill": 6088,
      "Ġpoign": 6089,
      "Ġcrude": 6090,
      "Ġkillers": 6091,
      "Ġemphas": 6092,
      "Ġkinds": 6093,
      "Ġdistribut": 6094,
      "Ġcommit": 6095,
      "Ġadmire": 6096,
      "Ġwalked": 6097,
      "Ġcombined": 6098,
      "Ġrecognize": 6099,
      "!),": 6100,
      "IR": 6101,
      "Ġdirty": 6102,
      "icit": 6103,
      "Ġgas": 6104,
      "lection": 6105,
      "Ġeld": 6106,
      "Ġstol": 6107,
      "ĠSE": 6108,
      "Ġhaunting": 6109,
      "ĠWat": 6110,
      "ĠDet": 6111,
      "udes": 6112,
      "Ġoverwhel": 6113,
      "Ġcontest": 6114,
      "ĠUp": 6115,
      "airs": 6116,
      "Ġcommitted": 6117,
      "Ġstruggling": 6118,
      "Ġoccasional": 6119,
      "Ġoffered": 6120,
      "Ġfrightening": 6121,
      "iens": 6122,
      "wy": 6123,
      "Ġtable": 6124,
      "Ġlie": 6125,
      "ston": 6126,
      "ĠCru": 6127,
      "ĠDian": 6128,
      "ĠPri": 6129,
      "ĠNichol": 6130,
      "ĠKore": 6131,
      "acle": 6132,
      "Ġsurface": 6133,
      "Ġterm": 6134,
      "umbling": 6135,
      "Ġcreatures": 6136,
      "Ġconcent": 6137,
      "Ġsorts": 6138,
      "Ġnarration": 6139,
      "ĠComm": 6140,
      "Ġaccidentally": 6141,
      "AA": 6142,
      "ij": 6143,
      "Ġsink": 6144,
      "eds": 6145,
      "Ġnude": 6146,
      "Ġanger": 6147,
      "ĠBE": 6148,
      "ĠMGM": 6149,
      "uls": 6150,
      "Ġsche": 6151,
      "Ġoutrage": 6152,
      "Ġrough": 6153,
      "Ġblow": 6154,
      "Ġcris": 6155,
      "Ġriver": 6156,
      "Ġmainstream": 6157,
      "Ġfairy": 6158,
      "Ġprivate": 6159,
      "Ġlandsc": 6160,
      "Ġimprove": 6161,
      "Ġrules": 6162,
      "Ġexperienced": 6163,
      "Is": 6164,
      "Mar": 6165,
      "arant": 6166,
      "Ġdynam": 6167,
      "ashy": 6168,
      "ader": 6169,
      "Ġhealth": 6170,
      "ĠSat": 6171,
      "ĠMod": 6172,
      "ĠComp": 6173,
      "ĠHong": 6174,
      "ĠGet": 6175,
      "ĠNone": 6176,
      "icted": 6177,
      "Ġspite": 6178,
      "Ġideal": 6179,
      "ĠWend": 6180,
      "ĠUnited": 6181,
      "Ġcolors": 6182,
      "ĠGrand": 6183,
      "Ġdollars": 6184,
      "Ġremotely": 6185,
      "Ġreputation": 6186,
      "11": 6187,
      "ona": 6188,
      "add": 6189,
      "Ġstom": 6190,
      "Ġwear": 6191,
      "ĠCap": 6192,
      "Ġabuse": 6193,
      "Ġdirectly": 6194,
      "Ġguard": 6195,
      "Ġspends": 6196,
      "Ġprice": 6197,
      "Ġcutting": 6198,
      "shi": 6199,
      "Ġfeatured": 6200,
      "Ġpsycho": 6201,
      "Ġposition": 6202,
      "Ġmassive": 6203,
      "ĠRoger": 6204,
      "ĠSadly": 6205,
      "gie": 6206,
      "noon": 6207,
      "Ġ0": 6208,
      "onel": 6209,
      "ĠLater": 6210,
      "Ġtrilogy": 6211,
      "Ġeverywhere": 6212,
      "Ġflo": 6213,
      "ĠVinc": 6214,
      "Ġcastle": 6215,
      "Ġdownright": 6216,
      "Ġcaptiv": 6217,
      "ungle": 6218,
      "Ġfigures": 6219,
      "ĠQueen": 6220,
      "Ġdemonstr": 6221,
      "ĠWalter": 6222,
      "ĠHoffman": 6223,
      "By": 6224,
      "wing": 6225,
      "Ġmethod": 6226,
      "ĠBros": 6227,
      "ĠMer": 6228,
      "Ġshut": 6229,
      "ĠDream": 6230,
      "Ġjail": 6231,
      "usive": 6232,
      "Ġwerewolf": 6233,
      "izabeth": 6234,
      "Ġeffectively": 6235,
      "apping": 6236,
      "Ġaccomp": 6237,
      "Ġworthwhile": 6238,
      "Ġfigured": 6239,
      "Ġsuffer": 6240,
      "Ġdesigned": 6241,
      "Ġstatement": 6242,
      "Ġmelodrama": 6243,
      "Ġbothered": 6244,
      "mal": 6245,
      "ya": 6246,
      "Ġtill": 6247,
      "Ġpaced": 6248,
      "Ġgentle": 6249,
      "ĠBaby": 6250,
      "ĠBBC": 6251,
      "ĠCH": 6252,
      "ĠCount": 6253,
      "ĠWall": 6254,
      "ĠEvil": 6255,
      "Ġperformed": 6256,
      "Ġimagery": 6257,
      "Ġfavorites": 6258,
      "Ġrequired": 6259,
      "BI": 6260,
      "Fi": 6261,
      "cause": 6262,
      "girl": 6263,
      "kins": 6264,
      "laim": 6265,
      "mate": 6266,
      "inals": 6267,
      "Ġliber": 6268,
      "ĠHalloween": 6269,
      "ems": 6270,
      "iform": 6271,
      "Ġscale": 6272,
      "ĠPict": 6273,
      "ĠRoman": 6274,
      "ĠFar": 6275,
      "Ġprostit": 6276,
      "ĠOff": 6277,
      "ĠOliver": 6278,
      "Ġnostal": 6279,
      "Ġteens": 6280,
      "Ġ25": 6281,
      "Ġexplains": 6282,
      "Ġswim": 6283,
      "ĠEdward": 6284,
      "Ġpulls": 6285,
      "Ġsuspenseful": 6286,
      "ĠDoes": 6287,
      "ĠPlan": 6288,
      "Ġsensitive": 6289,
      "Ġ1960": 6290,
      "Ġunconvincing": 6291,
      "Ġsubtitles": 6292,
      "ĠVERY": 6293,
      "Ġnostalg": 6294,
      "dim": 6295,
      "low": 6296,
      "Ġfu": 6297,
      "Ġfab": 6298,
      "Ġfix": 6299,
      "Ġhired": 6300,
      "ĠSaturday": 6301,
      "ĠHope": 6302,
      "ĠDrew": 6303,
      "Ġupset": 6304,
      "Ġincident": 6305,
      "ĠJohnson": 6306,
      "Ġformat": 6307,
      "Ġsnow": 6308,
      "Ġstayed": 6309,
      "belief": 6310,
      "Ġtremend": 6311,
      "Ġcrying": 6312,
      "Ġsympathy": 6313,
      "ĠColumbo": 6314,
      "UR": 6315,
      "stone": 6316,
      "ura": 6317,
      "ĠHa": 6318,
      "ĠLugosi": 6319,
      "ĠRem": 6320,
      "ĠNat": 6321,
      "Ġloyal": 6322,
      "Ġguest": 6323,
      "Ġcontract": 6324,
      "Ġcourage": 6325,
      "Ġbuying": 6326,
      "Ġcamer": 6327,
      "Ġextras": 6328,
      "Ġreveals": 6329,
      "Ġencou": 6330,
      "ĠCalifornia": 6331,
      "Ġdinosaur": 6332,
      "Ġencounter": 6333,
      "ĠAvoid": 6334,
      "Ġstolen": 6335,
      "Dav": 6336,
      "Ne": 6337,
      "gen": 6338,
      "mond": 6339,
      "Ġtask": 6340,
      "Ġbore": 6341,
      "Ġcore": 6342,
      "Ġded": 6343,
      "Ġstays": 6344,
      "ĠSk": 6345,
      "ĠSal": 6346,
      "ĠBourne": 6347,
      "ĠCur": 6348,
      "ulp": 6349,
      "ĠDun": 6350,
      "Ġscares": 6351,
      "ĠEve": 6352,
      "Ġ16": 6353,
      "Ġspark": 6354,
      "Ġawards": 6355,
      "Ġsimpl": 6356,
      "onsider": 6357,
      "ĠFran": 6358,
      "Ġamazed": 6359,
      "Ġfocuses": 6360,
      "Ġtwisted": 6361,
      "Ġfaithful": 6362,
      "ĠApparently": 6363,
      "ww": 6364,
      "wor": 6365,
      "atically": 6366,
      "Ġthro": 6367,
      "Ġdom": 6368,
      "ĠAst": 6369,
      "ĠCinderella": 6370,
      "Ġjeal": 6371,
      "ĠFair": 6372,
      "ĠFlor": 6373,
      "ĠFinally": 6374,
      "Ġscenario": 6375,
      "Ġguilty": 6376,
      "Ġcru": 6377,
      "Ġsurf": 6378,
      "stery": 6379,
      "Ġaccording": 6380,
      "ĠThrough": 6381,
      "Ġpassing": 6382,
      ".)<": 6383,
      "Ġstatus": 6384,
      "Ġlegendary": 6385,
      "Ġsignificant": 6386,
      "ĠVietnam": 6387,
      "after": 6388,
      "Ġice": 6389,
      "athy": 6390,
      "Ġcust": 6391,
      "Ġcook": 6392,
      "Ġtoler": 6393,
      "Ġpage": 6394,
      "Ġhaunted": 6395,
      "ĠMuch": 6396,
      "ĠCurt": 6397,
      "Ġworry": 6398,
      "Ġunp": 6399,
      "Ġdiss": 6400,
      "weet": 6401,
      "Ġgritty": 6402,
      "Ġviews": 6403,
      "Ġtrapped": 6404,
      "Ġjobs": 6405,
      "Ġminds": 6406,
      "197": 6407,
      "Ġdevice": 6408,
      "Ġvariety": 6409,
      "Ġ1990": 6410,
      "Ġbreathtaking": 6411,
      "Ġconversation": 6412,
      "Ġabandoned": 6413,
      "ĠFreeman": 6414,
      "Ġnecessarily": 6415,
      "Ġheavily": 6416,
      "bit": 6417,
      "ease": 6418,
      "mates": 6419,
      "Ġwound": 6420,
      "ĠBett": 6421,
      "ĠWor": 6422,
      "ela": 6423,
      "ante": 6424,
      "oln": 6425,
      "Ġintens": 6426,
      "plays": 6427,
      "plend": 6428,
      "Ġ192": 6429,
      "reek": 6430,
      "Ġstrict": 6431,
      "Ġmagical": 6432,
      "ĠclichÃ©d": 6433,
      "Ġdozen": 6434,
      "Michael": 6435,
      "bid": 6436,
      "hem": 6437,
      "ĠMST": 6438,
      "Ġscr": 6439,
      "ola": 6440,
      "ĠGi": 6441,
      "Ġflow": 6442,
      "Ġteeth": 6443,
      "Ġgrues": 6444,
      "Ġcontact": 6445,
      "Ġdecades": 6446,
      "Ġdistinct": 6447,
      "Ġcommand": 6448,
      "ĠDonald": 6449,
      "Ġdelivery": 6450,
      "Ġpaying": 6451,
      "Ġweekend": 6452,
      "Ġvampires": 6453,
      "ĠActually": 6454,
      "Ġdestroyed": 6455,
      "Ġservice": 6456,
      "Anyway": 6457,
      "Ġstomach": 6458,
      "aust": 6459,
      "Ġfond": 6460,
      "Ġbesides": 6461,
      "itious": 6462,
      "Ġheck": 6463,
      "ĠSpr": 6464,
      "ĠWonder": 6465,
      "onda": 6466,
      "Ġade": 6467,
      "iano": 6468,
      "Ġevol": 6469,
      "Ġevident": 6470,
      "Ġconfess": 6471,
      "ĠDevil": 6472,
      "ronic": 6473,
      "Ġcomplicated": 6474,
      "Ġintegr": 6475,
      "ĠANY": 6476,
      "Ġignor": 6477,
      "Ġinhab": 6478,
      "ĠSunday": 6479,
      "ĠEspecially": 6480,
      "Ġveteran": 6481,
      "Ġludicrous": 6482,
      "\").": 6483,
      "Good": 6484,
      "IA": 6485,
      "world": 6486,
      "inch": 6487,
      "Ġtheory": 6488,
      "rees": 6489,
      "Ġwand": 6490,
      "Ġbab": 6491,
      "enced": 6492,
      "Ġgre": 6493,
      "amor": 6494,
      "Ġdeeper": 6495,
      "arden": 6496,
      "ramatic": 6497,
      "Ġsounded": 6498,
      "Ġunderstood": 6499,
      "Ġpregnant": 6500,
      "OP": 6501,
      "called": 6502,
      "orig": 6503,
      "ali": 6504,
      "ĠMill": 6505,
      "outhern": 6506,
      "Ġplaced": 6507,
      "ĠPo": 6508,
      "Ġuniform": 6509,
      "incoln": 6510,
      "Ġchanging": 6511,
      "Ġanticip": 6512,
      "Ġappreciated": 6513,
      "Ġsettings": 6514,
      "Ġclosing": 6515,
      "ĠMexico": 6516,
      "craft": 6517,
      "Ġfacial": 6518,
      "Ġpraise": 6519,
      "Ġmurderer": 6520,
      "IM": 6521,
      "Paul": 6522,
      "case": 6523,
      "fall": 6524,
      "Ġpan": 6525,
      "Ġnaturally": 6526,
      "ĠBu": 6527,
      "Ġlift": 6528,
      "than": 6529,
      "Ġunbe": 6530,
      "iger": 6531,
      "ĠOld": 6532,
      "ĠKid": 6533,
      "assion": 6534,
      "Ġsecurity": 6535,
      "Ġdepiction": 6536,
      "Ġdriven": 6537,
      "ĠCarol": 6538,
      "Ġwinner": 6539,
      "Ġprofound": 6540,
      "Ġexecut": 6541,
      "Ġanswers": 6542,
      "Ġcontribut": 6543,
      "Ġgruesome": 6544,
      "BO": 6545,
      "ipped": 6546,
      "something": 6547,
      "ught": 6548,
      "Ġfil": 6549,
      "Ġfet": 6550,
      "Ġdress": 6551,
      "Ġash": 6552,
      "ĠSher": 6553,
      "ĠBog": 6554,
      "Ġlibr": 6555,
      "agal": 6556,
      "ĠJay": 6557,
      "Ġgreater": 6558,
      "Ġdisbelief": 6559,
      "Ġblat": 6560,
      "ĠYour": 6561,
      "Ġobnox": 6562,
      "Ġaccess": 6563,
      "Ġextent": 6564,
      "Ġadvant": 6565,
      "Ġrenting": 6566,
      "Ġlistening": 6567,
      "ĠWithout": 6568,
      "lover": 6569,
      "ĠAnyone": 6570,
      "Ġmetap": 6571,
      "Ġslapstick": 6572,
      "ns": 6573,
      "erved": 6574,
      "asant": 6575,
      "entist": 6576,
      "ethe": 6577,
      "eter": 6578,
      "Ġblah": 6579,
      "Ġtear": 6580,
      "atherine": 6581,
      "Christ": 6582,
      "Ġjournal": 6583,
      "Ġfunnier": 6584,
      "ĠMexican": 6585,
      "ĠSarah": 6586,
      "Ġwelcome": 6587,
      "IGHT": 6588,
      "Ġdescription": 6589,
      "Br": 6590,
      "apl": 6591,
      "fess": 6592,
      "hib": 6593,
      "Ġmature": 6594,
      "Ġ/>(": 6595,
      "Ġnative": 6596,
      "eturn": 6597,
      "ĠWarner": 6598,
      "Ġstorytelling": 6599,
      "oyd": 6600,
      "Ġdisag": 6601,
      "Ġprime": 6602,
      "Ġpicks": 6603,
      "ĠIndia": 6604,
      "Ġtreasure": 6605,
      "Ġdesperately": 6606,
      "list": 6607,
      "Ġtong": 6608,
      "Ġsides": 6609,
      "Ġbuddy": 6610,
      "imm": 6611,
      "Ġseve": 6612,
      "Ġchief": 6613,
      "ĠDuring": 6614,
      "ĠGand": 6615,
      "Ġmere": 6616,
      "ĠKiller": 6617,
      "ĠChild": 6618,
      "prise": 6619,
      "ĠBranagh": 6620,
      "Ġhelping": 6621,
      "ographer": 6622,
      "Ġexamples": 6623,
      "Ġbasis": 6624,
      "Ġmiscast": 6625,
      "Ġtouched": 6626,
      "Ġnovels": 6627,
      "Ġstereotypical": 6628,
      "Ġchoices": 6629,
      "ĠMOVIE": 6630,
      "Despite": 6631,
      "Ġton": 6632,
      "adays": 6633,
      "aying": 6634,
      "ĠSometimes": 6635,
      "rol": 6636,
      "Ġhack": 6637,
      "Ġcomical": 6638,
      "ĠRachel": 6639,
      "ĠEach": 6640,
      "Ġ17": 6641,
      "Ġenh": 6642,
      "Ġpreview": 6643,
      "Ġguarant": 6644,
      "Ġincor": 6645,
      "igned": 6646,
      "Ġoriginality": 6647,
      "ibilities": 6648,
      "Ġhandle": 6649,
      "Ġirre": 6650,
      "ĠMean": 6651,
      "ĠEmma": 6652,
      "Tw": 6653,
      "Will": 6654,
      "aver": 6655,
      "zel": 6656,
      "Ġwins": 6657,
      "Ġcand": 6658,
      "oration": 6659,
      "Ġisol": 6660,
      "Ġsea": 6661,
      "ĠMovies": 6662,
      "ĠCome": 6663,
      "ĠCub": 6664,
      "Ġchuck": 6665,
      "ifies": 6666,
      "ĠLincoln": 6667,
      "Ġseek": 6668,
      "ĠBrooks": 6669,
      "ĠArmy": 6670,
      "Ġlights": 6671,
      "Ġstarred": 6672,
      "ĠMcG": 6673,
      "Ġforest": 6674,
      "Ġsisters": 6675,
      "Ġcauses": 6676,
      "Ġcampy": 6677,
      "Ġsucceeds": 6678,
      "Ġproperly": 6679,
      "ĠMusic": 6680,
      "Ġdivor": 6681,
      "ĠPresident": 6682,
      "Ġlonely": 6683,
      "Ġextraordinary": 6684,
      "Here": 6685,
      "Ġwrest": 6686,
      "oms": 6687,
      "ĠMin": 6688,
      "ĠHA": 6689,
      "Ġkung": 6690,
      "Ġvir": 6691,
      "Ġvivid": 6692,
      "ĠRoc": 6693,
      "Ġthrows": 6694,
      "Ġblown": 6695,
      "Ġserve": 6696,
      "Ġafternoon": 6697,
      "azing": 6698,
      "Ġconsum": 6699,
      "Ġartists": 6700,
      "ĠDean": 6701,
      "ception": 6702,
      "Ġrepet": 6703,
      "Ġcritical": 6704,
      "Ġdeliber": 6705,
      "!!!!!!!!": 6706,
      "Ġprepared": 6707,
      "Ġinternational": 6708,
      "Ġwarned": 6709,
      "Ġracist": 6710,
      "Ġreminiscent": 6711,
      "Like": 6712,
      "Ġcous": 6713,
      "ico": 6714,
      "uty": 6715,
      "Ġbeloved": 6716,
      "Ġreward": 6717,
      "ĠSO": 6718,
      "ĠCole": 6719,
      "ĠLat": 6720,
      "ĠLOV": 6721,
      "Ġsheriff": 6722,
      "ĠInc": 6723,
      "Ġraised": 6724,
      "Ġscreening": 6725,
      "ucky": 6726,
      "Ġmusicals": 6727,
      "Ġcriminals": 6728,
      "iveness": 6729,
      "ĠAbout": 6730,
      "Ġdepartment": 6731,
      "Ġmildly": 6732,
      "wyck": 6733,
      "dimensional": 6734,
      "etheless": 6735,
      "Ġtiny": 6736,
      "onest": 6737,
      "lected": 6738,
      "ils": 6739,
      "Ġyell": 6740,
      "ooge": 6741,
      "ĠCooper": 6742,
      "Ġshape": 6743,
      "Ġvast": 6744,
      "Ġuniverse": 6745,
      "tending": 6746,
      "Ġcheese": 6747,
      "Ġcaring": 6748,
      "Ġcarried": 6749,
      "Ġcarries": 6750,
      "ĠBeaut": 6751,
      "ĠMarg": 6752,
      "Ġfemin": 6753,
      "ĠCharl": 6754,
      "Ġsummary": 6755,
      "Ġinspiration": 6756,
      "Ġintroduction": 6757,
      "ĠHardy": 6758,
      "Ġsophistic": 6759,
      "rehens": 6760,
      "80": 6761,
      "breaking": 6762,
      "Ġain": 6763,
      "Ġmas": 6764,
      "Ġbow": 6765,
      "Ġboot": 6766,
      "ĠIre": 6767,
      "ĠMic": 6768,
      "ĠDep": 6769,
      "ĠOb": 6770,
      "Ġargu": 6771,
      "ĠChina": 6772,
      "Ġcrash": 6773,
      "Ġsubsequ": 6774,
      "ĠFriday": 6775,
      "except": 6776,
      "Ġinteract": 6777,
      "Ġdemand": 6778,
      "Ġcultural": 6779,
      "Ġcondition": 6780,
      "Ġessential": 6781,
      "Ġhomosexual": 6782,
      "Ġjoin": 6783,
      "ĠPhilip": 6784,
      "ĠSidney": 6785,
      "fun": 6786,
      "Ġske": 6787,
      "Ġsplend": 6788,
      "Ġhip": 6789,
      "arg": 6790,
      "Ġnu": 6791,
      "Ġnation": 6792,
      "utter": 6793,
      "Ġshadow": 6794,
      "ĠDa": 6795,
      "ustrated": 6796,
      "Ġjumps": 6797,
      "eston": 6798,
      "ĠPa": 6799,
      "osity": 6800,
      "ĠNed": 6801,
      "Ġarr": 6802,
      "Ġenter": 6803,
      "Ġcontain": 6804,
      "Ġhappiness": 6805,
      "ancing": 6806,
      "coming": 6807,
      "Ġrule": 6808,
      "ĠPhill": 6809,
      "ĠEnter": 6810,
      "Ġchallenge": 6811,
      "Ġescapes": 6812,
      "Ġdrinking": 6813,
      "Ġweapons": 6814,
      "Ġquirky": 6815,
      "kind": 6816,
      "zil": 6817,
      "ilton": 6818,
      "ieu": 6819,
      "semble": 6820,
      "char": 6821,
      "ĠBall": 6822,
      "ĠBac": 6823,
      "Ġwears": 6824,
      "ĠWid": 6825,
      "ouses": 6826,
      "aste": 6827,
      "Ġrank": 6828,
      "ianc": 6829,
      "atholic": 6830,
      "Ġenjoying": 6831,
      "onscious": 6832,
      "Ġrelated": 6833,
      "Ġinstall": 6834,
      "Ġhalfway": 6835,
      "Ġsky": 6836,
      "iko": 6837,
      "Ġpresentation": 6838,
      "ĠUSA": 6839,
      "Ġpurely": 6840,
      "Ġautom": 6841,
      "Ġsteps": 6842,
      "Ġembarrassed": 6843,
      "OOD": 6844,
      "ĠOtherwise": 6845,
      "Ġarrives": 6846,
      "Ġreplaced": 6847,
      "Ġmountain": 6848,
      "ĠSusan": 6849,
      "Ġinterpretation": 6850,
      "Ġsinister": 6851,
      "utherland": 6852,
      "Ġgraphics": 6853,
      "\"?": 6854,
      "Ex": 6855,
      "Ġbreaking": 6856,
      "order": 6857,
      "Ġdub": 6858,
      "Ġnom": 6859,
      "alph": 6860,
      "ĠSon": 6861,
      "ĠDie": 6862,
      "Ġsuffe": 6863,
      "Ġexists": 6864,
      "ĠLarry": 6865,
      "Ġrub": 6866,
      "Ġunivers": 6867,
      "igr": 6868,
      "ounding": 6869,
      "ĠKnight": 6870,
      "ĠVirgin": 6871,
      "ĠAlice": 6872,
      "Ġfriendly": 6873,
      "Ġstylish": 6874,
      "Ġconcert": 6875,
      "Ġcorpor": 6876,
      "Ġsuccessfully": 6877,
      "Ġpsychiat": 6878,
      "Ġignore": 6879,
      "Ġcarrying": 6880,
      "ĠSandler": 6881,
      "ĠRogers": 6882,
      "ĠNazi": 6883,
      "CT": 6884,
      "Ġtorn": 6885,
      "iner": 6886,
      "Ġcases": 6887,
      "Ġlazy": 6888,
      "ĠTy": 6889,
      "oooo": 6890,
      "ĠSir": 6891,
      "ĠAL": 6892,
      "ĠAp": 6893,
      "ĠBak": 6894,
      "ĠMiller": 6895,
      "Ġvirgin": 6896,
      "ĠLost": 6897,
      "ĠLisa": 6898,
      "umber": 6899,
      "Ġenemy": 6900,
      "Ġadop": 6901,
      "Ġeveryday": 6902,
      "Ġthrowing": 6903,
      "ĠStud": 6904,
      "Ġresist": 6905,
      "Ġrights": 6906,
      "Ġborder": 6907,
      "Ġportra": 6908,
      "Ġconfusion": 6909,
      "Ġattempting": 6910,
      "ĠAtl": 6911,
      "Ġindie": 6912,
      "Ġdaughters": 6913,
      "Ġsleazy": 6914,
      "Ġmentally": 6915,
      "ĠJulie": 6916,
      "ĠWatching": 6917,
      "Ġreference": 6918,
      "ĠZombie": 6919,
      "Ġdetermined": 6920,
      "penter": 6921,
      "Ġobnoxious": 6922,
      "Okay": 6923,
      "ĠMAN": 6924,
      "Ġchair": 6925,
      "ago": 6926,
      "Ġvia": 6927,
      "Ġcharge": 6928,
      "Ġtiming": 6929,
      "irected": 6930,
      "beit": 6931,
      "ĠUnder": 6932,
      "Ġraise": 6933,
      "ĠArn": 6934,
      "Ġdeadly": 6935,
      "Ġratings": 6936,
      "ielberg": 6937,
      "Ġattacked": 6938,
      "Ġadventures": 6939,
      "ĠMatth": 6940,
      "Ġproductions": 6941,
      "Ġrisk": 6942,
      "David": 6943,
      "Per": 6944,
      "Ġcy": 6945,
      "Ġpool": 6946,
      "style": 6947,
      "Ġul": 6948,
      "Ġanal": 6949,
      "ira": 6950,
      "roph": 6951,
      "ĠBesides": 6952,
      "Ġvi": 6953,
      "ĠLem": 6954,
      "Ġclips": 6955,
      "aped": 6956,
      "ĠChannel": 6957,
      "Ġhorrific": 6958,
      "Ġcalling": 6959,
      "ĠSoon": 6960,
      "spired": 6961,
      "ĠReed": 6962,
      "Ġmagaz": 6963,
      "Ġspoiler": 6964,
      "ĠJulia": 6965,
      "Ġgoofy": 6966,
      "Ġintensity": 6967,
      "Director": 6968,
      "Fr": 6969,
      "US": 6970,
      "hay": 6971,
      "Ġbon": 6972,
      "Ġdign": 6973,
      "ams": 6974,
      "Ġdogs": 6975,
      "actic": 6976,
      "ĠRec": 6977,
      "Ġarms": 6978,
      "...\"": 6979,
      "Ġgrim": 6980,
      "Ġdecl": 6981,
      "ĠAlt": 6982,
      "Ġtopic": 6983,
      "ĠElizabeth": 6984,
      "Ġimmense": 6985,
      "Ġpupp": 6986,
      "ĠSwed": 6987,
      "ĠHolmes": 6988,
      "Ġneighborhood": 6989,
      "Ġbalance": 6990,
      "Ġaccompan": 6991,
      "Ġashamed": 6992,
      "fits": 6993,
      "zed": 6994,
      "Ġwishes": 6995,
      "erior": 6996,
      "Ġbill": 6997,
      "Ġlaid": 6998,
      "verse": 6999,
      "rial": 7000,
      "ĠPower": 7001,
      "Ġdisgu": 7002,
      "Ġrelax": 7003,
      "ibal": 7004,
      "Ġcoinc": 7005,
      "Ġnightmare": 7006,
      "ĠBeck": 7007,
      "ĠMaria": 7008,
      "Ġtitles": 7009,
      "Ġdriver": 7010,
      "Ġrefuses": 7011,
      "ification": 7012,
      "Ġstops": 7013,
      "Ġatmospher": 7014,
      "going": 7015,
      "Ġrevolves": 7016,
      "ĠTracy": 7017,
      "anchise": 7018,
      "Ġprincip": 7019,
      "Ad": 7020,
      "CK": 7021,
      "die": 7022,
      "lance": 7023,
      "mod": 7024,
      "tes": 7025,
      "isand": 7026,
      "Ġped": 7027,
      "ĠTake": 7028,
      "ety": 7029,
      "ĠSullivan": 7030,
      "rael": 7031,
      "ĠCus": 7032,
      "ĠDal": 7033,
      "Ġovercome": 7034,
      "Ġdislike": 7035,
      "Ġserved": 7036,
      "Ġcheer": 7037,
      "aze": 7038,
      "ĠShar": 7039,
      "umbs": 7040,
      "Ġgrave": 7041,
      "Ġstruggles": 7042,
      "Ġexpressions": 7043,
      "Ġregarding": 7044,
      "ĠStanwyck": 7045,
      "lynn": 7046,
      "Ġsentimental": 7047,
      "Ġfrequently": 7048,
      "Ġestablished": 7049,
      "Ġfabulous": 7050,
      "Ġadvantage": 7051,
      "Bra": 7052,
      "Having": 7053,
      "KE": 7054,
      "can": 7055,
      "iques": 7056,
      "eral": 7057,
      "Ġlust": 7058,
      "story": 7059,
      "ila": 7060,
      "Ġstunt": 7061,
      "cellent": 7062,
      "rab": 7063,
      "Ġattend": 7064,
      "ĠWes": 7065,
      "Ġplastic": 7066,
      "ĠRick": 7067,
      "Ġcance": 7068,
      "Ġlearning": 7069,
      "Ġmansion": 7070,
      "ogical": 7071,
      "ĠVamp": 7072,
      "Ġhorrend": 7073,
      "Ġterrifying": 7074,
      "Ġretarded": 7075,
      "Ã©e": 7076,
      "iamond": 7077,
      "ĠJewish": 7078,
      "Ġimaginative": 7079,
      "Ġpoignant": 7080,
      "ĠBettie": 7081,
      "vably": 7082,
      "Ġtrap": 7083,
      "Ġtense": 7084,
      "Ġphen": 7085,
      "ĠTurn": 7086,
      "iments": 7087,
      "ĠAward": 7088,
      "ĠBack": 7089,
      "ĠHal": 7090,
      "Ġneck": 7091,
      "ĠNel": 7092,
      "Ġlocked": 7093,
      "gettable": 7094,
      "Ġslo": 7095,
      "Ġstupidity": 7096,
      "Ġcredible": 7097,
      "Ġcredibility": 7098,
      "Ġthrilling": 7099,
      "Ġpersonalities": 7100,
      "Ġsleeping": 7101,
      "ĠStanley": 7102,
      "vira": 7103,
      "Ġinterviews": 7104,
      "Ġcynical": 7105,
      "Ġelder": 7106,
      "jud": 7107,
      "mitted": 7108,
      "Ġho": 7109,
      "Ġdude": 7110,
      "Ġmock": 7111,
      "ĠSutherland": 7112,
      "ulate": 7113,
      "Ġdece": 7114,
      "ĠFBI": 7115,
      "ĠNY": 7116,
      "Ġarrog": 7117,
      "Ġprevent": 7118,
      "erek": 7119,
      "ĠChapl": 7120,
      "Ġinco": 7121,
      "ĠBeing": 7122,
      "Ġamazingly": 7123,
      "ONE": 7124,
      "Ġangle": 7125,
      "Ġobsession": 7126,
      "Ġpuzz": 7127,
      "Ġtongue": 7128,
      "60": 7129,
      "end": 7130,
      "when": 7131,
      "watch": 7132,
      "Ġtempt": 7133,
      "inate": 7134,
      "Ġfulf": 7135,
      "adget": 7136,
      "amie": 7137,
      "Ġweight": 7138,
      "Ġshark": 7139,
      "ulk": 7140,
      "ĠDennis": 7141,
      "ĠRen": 7142,
      "ĠRaj": 7143,
      "Ġlegs": 7144,
      "place": 7145,
      "mentioned": 7146,
      "Ġgreatly": 7147,
      "Ġbetray": 7148,
      "Ġrolling": 7149,
      "forward": 7150,
      "Ġspoken": 7151,
      "ersonally": 7152,
      "Ġglimp": 7153,
      "Ġcountries": 7154,
      "Ġdrives": 7155,
      "Ġguessing": 7156,
      "Ġtechnique": 7157,
      "Ġcomedian": 7158,
      "Ġinnov": 7159,
      "Ġattacks": 7160,
      "Ġbroke": 7161,
      "Ġuncomfortable": 7162,
      "Ġsuffered": 7163,
      "Ġglimpse": 7164,
      "fire": 7165,
      "ugh": 7166,
      "vo": 7167,
      "worth": 7168,
      "Ġwasting": 7169,
      "ĠBL": 7170,
      "ĠBaker": 7171,
      "ĠLore": 7172,
      "Ġtrite": 7173,
      "Ġensemble": 7174,
      "berl": 7175,
      "Ġminimal": 7176,
      "Ġtraum": 7177,
      "Ġourselves": 7178,
      "Ġlesser": 7179,
      "Ġmindless": 7180,
      "phan": 7181,
      "Ġsket": 7182,
      "ĠBritain": 7183,
      "Ġpatient": 7184,
      "Ġamongst": 7185,
      "Ġflawed": 7186,
      "liners": 7187,
      "ĠMatrix": 7188,
      "fest": 7189,
      "ipping": 7190,
      "sch": 7191,
      "Ġtree": 7192,
      "inge": 7193,
      "Ġeth": 7194,
      "Ġbutt": 7195,
      "Ġnotable": 7196,
      "Ġalright": 7197,
      "Ġmanager": 7198,
      "Ġenjoyment": 7199,
      "Ġinvis": 7200,
      "Ġmedical": 7201,
      "Ġironic": 7202,
      "Ġweakness": 7203,
      "Ġ2000": 7204,
      "sett": 7205,
      "Unfortunately": 7206,
      "Ġwealthy": 7207,
      "Ġmarvelous": 7208,
      "ĠRochester": 7209,
      "Maybe": 7210,
      "from": 7211,
      "llo": 7212,
      "arm": 7213,
      "iled": 7214,
      "ĠSav": 7215,
      "ĠBurt": 7216,
      "ĠBrend": 7217,
      "Ġshines": 7218,
      "aki": 7219,
      "Ġunh": 7220,
      "ooky": 7221,
      "Ġraw": 7222,
      "Ġtriumph": 7223,
      "Ġconspir": 7224,
      "Ġadding": 7225,
      "Ġshorts": 7226,
      "Ġfallen": 7227,
      "ĠSpielberg": 7228,
      "Ġannoun": 7229,
      "ĠIsrael": 7230,
      "Ġirony": 7231,
      "Ġconnected": 7232,
      "Ġphysically": 7233,
      "ĠBrando": 7234,
      "Ġghosts": 7235,
      "Ġseparate": 7236,
      "Ġcontroversial": 7237,
      "ĠMeanwhile": 7238,
      "ĠWidmark": 7239,
      "LD": 7240,
      "Mr": 7241,
      "TER": 7242,
      "inci": 7243,
      "Ġhors": 7244,
      "Ġgain": 7245,
      "Ġchilling": 7246,
      "Ġchoos": 7247,
      "ĠDi": 7248,
      "ĠDrag": 7249,
      "Ġfranchise": 7250,
      "Ġexer": 7251,
      "acter": 7252,
      "ĠProdu": 7253,
      "ĠLI": 7254,
      "ĠLiving": 7255,
      "ĠRalph": 7256,
      "Ġenorm": 7257,
      "Ġnowadays": 7258,
      "Ġtrial": 7259,
      "Ġperfection": 7260,
      "ĠBlair": 7261,
      "Ġopened": 7262,
      "Ġexceptional": 7263,
      "Ġparall": 7264,
      "Ġequal": 7265,
      "Ġunfold": 7266,
      "Ġsuggests": 7267,
      "Ġinnocence": 7268,
      "Ġspiritual": 7269,
      "ĠBurton": 7270,
      "Ġinitially": 7271,
      "Ġaston": 7272,
      "Ġprotagonists": 7273,
      "ĠBasically": 7274,
      "Ġgripping": 7275,
      "ĠLeslie": 7276,
      "ĠCamer": 7277,
      "ĠJessica": 7278,
      "ĠMatthau": 7279,
      "oved": 7280,
      "Ġtune": 7281,
      "Ġinj": 7282,
      "utch": 7283,
      "ĠSol": 7284,
      "Ġnoted": 7285,
      "ĠDaw": 7286,
      "iffe": 7287,
      "ĠLand": 7288,
      "ĠRep": 7289,
      "Ġrat": 7290,
      "Ġmechan": 7291,
      "inda": 7292,
      "ĠNol": 7293,
      "Ġqueen": 7294,
      "obb": 7295,
      "Ġscripts": 7296,
      "Ġconsists": 7297,
      "Ġelabor": 7298,
      "Ġcaric": 7299,
      "Ġdevelops": 7300,
      "Ġoccup": 7301,
      "Ġmiles": 7302,
      "ĠItaly": 7303,
      "Ġrobot": 7304,
      "ĠWWII": 7305,
      "Ġweapon": 7306,
      "ĠOliv": 7307,
      "ĠAndrews": 7308,
      "Ġthousands": 7309,
      "Ġoblig": 7310,
      "Ġunbear": 7311,
      "Ġatmospheric": 7312,
      "?),": 7313,
      "BS": 7314,
      "Most": 7315,
      "hard": 7316,
      "hold": 7317,
      "wife": 7318,
      "Ġtied": 7319,
      "Ġsings": 7320,
      "Ġbudd": 7321,
      "Ġgather": 7322,
      "Ġstumb": 7323,
      "ĠCandy": 7324,
      "ĠHave": 7325,
      "ĠDE": 7326,
      "ements": 7327,
      "ĠRun": 7328,
      "ĠKen": 7329,
      "Ġspy": 7330,
      "Ġspots": 7331,
      "ĠChurch": 7332,
      "ĠVeg": 7333,
      "ĠIntern": 7334,
      "ocr": 7335,
      "ĠSeagal": 7336,
      "ĠCarpenter": 7337,
      "Ġannoyed": 7338,
      "ĠGeor": 7339,
      "Ġsexuality": 7340,
      "ĠStreisand": 7341,
      "Ġdubbing": 7342,
      "ĠPolice": 7343,
      "Ġhundreds": 7344,
      "ĠVincent": 7345,
      "ĠChaplin": 7346,
      "Wow": 7347,
      "cut": 7348,
      "ket": 7349,
      "writ": 7350,
      "onne": 7351,
      "Ġtow": 7352,
      "bra": 7353,
      "lee": 7354,
      "Ġstates": 7355,
      "Ġaliens": 7356,
      "ĠLion": 7357,
      "ĠRee": 7358,
      "ĠGreg": 7359,
      "Ġmeat": 7360,
      "Ġlovable": 7361,
      "ĠOw": 7362,
      "Ġnose": 7363,
      "Ġmyst": 7364,
      "Ġlessons": 7365,
      "Ġpresum": 7366,
      "annon": 7367,
      "Ġcameos": 7368,
      "Ġdarkness": 7369,
      "ĠOscars": 7370,
      "Ġhoped": 7371,
      "Ġprogress": 7372,
      "ĠTrue": 7373,
      "Ġaccepted": 7374,
      "Ġmeaningful": 7375,
      "ĠIran": 7376,
      "Ġneighb": 7377,
      "Ġmirror": 7378,
      "Ġracism": 7379,
      "Ġperformers": 7380,
      "ĠYeah": 7381,
      "Ġbelongs": 7382,
      "ĠREALLY": 7383,
      "Ġassistant": 7384,
      "Ġwidow": 7385,
      "ĠNelson": 7386,
      "Where": 7387,
      "ez": 7388,
      "Ġaired": 7389,
      "Ġfest": 7390,
      "Ġfirm": 7391,
      "Ġcock": 7392,
      "Ġthick": 7393,
      "idents": 7394,
      "ĠBollywood": 7395,
      "ĠHy": 7396,
      "opath": 7397,
      "ĠRa": 7398,
      "ĠFle": 7399,
      "awa": 7400,
      "Ġguilt": 7401,
      "Ġbackd": 7402,
      "Ġscreenwriter": 7403,
      "retty": 7404,
      "ĠClaire": 7405,
      "ĠRoberts": 7406,
      "Ġlarger": 7407,
      "ĠGuy": 7408,
      "THE": 7409,
      "Ġambig": 7410,
      "Ġspecific": 7411,
      "ĠMichelle": 7412,
      "ĠGeneral": 7413,
      "Am": 7414,
      "ito": 7415,
      "only": 7416,
      "Ġhiding": 7417,
      "Ġlying": 7418,
      "Ġbeating": 7419,
      "Ġreli": 7420,
      "Ġstorm": 7421,
      "oops": 7422,
      "ĠBAD": 7423,
      "ĠWOR": 7424,
      "unn": 7425,
      "Ġactiv": 7426,
      "ĠPL": 7427,
      "ĠFlynn": 7428,
      "ĠGriff": 7429,
      "udson": 7430,
      "acre": 7431,
      "Ġfinan": 7432,
      "Ġletting": 7433,
      "emption": 7434,
      "ĠScar": 7435,
      "Ġeleg": 7436,
      "comedy": 7437,
      "ologist": 7438,
      "Ġmetal": 7439,
      "Ġsurviv": 7440,
      "Arthur": 7441,
      "Ġturkey": 7442,
      "Ġsplendid": 7443,
      "UL": 7444,
      "ype": 7445,
      "hest": 7446,
      "Ġbeach": 7447,
      "seud": 7448,
      "ĠBoll": 7449,
      "Ġcha": 7450,
      "ĠDad": 7451,
      "ifying": 7452,
      "elve": 7453,
      "aky": 7454,
      "ĠLum": 7455,
      "ĠRand": 7456,
      "Ġintention": 7457,
      "ĠFoster": 7458,
      "ĠGhost": 7459,
      "ĠOur": 7460,
      "Ġperpet": 7461,
      "Ġproof": 7462,
      "Ġpointed": 7463,
      "ocal": 7464,
      "Ġsmooth": 7465,
      "ĠThree": 7466,
      "rett": 7467,
      "ĠFriend": 7468,
      "Ġsuperfic": 7469,
      "rified": 7470,
      "Ġafford": 7471,
      "Ġidiotic": 7472,
      "Ġconcerns": 7473,
      "Ġsegments": 7474,
      "ĠUniversal": 7475,
      "Ġadequ": 7476,
      "Rich": 7477,
      "len": 7478,
      "loyd": 7479,
      "Ġwanna": 7480,
      "Ġwreck": 7481,
      "Ġtoile": 7482,
      "Ġnational": 7483,
      "Ġupper": 7484,
      "Ġsends": 7485,
      "ĠCow": 7486,
      "ĠDerek": 7487,
      "ĠPort": 7488,
      "ĠFay": 7489,
      "ĠGoth": 7490,
      "ĠGlover": 7491,
      "Ġunre": 7492,
      "udge": 7493,
      "Ġseeking": 7494,
      "ĠKurt": 7495,
      "avor": 7496,
      "eremy": 7497,
      "ĠHeaven": 7498,
      "Ġexplicit": 7499,
      "ographic": 7500,
      "Ġdialogs": 7501,
      "Ġinfamous": 7502,
      "Ġsolve": 7503,
      "Ġcomplaint": 7504,
      "Ġachieved": 7505,
      "Ġ1940": 7506,
      "ĠLucy": 7507,
      "Ġbroadcast": 7508,
      "ĠWalken": 7509,
      "Ġhooked": 7510,
      "Robert": 7511,
      "Ġtroubled": 7512,
      "Ġbattles": 7513,
      "Ġendearing": 7514,
      "Ġdisagree": 7515,
      "Ġportrait": 7516,
      "ĠArnold": 7517,
      "Ġultra": 7518,
      "Ġhorses": 7519,
      "Gr": 7520,
      "OD": 7521,
      "Tr": 7522,
      "gun": 7523,
      "Ġafore": 7524,
      "hew": 7525,
      "ingu": 7526,
      "asion": 7527,
      "imag": 7528,
      "Ġstiff": 7529,
      "ĠBuck": 7530,
      "ĠMa": 7531,
      "Ġjungle": 7532,
      "Ġrhy": 7533,
      "umble": 7534,
      "Ġpreach": 7535,
      "Ġflu": 7536,
      "Ġunderground": 7537,
      "ĠDefinitely": 7538,
      "Ġhomeless": 7539,
      "Ġexpensive": 7540,
      "Ġdrown": 7541,
      "Ġappearances": 7542,
      "Ġ:)": 7543,
      "Ġessence": 7544,
      "Ġofficial": 7545,
      "ĠLucas": 7546,
      "Ġsearching": 7547,
      "Ġdinner": 7548,
      "horror": 7549,
      "Ġcharisma": 7550,
      "ĠCurtis": 7551,
      "Con": 7552,
      "El": 7553,
      "cies": 7554,
      "hh": 7555,
      "hill": 7556,
      "rich": 7557,
      "Ġtax": 7558,
      "Ġsaves": 7559,
      "Ġmont": 7560,
      "Ġbik": 7561,
      "Ġdump": 7562,
      "Ġguts": 7563,
      "Ġeager": 7564,
      "entric": 7565,
      "ooby": 7566,
      "ĠAz": 7567,
      "ĠAud": 7568,
      "urse": 7569,
      "ĠHome": 7570,
      "Ġchases": 7571,
      "Ġcomfort": 7572,
      "aka": 7573,
      "aude": 7574,
      "ĠEN": 7575,
      "Ġknife": 7576,
      "Ġentry": 7577,
      "Ġripped": 7578,
      "Ġhappily": 7579,
      "Ġfarm": 7580,
      "gging": 7581,
      "ograph": 7582,
      "Ġdragged": 7583,
      "Ġswitch": 7584,
      "Ġdealt": 7585,
      "ANT": 7586,
      "Ġdevil": 7587,
      "Ġdisappear": 7588,
      "Ġdaily": 7589,
      "Ġincoherent": 7590,
      "En": 7591,
      "Jack": 7592,
      "tan": 7593,
      "too": 7594,
      "Ġoil": 7595,
      "Ġhole": 7596,
      "Ġinfect": 7597,
      "brick": 7598,
      "Ġeerie": 7599,
      "ĠTem": 7600,
      "adows": 7601,
      "ĠAge": 7602,
      "ĠCel": 7603,
      "ĠHanks": 7604,
      "ĠDin": 7605,
      "acked": 7606,
      "Ġgoal": 7607,
      "ellar": 7608,
      "ĠKrist": 7609,
      "ogue": 7610,
      "plete": 7611,
      "Ġaged": 7612,
      "Ġspread": 7613,
      "Ġnewsp": 7614,
      "ĠClass": 7615,
      "Ġthrillers": 7616,
      "ĠSomeone": 7617,
      "oilers": 7618,
      "Ġchecking": 7619,
      "Ġstriking": 7620,
      "conom": 7621,
      "Ġcompetent": 7622,
      "Ġurban": 7623,
      "Ġsplit": 7624,
      "Ġreactions": 7625,
      "ĠHelen": 7626,
      "ĠEastwood": 7627,
      "Ġinexplic": 7628,
      "Ġunforgettable": 7629,
      "Ġabrupt": 7630,
      "13": 7631,
      "?).": 7632,
      "vest": 7633,
      "Ġhill": 7634,
      "Ġpseud": 7635,
      "asingly": 7636,
      "lear": 7637,
      "ctions": 7638,
      "ĠSomething": 7639,
      "irit": 7640,
      "ĠWere": 7641,
      "Ġplant": 7642,
      "Ġplague": 7643,
      "Ġvent": 7644,
      "ĠFel": 7645,
      "quis": 7646,
      "Ġtender": 7647,
      "Ġcovers": 7648,
      "Ġrestaur": 7649,
      "ĠBlue": 7650,
      "ĠReyn": 7651,
      "ĠUnlike": 7652,
      "Ġshoots": 7653,
      "Ġtechniques": 7654,
      "Ġ2006": 7655,
      "ĠElvis": 7656,
      "Ġboredom": 7657,
      "ĠSchool": 7658,
      "Ġcolorful": 7659,
      "Ġcrafted": 7660,
      "Ġingred": 7661,
      "ĠCusack": 7662,
      "SPOILERS": 7663,
      "hoe": 7664,
      "iable": 7665,
      "iently": 7666,
      "rep": 7667,
      "Ġcere": 7668,
      "enstein": 7669,
      "Ġthread": 7670,
      "Ġgal": 7671,
      "imum": 7672,
      "Ġsevent": 7673,
      "ĠBach": 7674,
      "uristic": 7675,
      "ĠMom": 7676,
      "ĠHeston": 7677,
      "agan": 7678,
      "Ġalt": 7679,
      "Ġrushed": 7680,
      "ĠJac": 7681,
      "Ġtricks": 7682,
      "ĠOkay": 7683,
      "icker": 7684,
      "Ġposter": 7685,
      "Ġagg": 7686,
      "ishment": 7687,
      "Ġgrows": 7688,
      "Ġ24": 7689,
      "Ġincons": 7690,
      "Ġterrit": 7691,
      "Ġsexually": 7692,
      "Ġexplore": 7693,
      "ierce": 7694,
      "ĠClub": 7695,
      "ĠReg": 7696,
      "Ġcountless": 7697,
      "Ġstrangely": 7698,
      "EAD": 7699,
      "ĠGrace": 7700,
      "Ġmillions": 7701,
      "Ġfolk": 7702,
      "Ġburst": 7703,
      "Ġtribute": 7704,
      "30": 7705,
      "Ġtag": 7706,
      "rell": 7707,
      "Ġthirty": 7708,
      "Ġtoss": 7709,
      "Ġlur": 7710,
      "idel": 7711,
      "ĠMann": 7712,
      "Ġwebs": 7713,
      "ĠHot": 7714,
      "ĠHudson": 7715,
      "ĠFamily": 7716,
      "umm": 7717,
      "ĠGen": 7718,
      "ĠKirk": 7719,
      "Ġshower": 7720,
      "Ġresour": 7721,
      "Ġcarefully": 7722,
      "Ġbasement": 7723,
      "Ġhopefully": 7724,
      "Ġclosely": 7725,
      "Ġstronger": 7726,
      "Ġtransfer": 7727,
      "uclear": 7728,
      "Ġbusy": 7729,
      "ambling": 7730,
      "afia": 7731,
      "Ġstunts": 7732,
      "Ġprofessor": 7733,
      "Ġrepeat": 7734,
      "Ġrepresents": 7735,
      "ĠIII": 7736,
      "minute": 7737,
      "Ġphotographer": 7738,
      "Ġsurrounding": 7739,
      "Ġsurrounded": 7740,
      "ĠThings": 7741,
      "ĠKarloff": 7742,
      "Ġcousin": 7743,
      "Ġhorrendous": 7744,
      "70": 7745,
      "ELL": 7746,
      "book": 7747,
      "rd": 7748,
      "via": 7749,
      "Ġsons": 7750,
      "Ġfish": 7751,
      "atures": 7752,
      "atisf": 7753,
      "arter": 7754,
      "alo": 7755,
      "Ġstated": 7756,
      "rig": 7757,
      "ushes": 7758,
      "ĠLam": 7759,
      "ĠLake": 7760,
      "ĠLane": 7761,
      "Ġintentions": 7762,
      "ĠFu": 7763,
      "ĠFin": 7764,
      "redict": 7765,
      "ĠEst": 7766,
      "Ġfeed": 7767,
      "Ġfears": 7768,
      "Ġquote": 7769,
      "Ġpoet": 7770,
      "new": 7771,
      "Ġdetract": 7772,
      "Ġattempted": 7773,
      "Ġmessages": 7774,
      "Ġcorner": 7775,
      "urious": 7776,
      "Ġlimit": 7777,
      "Ġrequires": 7778,
      "Ġwalls": 7779,
      "Ġoccurs": 7780,
      "Ġstretch": 7781,
      "Ġcharismatic": 7782,
      "Ġvirus": 7783,
      "Ġexercise": 7784,
      "BLE": 7785,
      "Finally": 7786,
      "gain": 7787,
      "why": 7788,
      "Ġ***": 7789,
      "Ġfra": 7790,
      "Ġfired": 7791,
      "esc": 7792,
      "ora": 7793,
      "onse": 7794,
      "ĠIra": 7795,
      "allo": 7796,
      "ĠAT": 7797,
      "ĠCry": 7798,
      "cket": 7799,
      "ifting": 7800,
      "ĠPoint": 7801,
      "ĠLaura": 7802,
      "ĠLloyd": 7803,
      "erty": 7804,
      "ĠAndre": 7805,
      "Ġattached": 7806,
      "riller": 7807,
      "Ġdramas": 7808,
      "Ġdrags": 7809,
      "Ġeasier": 7810,
      "Ġhonor": 7811,
      "ĠCheck": 7812,
      "Ġmadness": 7813,
      "Ġidentify": 7814,
      "Ġsuspects": 7815,
      "ĠCanada": 7816,
      "Ġthousand": 7817,
      "Ġincreasingly": 7818,
      "Ġvacation": 7819,
      "Ġphenomen": 7820,
      "bal": 7821,
      "den": 7822,
      "dated": 7823,
      "Ġwicked": 7824,
      "oni": 7825,
      "ĠMU": 7826,
      "Ġnotch": 7827,
      "Ġexch": 7828,
      "Ġkicks": 7829,
      "ĠLog": 7830,
      "ĠRoll": 7831,
      "ĠKap": 7832,
      "ĠKath": 7833,
      "plots": 7834,
      "....<": 7835,
      "Ġworkers": 7836,
      "ĠChuck": 7837,
      "anging": 7838,
      "thew": 7839,
      "Ġbelieving": 7840,
      "ibl": 7841,
      "ointed": 7842,
      "Ġrestra": 7843,
      "Ġelsewhere": 7844,
      "Ġelev": 7845,
      "Ġbrilliance": 7846,
      "Ġ2001": 7847,
      "Ġfourth": 7848,
      "ĠPrinc": 7849,
      "Ġadapted": 7850,
      "Ġprojects": 7851,
      "Ġprofession": 7852,
      "Ġdropped": 7853,
      "Ġnetwork": 7854,
      "Ġinevitable": 7855,
      "Ġvideos": 7856,
      "Ġlibrary": 7857,
      "Int": 7858,
      "cil": 7859,
      "fact": 7860,
      "hs": 7861,
      "iors": 7862,
      "Ġwave": 7863,
      "orc": 7864,
      "Ġdomin": 7865,
      "Ġeconom": 7866,
      "ĠBol": 7867,
      "ĠBook": 7868,
      "ĠMid": 7869,
      "ĠMass": 7870,
      "Ġshy": 7871,
      "ĠWater": 7872,
      "ĠWoman": 7873,
      "ĠPG": 7874,
      "Ġdepe": 7875,
      "ĠRitter": 7876,
      "Ġramp": 7877,
      "ĠFire": 7878,
      "ĠFalk": 7879,
      "udos": 7880,
      "Ġimit": 7881,
      "Ġflight": 7882,
      "Ġspending": 7883,
      "Ġattraction": 7884,
      "ructed": 7885,
      "Ġhandful": 7886,
      "existent": 7887,
      "Ġpresident": 7888,
      "ĠDev": 7889,
      "Ġrelevant": 7890,
      "Ġconclud": 7891,
      "Ġthrills": 7892,
      "194": 7893,
      "chell": 7894,
      "Ġacceptable": 7895,
      "Ġstrip": 7896,
      "Ġfortune": 7897,
      "Ġencounters": 7898,
      "accur": 7899,
      "Ġassociated": 7900,
      "Ġcabin": 7901,
      "ĠTitanic": 7902,
      "works": 7903,
      "ĠReynolds": 7904,
      "cont": 7905,
      "nes": 7906,
      "pse": 7907,
      "pieces": 7908,
      "such": 7909,
      "hey": 7910,
      "Ġwra": 7911,
      "Ġmes": 7912,
      "ata": 7913,
      "ato": 7914,
      "Ġetern": 7915,
      "entin": 7916,
      "Ġstood": 7917,
      "ĠBette": 7918,
      "ĠCox": 7919,
      "acters": 7920,
      "anting": 7921,
      "Ġalike": 7922,
      "ĠJake": 7923,
      "ĠEnd": 7924,
      "odes": 7925,
      "obe": 7926,
      "Ġenters": 7927,
      "Ġkillings": 7928,
      "Ġrain": 7929,
      "Ġappearing": 7930,
      "Ġpleased": 7931,
      "Ġriding": 7932,
      "unky": 7933,
      "Ġimportance": 7934,
      "ĠDoctor": 7935,
      "rifice": 7936,
      "Ġhype": 7937,
      "ĠMiike": 7938,
      "Ġvulner": 7939,
      "ĠObviously": 7940,
      "ĠDawson": 7941,
      "iation": 7942,
      "nic": 7943,
      "woman": 7944,
      "Ġfaced": 7945,
      "itchen": 7946,
      "Ġcave": 7947,
      "orrow": 7948,
      "ĠAir": 7949,
      "ĠHug": 7950,
      "Ġchasing": 7951,
      "ĠWow": 7952,
      "ĠWitch": 7953,
      "Ġjerk": 7954,
      "Ġruth": 7955,
      "mann": 7956,
      "ccentric": 7957,
      "Ġsuburb": 7958,
      "ĠBrid": 7959,
      "ords": 7960,
      "Ġchildish": 7961,
      "Ġworthless": 7962,
      "Ġuseless": 7963,
      "ĠCarter": 7964,
      "ĠCarrey": 7965,
      "Ġselfish": 7966,
      "Ġimportantly": 7967,
      "ambo": 7968,
      "ĠGolden": 7969,
      "Ġmedium": 7970,
      "ĠActing": 7971,
      "Ġdollar": 7972,
      "ĠScience": 7973,
      "handed": 7974,
      "Ġtorment": 7975,
      "Ġcrisis": 7976,
      "Act": 7977,
      "AIN": 7978,
      "Tit": 7979,
      "cul": 7980,
      "kick": 7981,
      "tte": 7982,
      "inent": 7983,
      "Ġwann": 7984,
      "Ġfitting": 7985,
      "Ġfianc": 7986,
      "Ġhipp": 7987,
      "Ġpush": 7988,
      "ĠImp": 7989,
      "Ġnuts": 7990,
      "Ġmoon": 7991,
      "Ġreb": 7992,
      "Ġhes": 7993,
      "ĠSuch": 7994,
      "roy": 7995,
      "urai": 7996,
      "race": 7997,
      "ĠHunter": 7998,
      "agn": 7999,
      "ĠRing": 8000,
      "ĠRub": 8001,
      "ĠNavy": 8002,
      "Ġune": 8003,
      "Ġunple": 8004,
      "igan": 8005,
      "ĠKane": 8006,
      "Ġprecise": 8007,
      "Ġrealise": 8008,
      "Ġperforming": 8009,
      "Ġcrimes": 8010,
      "ĠAlong": 8011,
      "Ġstranger": 8012,
      "Ġinstantly": 8013,
      "kshay": 8014,
      "Ġadvance": 8015,
      "ĠIndeed": 8016,
      "ĠConn": 8017,
      "Ġcontinued": 8018,
      "Ġinsulting": 8019,
      "Ġkidnapped": 8020,
      "Ġwondered": 8021,
      "âĢĻ": 8022,
      "itizen": 8023,
      "ĠPlanet": 8024,
      "Ġtremendous": 8025,
      "original": 8026,
      "onestly": 8027,
      "Richard": 8028,
      "Ġaforementioned": 8029,
      "!.": 8030,
      "Ġwake": 8031,
      "stop": 8032,
      "rior": 8033,
      "ĠCook": 8034,
      "ĠCatholic": 8035,
      "uments": 8036,
      "ĠGive": 8037,
      "ĠGabr": 8038,
      "Ġbridge": 8039,
      "Ġappalling": 8040,
      "ĠBrook": 8041,
      "Ġinsist": 8042,
      "Ġcreation": 8043,
      "Ġtalked": 8044,
      "Ġmenacing": 8045,
      "ĠReal": 8046,
      "shine": 8047,
      "Ġlisted": 8048,
      "Ġnonetheless": 8049,
      "Ġpleasantly": 8050,
      "Ġflawless": 8051,
      "ĠNightmare": 8052,
      "Ġhomage": 8053,
      "Ġscientists": 8054,
      "Ġindividuals": 8055,
      "ĠMuslim": 8056,
      "ĠAustralia": 8057,
      "ĠCinema": 8058,
      "Ġbreasts": 8059,
      "Ġrevelation": 8060,
      "ĠSatan": 8061,
      "ĠAstaire": 8062,
      "ĠBakshi": 8063,
      "Ġsuperficial": 8064,
      "Ġtoilet": 8065,
      "Pe": 8066,
      "Very": 8067,
      "itchell": 8068,
      "Ġpig": 8069,
      "Ġpushed": 8070,
      "Ġinaccur": 8071,
      "icop": 8072,
      "ado": 8073,
      "ĠBus": 8074,
      "ĠBurns": 8075,
      "Ġchamp": 8076,
      "ĠWind": 8077,
      "Ġallowing": 8078,
      "agney": 8079,
      "ĠLos": 8080,
      "Ġconven": 8081,
      "issy": 8082,
      "Ġbucks": 8083,
      "Ġletter": 8084,
      "ĠSpike": 8085,
      "Ġdrivel": 8086,
      "Ġillustr": 8087,
      "Ġdestruction": 8088,
      "Ġdancer": 8089,
      "Ġloser": 8090,
      "Ġattracted": 8091,
      "Ġbriefly": 8092,
      "Before": 8093,
      "Ġinvestigation": 8094,
      "Ġlabor": 8095,
      "ĠBobby": 8096,
      "Ġresolution": 8097,
      "Ġconsequences": 8098,
      "ĠKorean": 8099,
      "Ġsophisticated": 8100,
      "lon": 8101,
      "ran": 8102,
      "sl": 8103,
      "ux": 8104,
      "van": 8105,
      "Ġtons": 8106,
      "Ġsam": 8107,
      "isions": 8108,
      "Ġhun": 8109,
      "aris": 8110,
      "Ġdust": 8111,
      "Ġdare": 8112,
      "icing": 8113,
      "Ġgift": 8114,
      "Ġnuclear": 8115,
      "Ġheight": 8116,
      "ĠSPOILERS": 8117,
      "urg": 8118,
      "ĠMet": 8119,
      "ĠMother": 8120,
      "ĠHop": 8121,
      "ĠWould": 8122,
      "ĠDom": 8123,
      "acted": 8124,
      "ortal": 8125,
      "Ġrocks": 8126,
      "Ġdisease": 8127,
      "Ġbeings": 8128,
      "ĠShep": 8129,
      "Ġstrang": 8130,
      "Ġpersona": 8131,
      "isms": 8132,
      "Ġartific": 8133,
      "ERE": 8134,
      "Ġsuperhero": 8135,
      "Ġcreators": 8136,
      "......": 8137,
      "ĠArm": 8138,
      "grade": 8139,
      "Ġopposed": 8140,
      "Ġmistaken": 8141,
      "Ġplanning": 8142,
      "ĠElvira": 8143,
      "Ġslightest": 8144,
      "Ġrobber": 8145,
      "Ġcuriosity": 8146,
      "ĠSecret": 8147,
      "Ġcowboy": 8148,
      "Ġwonders": 8149,
      "Ġphilosoph": 8150,
      "ĠDorothy": 8151,
      "ĠFrancisco": 8152,
      "Ġargument": 8153,
      "Ġjealous": 8154,
      "Ġrepetitive": 8155,
      ",,": 8156,
      "erning": 8157,
      "nda": 8158,
      "Ġbold": 8159,
      "ĠIce": 8160,
      "Ġgee": 8161,
      "oto": 8162,
      "Ġnut": 8163,
      "Ġbeast": 8164,
      "ĠSU": 8165,
      "ĠMitch": 8166,
      "raw": 8167,
      "ĠCatherine": 8168,
      "Ġjack": 8169,
      "ĠPan": 8170,
      "ĠFather": 8171,
      "quel": 8172,
      "ĠGRE": 8173,
      "Ġwatches": 8174,
      "Ġgrasp": 8175,
      "ertainly": 8176,
      "icularly": 8177,
      "Ġburied": 8178,
      "Ġeditor": 8179,
      "ixon": 8180,
      "ĠScr": 8181,
      "Ġlacked": 8182,
      "Ġconvol": 8183,
      "pses": 8184,
      "Ġforgive": 8185,
      "Ġsecretary": 8186,
      "spector": 8187,
      "Char": 8188,
      "ĠComedy": 8189,
      "Ġjudg": 8190,
      "Ġpacked": 8191,
      "Ġaccomplished": 8192,
      "Ġincompet": 8193,
      "Ġreunion": 8194,
      "Ġholiday": 8195,
      "Ġpsychiatrist": 8196,
      "Ġinvisible": 8197,
      "Ġunpleasant": 8198,
      "Dan": 8199,
      "corn": 8200,
      "lines": 8201,
      "ped": 8202,
      "Ġcarn": 8203,
      "Ġcared": 8204,
      "Ġpin": 8205,
      "ala": 8206,
      "ĠAlf": 8207,
      "ĠABC": 8208,
      "ĠMA": 8209,
      "ĠCould": 8210,
      "ĠCagney": 8211,
      "Ġjew": 8212,
      "Ġalb": 8213,
      "ĠFarre": 8214,
      "ĠEva": 8215,
      "type": 8216,
      "Ġcharacterization": 8217,
      "obi": 8218,
      "Ġremaining": 8219,
      "Ġdirectorial": 8220,
      "Ġsubplot": 8221,
      "Ġreluct": 8222,
      "veloped": 8223,
      "Ġstruck": 8224,
      "Ġstealing": 8225,
      "Ġinspiring": 8226,
      "Ġambitious": 8227,
      "Ġreplace": 8228,
      "Ġphotographed": 8229,
      "Ġfifteen": 8230,
      "Ġticket": 8231,
      "Ġexaggerated": 8232,
      "Ġoverlooked": 8233,
      "Ġoutrageous": 8234,
      "Ġcaptivating": 8235,
      "Ġinstallment": 8236,
      "writers": 8237,
      "'.<": 8238,
      "uate": 8239,
      "Ġbust": 8240,
      "Ġhitting": 8241,
      "Ġhunting": 8242,
      "Ġdire": 8243,
      "ĠId": 8244,
      "iders": 8245,
      "Ġasp": 8246,
      "Ġshout": 8247,
      "ĠDomin": 8248,
      "think": 8249,
      "Ġrow": 8250,
      "inder": 8251,
      "Ġtimeless": 8252,
      "elli": 8253,
      "Ġoverdone": 8254,
      "Ġprev": 8255,
      "weight": 8256,
      "ĠShaw": 8257,
      "ĠWhatever": 8258,
      "Ġborrow": 8259,
      "ĠUncle": 8260,
      "Ġhearts": 8261,
      "Ġgenerous": 8262,
      "oiler": 8263,
      "ĠGrade": 8264,
      "Ġdocumentaries": 8265,
      "ĠNeed": 8266,
      "Ġrevealing": 8267,
      "Ġstrike": 8268,
      "Ġredemption": 8269,
      "Ġresponse": 8270,
      "Ġestate": 8271,
      "Ġraped": 8272,
      "ĠProbably": 8273,
      "Ġcompetition": 8274,
      "Ġbullets": 8275,
      "Ġbeaten": 8276,
      "Ġmelodramatic": 8277,
      "ĠSilver": 8278,
      "ĠLeonard": 8279,
      "Ġmiserably": 8280,
      "ĠBrosnan": 8281,
      "Ġsubsequent": 8282,
      "ĠCameron": 8283,
      "hoeven": 8284,
      "See": 8285,
      "iber": 8286,
      "Ġsail": 8287,
      "Ġsaf": 8288,
      "aning": 8289,
      "Ġpa": 8290,
      "Ġeccentric": 8291,
      "Ġnail": 8292,
      "aled": 8293,
      "seen": 8294,
      "ĠBart": 8295,
      "ĠMas": 8296,
      "ĠCIA": 8297,
      "Ġchap": 8298,
      "istically": 8299,
      "ĠRuth": 8300,
      "ĠKaz": 8301,
      "Ġclues": 8302,
      "Ġgrou": 8303,
      "Ġ21": 8304,
      "Ġfactory": 8305,
      "Ġcompassion": 8306,
      "Ġembr": 8307,
      "Ġfarce": 8308,
      "Ġabsorb": 8309,
      "ĠClint": 8310,
      "Ġstyl": 8311,
      "Ġmorality": 8312,
      "Ġbrand": 8313,
      "Ġtechnically": 8314,
      "Ġpulling": 8315,
      "ĠNext": 8316,
      "ĠPlay": 8317,
      "Ġignored": 8318,
      "Ġreduced": 8319,
      "onsidering": 8320,
      "Ġstrictly": 8321,
      "Ġdignity": 8322,
      "bidden": 8323,
      "ration": 8324,
      "isation": 8325,
      "Ġmaid": 8326,
      "Ġhung": 8327,
      "Ġtoy": 8328,
      "Ġtool": 8329,
      "Ġsticks": 8330,
      "keys": 8331,
      "ĠSally": 8332,
      "ĠAcc": 8333,
      "ĠMild": 8334,
      "ĠMach": 8335,
      "ĠCre": 8336,
      "Ġfrustrated": 8337,
      "Ġvicious": 8338,
      "Ġvenge": 8339,
      "estic": 8340,
      "Ġwheel": 8341,
      "ĠFisher": 8342,
      "ĠJer": 8343,
      "ablish": 8344,
      "Ġprec": 8345,
      "hattan": 8346,
      "anski": 8347,
      "Ġaccused": 8348,
      "Ġdarker": 8349,
      "ĠDavies": 8350,
      "AND": 8351,
      "Star": 8352,
      "ventually": 8353,
      "ĠGoldberg": 8354,
      "Ġdraws": 8355,
      "Once": 8356,
      "Ġuninspired": 8357,
      "Ġintrigued": 8358,
      "ĠDenzel": 8359,
      "Ġachievement": 8360,
      "Ġingen": 8361,
      "Ġobscure": 8362,
      "ĠNEVER": 8363,
      "ĠFranco": 8364,
      "Ġelderly": 8365,
      "Ġterritory": 8366,
      "Ge": 8367,
      "cula": 8368,
      "ds": 8369,
      "paced": 8370,
      "uity": 8371,
      "video": 8372,
      "Ġsag": 8373,
      "rer": 8374,
      "Ġwrap": 8375,
      "Ġought": 8376,
      "ingers": 8377,
      "Ġcorn": 8378,
      "oric": 8379,
      "Ġhire": 8380,
      "Ġhunt": 8381,
      "Ġinher": 8382,
      "Ġnine": 8383,
      "terday": 8384,
      "ĠCost": 8385,
      "ĠHas": 8386,
      "Ġareas": 8387,
      "Ġshall": 8388,
      "Ġexhib": 8389,
      "Ġcomics": 8390,
      "Ġabys": 8391,
      "ophy": 8392,
      "Ġintr": 8393,
      "ĠFall": 8394,
      "ĠGal": 8395,
      "ortion": 8396,
      "Ġnoble": 8397,
      "abel": 8398,
      "ables": 8399,
      "wered": 8400,
      "because": 8401,
      "Ġchest": 8402,
      "Ġdiff": 8403,
      "Ġstring": 8404,
      "ĠThink": 8405,
      "Ġaddict": 8406,
      "ĠScooby": 8407,
      "Ġtales": 8408,
      "Ġassault": 8409,
      "Ġpatri": 8410,
      "Ġreturned": 8411,
      "Ġmarks": 8412,
      "Ġsuperbly": 8413,
      "Ġobser": 8414,
      "Ġgrandmother": 8415,
      "Ġsympath": 8416,
      "Ġbleak": 8417,
      "ĠCraven": 8418,
      "Ġlogical": 8419,
      "Ġdiscussion": 8420,
      "Ġmotivation": 8421,
      "Ġsacrifice": 8422,
      "ĠVerhoeven": 8423,
      "Ġunintentionally": 8424,
      "ĠKubrick": 8425,
      "Ġthroat": 8426,
      "Perhaps": 8427,
      "ĠFelix": 8428,
      "Ġconvoluted": 8429,
      "Great": 8430,
      "HING": 8431,
      "Tom": 8432,
      "iar": 8433,
      "rase": 8434,
      "sky": 8435,
      "Ġ**": 8436,
      "Ġcandy": 8437,
      "Ġhood": 8438,
      "Ġgimm": 8439,
      "also": 8440,
      "ilted": 8441,
      "verty": 8442,
      "sex": 8443,
      "Ġstead": 8444,
      "Ġchain": 8445,
      "Ġsuits": 8446,
      "antis": 8447,
      "Ġoutcome": 8448,
      "ĠFul": 8449,
      "ĠNet": 8450,
      "ello": 8451,
      "plo": 8452,
      "Ġclown": 8453,
      "erto": 8454,
      "Ġspooky": 8455,
      "obal": 8456,
      "izard": 8457,
      "Ġhorrid": 8458,
      "Ġslim": 8459,
      "Ġreasonable": 8460,
      "Ġreasonably": 8461,
      "Ġhelicop": 8462,
      "Ġmaint": 8463,
      "Ġconserv": 8464,
      "Its": 8465,
      "Ġdistance": 8466,
      "ĠRobb": 8467,
      "onym": 8468,
      "ĠWells": 8469,
      "Ġadmitted": 8470,
      "196": 8471,
      "Ġpolitic": 8472,
      "ĠPerry": 8473,
      "ĠNeil": 8474,
      "Ġspoiled": 8475,
      "ĠFilms": 8476,
      "Ġrequire": 8477,
      "ĠAlexander": 8478,
      "Ġdefend": 8479,
      "Ġduo": 8480,
      "ĠLaurel": 8481,
      "Ġcardboard": 8482,
      "Ġhysterical": 8483,
      "Ġmagazine": 8484,
      "Ġelaborate": 8485,
      "Sec": 8486,
      "ees": 8487,
      "mail": 8488,
      "town": 8489,
      "yc": 8490,
      "ĠâĢ": 8491,
      "Ġfrag": 8492,
      "Ġcried": 8493,
      "Ġgar": 8494,
      "otal": 8495,
      "stars": 8496,
      "ĠTen": 8497,
      "Ġstone": 8498,
      "ĠAle": 8499,
      "ĠMars": 8500,
      "ĠMupp": 8501,
      "Ġnotorious": 8502,
      "Ġwhoever": 8503,
      "Ġworried": 8504,
      "ĠJosh": 8505,
      "igo": 8506,
      "Ġpretend": 8507,
      "Ġpartly": 8508,
      "Ġtea": 8509,
      "Ġrelent": 8510,
      "nery": 8511,
      "Ġdistant": 8512,
      "Ġfailing": 8513,
      "Ġcollabor": 8514,
      "195": 8515,
      "Ġangel": 8516,
      "Ġpremie": 8517,
      "Ġboxing": 8518,
      "Though": 8519,
      "Ġrapid": 8520,
      "Ġoccurred": 8521,
      "Ġinternet": 8522,
      "Ġlifetime": 8523,
      "ĠEyre": 8524,
      "Ġaimed": 8525,
      "ĠDuke": 8526,
      "Ġbathroom": 8527,
      "Ġarrested": 8528,
      "Ġlandscape": 8529,
      "rehensible": 8530,
      "Ġunbearable": 8531,
      "box": 8532,
      "dri": 8533,
      "hour": 8534,
      "jo": 8535,
      "ni": 8536,
      "rink": 8537,
      "Ġ;": 8538,
      "Ġfox": 8539,
      "itar": 8540,
      "Ġdict": 8541,
      "Ġreached": 8542,
      "Ġasse": 8543,
      "ĠSN": 8544,
      "ĠSab": 8545,
      "urance": 8546,
      "ĠHind": 8547,
      "ĠDri": 8548,
      "olves": 8549,
      "ĠRome": 8550,
      "Ġranks": 8551,
      "Ġintent": 8552,
      "Ġconve": 8553,
      "ĠGun": 8554,
      "ĠNic": 8555,
      "Ġunsett": 8556,
      "Ġpoverty": 8557,
      "Ġprecious": 8558,
      "Ġdisplays": 8559,
      "aws": 8560,
      "Ġblank": 8561,
      "atingly": 8562,
      "ĠAlmost": 8563,
      "Ġdifferences": 8564,
      "ortunately": 8565,
      "Ġdefinite": 8566,
      "Ġstudios": 8567,
      "oubted": 8568,
      "Ġdemons": 8569,
      "Ġdemands": 8570,
      "Ġsatir": 8571,
      "Ġiron": 8572,
      "Ġpicking": 8573,
      "Ġreturning": 8574,
      "Still": 8575,
      "Ġengine": 8576,
      "Ġexisted": 8577,
      "bsolute": 8578,
      "Ġblend": 8579,
      "ĠSeriously": 8580,
      "Ġarrive": 8581,
      "Ġfatal": 8582,
      "Ġmerit": 8583,
      "Ġaffected": 8584,
      "Ġcommercials": 8585,
      "Ġrepeatedly": 8586,
      "Ġresembles": 8587,
      "ĠNevertheless": 8588,
      "Ġsedu": 8589,
      "ĠRomero": 8590,
      "Ġinhabit": 8591,
      "Ġsloppy": 8592,
      "Ġrestaurant": 8593,
      "pin": 8594,
      "ti": 8595,
      "Ġthrew": 8596,
      "Ġdre": 8597,
      "Ġinform": 8598,
      "Ġlake": 8599,
      "Ġ/>'": 8600,
      "Ġbeer": 8601,
      "ione": 8602,
      "ĠSC": 8603,
      "ĠMitchell": 8604,
      "Ġchances": 8605,
      "ĠJeremy": 8606,
      "ĠEX": 8607,
      "ĠOz": 8608,
      "Ġnoise": 8609,
      "eller": 8610,
      "abs": 8611,
      "ĠKat": 8612,
      "ĠVo": 8613,
      "Ġrive": 8614,
      "Ġenjoys": 8615,
      "oviet": 8616,
      "Ġ45": 8617,
      "Ġproviding": 8618,
      "Ġpsychotic": 8619,
      "Ġridiculously": 8620,
      "Ġmovements": 8621,
      "Ġswear": 8622,
      "Ġantics": 8623,
      "Ġilleg": 8624,
      "Ġreceive": 8625,
      "Ġimproved": 8626,
      "Ġidiots": 8627,
      "Donald": 8628,
      "ĠBerg": 8629,
      "Ġburned": 8630,
      "Ġelectric": 8631,
      "Ġchoreography": 8632,
      "ĠBeatty": 8633,
      "Ġinvolvement": 8634,
      "ĠPicture": 8635,
      "Ġconspiracy": 8636,
      "ĠGothic": 8637,
      "Ġwebsite": 8638,
      "Com": 8639,
      "Other": 8640,
      "got": 8641,
      "lers": 8642,
      "lest": 8643,
      "makers": 8644,
      "Ġ..": 8645,
      "Ġsize": 8646,
      "Ġwack": 8647,
      "Ġfoul": 8648,
      "Ġcul": 8649,
      "enes": 8650,
      "Ġdentist": 8651,
      "icism": 8652,
      "Ġgut": 8653,
      "Ġgif": 8654,
      "Ġnerv": 8655,
      "ĠTur": 8656,
      "verted": 8657,
      "idy": 8658,
      "cend": 8659,
      "ĠSorry": 8660,
      "ĠBush": 8661,
      "ĠMort": 8662,
      "ĠRather": 8663,
      "ĠGrey": 8664,
      "Ġuneven": 8665,
      "Ġtrade": 8666,
      "Ġblast": 8667,
      "Ġsport": 8668,
      "Ġafterwards": 8669,
      "Ġhumili": 8670,
      "Ġscripted": 8671,
      "ĠShah": 8672,
      "Ġabsence": 8673,
      "ĠSeason": 8674,
      "193": 8675,
      "ĠIndians": 8676,
      "Ġoddly": 8677,
      "ĠMorris": 8678,
      "Ġstrikes": 8679,
      "Ġobserv": 8680,
      "Ġrespond": 8681,
      "ĠTimothy": 8682,
      "Ġrecognized": 8683,
      "Ġjumping": 8684,
      "Ġtortured": 8685,
      "Ġthreatening": 8686,
      "Ġunwatch": 8687,
      "Ġproceedings": 8688,
      "Ġjuven": 8689,
      "Ġmetaphor": 8690,
      "ĠAltman": 8691,
      "ĠTurner": 8692,
      "ĠGriffith": 8693,
      "\";": 8694,
      "CE": 8695,
      "SS": 8696,
      "mit": 8697,
      "Ġmaker": 8698,
      "itudes": 8699,
      "atched": 8700,
      "ĠIan": 8701,
      "ĠIng": 8702,
      "Ġnause": 8703,
      "ĠCher": 8704,
      "ĠDirect": 8705,
      "Ġextended": 8706,
      "ĠRiver": 8707,
      "ĠGil": 8708,
      "Ġargue": 8709,
      "Ġpoison": 8710,
      "ĠUltim": 8711,
      "Ġsettle": 8712,
      "Ġgotta": 8713,
      "ĠJoey": 8714,
      "Ġinsert": 8715,
      "cover": 8716,
      "ecess": 8717,
      "ĠBlake": 8718,
      "Ġfancy": 8719,
      "Ġmisses": 8720,
      "lands": 8721,
      "Ġimagined": 8722,
      "Ġexposed": 8723,
      "ĠMystery": 8724,
      "Ġconcerning": 8725,
      "Ġsadness": 8726,
      "Ġsadistic": 8727,
      "Ġpopulation": 8728,
      "ĠDanes": 8729,
      "Ġunfair": 8730,
      "Ġscreams": 8731,
      "related": 8732,
      "Ġinvestigate": 8733,
      "ĠHamilton": 8734,
      "opsis": 8735,
      "Ġsymbolism": 8736,
      "ĠCentury": 8737,
      "ĠKennedy": 8738,
      "Ġdynamic": 8739,
      "Ġastonishing": 8740,
      "Ġruthless": 8741,
      "La": 8742,
      "Ser": 8743,
      "burn": 8744,
      "foot": 8745,
      "ho": 8746,
      "la": 8747,
      "Ġ=": 8748,
      "Ġack": 8749,
      "Ġsales": 8750,
      "Ġcroc": 8751,
      "Ġpiano": 8752,
      "Ġbefriend": 8753,
      "imated": 8754,
      "ĠMade": 8755,
      "ĠCont": 8756,
      "emark": 8757,
      "Ġkitchen": 8758,
      "Ġalbeit": 8759,
      "ĠPu": 8760,
      "ĠRow": 8761,
      "Ġcliff": 8762,
      "...)": 8763,
      "Ġroot": 8764,
      "Ġfunction": 8765,
      "eping": 8766,
      "obic": 8767,
      "ĠHeart": 8768,
      "ruci": 8769,
      "ographed": 8770,
      "Ġtypically": 8771,
      "ĠPeck": 8772,
      "Ġdevast": 8773,
      "Ġdevoted": 8774,
      "Ġengaged": 8775,
      "Ġtrend": 8776,
      "Ġintrigue": 8777,
      "Ġmachines": 8778,
      "Ġwesterns": 8779,
      "ĠJesse": 8780,
      "Ġhighlights": 8781,
      "Ġbirthday": 8782,
      "Ġgradually": 8783,
      "====": 8784,
      "Ġoverwhelming": 8785,
      "Two": 8786,
      "ketball": 8787,
      "Ġnewspaper": 8788,
      "ĠKapoor": 8789,
      "ĠPrincess": 8790,
      "ĠMildred": 8791,
      "Ġacknow": 8792,
      "Qu": 8793,
      "Se": 8794,
      "bing": 8795,
      "fle": 8796,
      "fight": 8797,
      "gers": 8798,
      "rim": 8799,
      "oral": 8800,
      "Ġpitch": 8801,
      "Ġstaff": 8802,
      "ĠMO": 8803,
      "ĠHank": 8804,
      "uloid": 8805,
      "Ġcomfortable": 8806,
      "ĠPersonally": 8807,
      "ĠLine": 8808,
      "Ġnep": 8809,
      "ĠRoth": 8810,
      "ĠNational": 8811,
      "Ġmaniac": 8812,
      "Ġload": 8813,
      "Ġoverrated": 8814,
      "aware": 8815,
      "eps": 8816,
      "Ġblows": 8817,
      "ipes": 8818,
      "Ġcringe": 8819,
      "Ġimperson": 8820,
      "Ġgenres": 8821,
      "Ġworlds": 8822,
      "Ġacclaim": 8823,
      "Ġliking": 8824,
      "Ġpopcorn": 8825,
      "Ġfuturistic": 8826,
      "Ġ2005": 8827,
      "Ġnearby": 8828,
      "********": 8829,
      "Ġcombat": 8830,
      "Ġmeaningless": 8831,
      "Ġerrors": 8832,
      "OME": 8833,
      "Ġdefeat": 8834,
      "ĠPalma": 8835,
      "Ġdrunken": 8836,
      "ĠNorman": 8837,
      "ffee": 8838,
      "Ġblockbuster": 8839,
      "minded": 8840,
      "ĠModesty": 8841,
      "ĠIreland": 8842,
      "redictable": 8843,
      "des": 8844,
      "ipe": 8845,
      "uated": 8846,
      "Ġaunt": 8847,
      "Ġward": 8848,
      "Ġbog": 8849,
      "Ġbott": 8850,
      "Ġpsy": 8851,
      "ĠMun": 8852,
      "Ġnotes": 8853,
      "Ġnotably": 8854,
      "ĠCold": 8855,
      "Ġabilities": 8856,
      "agine": 8857,
      "thriller": 8858,
      "ĠRes": 8859,
      "ĠRings": 8860,
      "Ġoffering": 8861,
      "obody": 8862,
      "Ġhorrors": 8863,
      "lik": 8864,
      "Ġheaded": 8865,
      "ĠScot": 8866,
      "Ġstyles": 8867,
      "ĠAtt": 8868,
      "Ġtitled": 8869,
      "mares": 8870,
      "Ġnarrator": 8871,
      "Ġdetailed": 8872,
      "Ġexploit": 8873,
      "ĠCorb": 8874,
      "Ġlabel": 8875,
      "Ġescaped": 8876,
      "Ġconversations": 8877,
      "Ġresemblance": 8878,
      "series": 8879,
      "ĠNicholson": 8880,
      "Ġinnovative": 8881,
      "Ġpseudo": 8882,
      "Ġingredients": 8883,
      "Ġmesmer": 8884,
      "Ġgroups": 8885,
      "oubtedly": 8886,
      "Go": 8887,
      "James": 8888,
      "Or": 8889,
      "jointed": 8890,
      "love": 8891,
      "maybe": 8892,
      "uable": 8893,
      "water": 8894,
      "Ã¨": 8895,
      "Ġtame": 8896,
      "Ġtires": 8897,
      "heim": 8898,
      "Ġsill": 8899,
      "itches": 8900,
      "Ġcig": 8901,
      "Ġdaring": 8902,
      "icient": 8903,
      "Ġech": 8904,
      "stage": 8905,
      "Ġbears": 8906,
      "Ġbeats": 8907,
      "Ġstress": 8908,
      "ĠSing": 8909,
      "ĠSummer": 8910,
      "ĠAW": 8911,
      "ĠMiles": 8912,
      "Ġweb": 8913,
      "aks": 8914,
      "ĠPam": 8915,
      "ĠPoor": 8916,
      "ĠLily": 8917,
      "Ġrural": 8918,
      "ĠFOR": 8919,
      "ĠJamie": 8920,
      "umsy": 8921,
      "ĠGarb": 8922,
      "ĠGinger": 8923,
      "aux": 8924,
      "oder": 8925,
      "ĠKay": 8926,
      "plane": 8927,
      "Ġclic": 8928,
      "Ġaging": 8929,
      "ĠVideo": 8930,
      "Ġremoved": 8931,
      "ionship": 8932,
      "Ġapolog": 8933,
      "Ġrelies": 8934,
      "Ġharder": 8935,
      "Ġcoherent": 8936,
      "ERS": 8937,
      "Ġglory": 8938,
      "Ġpossibility": 8939,
      "ĠManhattan": 8940,
      "Ġmisunder": 8941,
      "Ġmurderous": 8942,
      "Ġstaying": 8943,
      "ONG": 8944,
      "Ġproducing": 8945,
      "Ġdisturbed": 8946,
      "ĠWoods": 8947,
      "ĠJuliet": 8948,
      "Ġscientific": 8949,
      "Ġunbelievably": 8950,
      "ĠSeries": 8951,
      "Ġbullet": 8952,
      "Ġsucceeded": 8953,
      "Ġdigital": 8954,
      "Ġorders": 8955,
      "Ġfortun": 8956,
      "ĠTechn": 8957,
      "Ġexplosion": 8958,
      "Ġexplosions": 8959,
      "Ġdistracting": 8960,
      "Ġscheme": 8961,
      "Ġcameras": 8962,
      "ĠLOVE": 8963,
      "ĠMargaret": 8964,
      "ĠFulci": 8965,
      "Ġunwatchable": 8966,
      "Em": 8967,
      "Look": 8968,
      "Su": 8969,
      "hil": 8970,
      "rad": 8971,
      "Ġbes": 8972,
      "Ġcup": 8973,
      "Ġlit": 8974,
      "Ġgro": 8975,
      "Ġego": 8976,
      "ieve": 8977,
      "cean": 8978,
      "ĠSoviet": 8979,
      "ĠAkshay": 8980,
      "ĠHan": 8981,
      "ĠDave": 8982,
      "emies": 8983,
      "estyle": 8984,
      "ĠPur": 8985,
      "ĠFonda": 8986,
      "ĠEver": 8987,
      "ellers": 8988,
      "ĠKar": 8989,
      "aph": 8990,
      "never": 8991,
      "angel": 8992,
      "cience": 8993,
      "ĠStiller": 8994,
      "ocative": 8995,
      "Ġhanded": 8996,
      "Ġcareers": 8997,
      "ahl": 8998,
      "Ġexcruci": 8999,
      "Ġpasses": 9000,
      "Ġbuilds": 9001,
      "ARD": 9002,
      "Ġodds": 9003,
      "Ġdancers": 9004,
      "Ġcatches": 9005,
      "ĠMatthew": 9006,
      "Ġimmigr": 9007,
      "plicity": 9008,
      "Ġclothing": 9009,
      "ACK": 9010,
      "ĠCastle": 9011,
      "Ġjournalist": 9012,
      "Ġdeliberately": 9013,
      "Ġwannabe": 9014,
      "Dr": 9015,
      "gal": 9016,
      "Ġ_": 9017,
      "Ġfart": 9018,
      "Ġbanned": 9019,
      "Ġhunter": 9020,
      "Ġpatter": 9021,
      "ido": 9022,
      "idal": 9023,
      "Ġselling": 9024,
      "ĠMed": 9025,
      "Ġnotion": 9026,
      "ĠDown": 9027,
      "Ġplat": 9028,
      "Ġdear": 9029,
      "ĠReturn": 9030,
      "ĠGw": 9031,
      "ĠGreek": 9032,
      "Ġmeasure": 9033,
      "Ġshel": 9034,
      "ĠKaren": 9035,
      "ourt": 9036,
      "Ġamuse": 9037,
      "Ġslave": 9038,
      "Ġsmoke": 9039,
      "Ġkidding": 9040,
      "Ġexplored": 9041,
      "Ġglamor": 9042,
      "Ġportion": 9043,
      "Ġconventional": 9044,
      "Ġgrab": 9045,
      "Ġsadd": 9046,
      "Ġpredecess": 9047,
      "Ġsubjects": 9048,
      "udden": 9049,
      "Ġdrawing": 9050,
      "Ġsouls": 9051,
      "ĠCraig": 9052,
      "Ġaffection": 9053,
      "ĠHighly": 9054,
      "Ġimplausible": 9055,
      "ixture": 9056,
      "ĠWallace": 9057,
      "ĠFlorida": 9058,
      "Ġscratch": 9059,
      "school": 9060,
      "ĠDragon": 9061,
      "Ġbackdrop": 9062,
      "Ġfinancial": 9063,
      "Ġadequate": 9064,
      "Ġjuvenile": 9065,
      "Hey": 9066,
      "Please": 9067,
      "conscious": 9068,
      "gren": 9069,
      "rict": 9070,
      "ses": 9071,
      "say": 9072,
      "zen": 9073,
      "zilla": 9074,
      "Ġbin": 9075,
      "itched": 9076,
      "oner": 9077,
      "oning": 9078,
      "aser": 9079,
      "Ġinapp": 9080,
      "Ġease": 9081,
      "ĠTodd": 9082,
      "ayed": 9083,
      "Ġanx": 9084,
      "aman": 9085,
      "ameless": 9086,
      "rah": 9087,
      "Ġshadows": 9088,
      "ularly": 9089,
      "ĠDoc": 9090,
      "Ġdoors": 9091,
      "ĠPy": 9092,
      "ĠPretty": 9093,
      "ĠFore": 9094,
      "ĠFool": 9095,
      "Ġleague": 9096,
      "odge": 9097,
      "Ġimpe": 9098,
      "Ġadoles": 9099,
      "Ġcharacteristic": 9100,
      "Ġslick": 9101,
      "Ġdecisions": 9102,
      "Ġtracks": 9103,
      "ĠShir": 9104,
      "Ġcoffee": 9105,
      "Ġinterrupt": 9106,
      "ĠRevol": 9107,
      "Ġindul": 9108,
      "Ġcorpse": 9109,
      "umentary": 9110,
      "Ġtransp": 9111,
      "Ġadmir": 9112,
      "Ġmotor": 9113,
      "ĠGodfather": 9114,
      "Ġcountryside": 9115,
      "Ġunfolds": 9116,
      "Ġcausing": 9117,
      "gypt": 9118,
      "Ġsilver": 9119,
      "Ġoffended": 9120,
      "Ġloosely": 9121,
      "Ġprimary": 9122,
      "Ġhideous": 9123,
      "ĠGlenn": 9124,
      "Ġdozens": 9125,
      "ĠLawrence": 9126,
      "Ġconsistently": 9127,
      "Ġvulgar": 9128,
      "Ġliberal": 9129,
      "ĠBrooklyn": 9130,
      "ĠVoight": 9131,
      "\"...": 9132,
      "bed": 9133,
      "gate": 9134,
      "Ġsand": 9135,
      "Ġmic": 9136,
      "Ġmixture": 9137,
      "Ġbone": 9138,
      "Ġhates": 9139,
      "omn": 9140,
      "Ġreaches": 9141,
      "Ġstro": 9142,
      "ĠBull": 9143,
      "ĠMol": 9144,
      "ĠHung": 9145,
      "ĠHomer": 9146,
      "ĠPot": 9147,
      "ĠFurther": 9148,
      "Ġclumsy": 9149,
      "nered": 9150,
      "Ġawe": 9151,
      "ĠStars": 9152,
      "Ġperformer": 9153,
      "ĠUN": 9154,
      "Ġcomposed": 9155,
      "Ġtrio": 9156,
      "Ġthoughtful": 9157,
      "ĠBrady": 9158,
      "gger": 9159,
      "Ġcoach": 9160,
      "ĠThanks": 9161,
      "Ġdialogues": 9162,
      "fined": 9163,
      "incingly": 9164,
      "ĠMcL": 9165,
      "Ġsteam": 9166,
      "Ġdevoid": 9167,
      "ĠWarren": 9168,
      "chest": 9169,
      "Ġtrees": 9170,
      "Ġavoided": 9171,
      "Ġtrademark": 9172,
      "Ġsatisfied": 9173,
      "Ġtravels": 9174,
      "warming": 9175,
      "ĠHamlet": 9176,
      "Ġdescribes": 9177,
      "Ġlifestyle": 9178,
      "Ġgolden": 9179,
      "Black": 9180,
      "Ġmountains": 9181,
      "Ġbenefit": 9182,
      "Ġsacrific": 9183,
      "ĠNazis": 9184,
      "Ġphilosophy": 9185,
      "Ġfrustration": 9186,
      "yrics": 9187,
      "Ġblatant": 9188,
      "Ġunsettling": 9189,
      "12": 9190,
      "Bas": 9191,
      "Che": 9192,
      "Te": 9193,
      "crow": 9194,
      "great": 9195,
      "oir": 9196,
      "vation": 9197,
      "Ġtall": 9198,
      "Ġsarc": 9199,
      "Ġthumbs": 9200,
      "Ġhouses": 9201,
      "Ġpays": 9202,
      "ican": 9203,
      "otte": 9204,
      "Ġreh": 9205,
      "adine": 9206,
      "Ġstaged": 9207,
      "amera": 9208,
      "ĠSop": 9209,
      "ĠAh": 9210,
      "rier": 9211,
      "ĠMarsh": 9212,
      "ĠCD": 9213,
      "ĠHack": 9214,
      "ĠHurt": 9215,
      "Ġshine": 9216,
      "Ġshirt": 9217,
      "ifically": 9218,
      "Ġexotic": 9219,
      "ĠLive": 9220,
      "Ġouts": 9221,
      "ĠField": 9222,
      "Ġprops": 9223,
      "ĠNov": 9224,
      "icking": 9225,
      "ours": 9226,
      "acies": 9227,
      "Ġdismiss": 9228,
      "Ġdisjointed": 9229,
      "Ġdirects": 9230,
      "anson": 9231,
      "Ġbless": 9232,
      "izable": 9233,
      "Ġresur": 9234,
      "Ġclasses": 9235,
      "Ġaudio": 9236,
      "Ġsmaller": 9237,
      "Ġsidekick": 9238,
      "Ġbrains": 9239,
      "ĠPegg": 9240,
      "ĠPrice": 9241,
      "Ġbackgrounds": 9242,
      "Ġdesperation": 9243,
      "Ġexplaining": 9244,
      "Ġauthority": 9245,
      "Ġurge": 9246,
      "Ġinfluenced": 9247,
      "ĠAngeles": 9248,
      "Ġcurrently": 9249,
      "Ġcelluloid": 9250,
      "Ġhints": 9251,
      "Ġhatred": 9252,
      "Ġstinker": 9253,
      "Ġsynopsis": 9254,
      "Ġfundament": 9255,
      "Ġcannibal": 9256,
      "ĠWhether": 9257,
      "Ġfilth": 9258,
      "ĠLemmon": 9259,
      "Ġimmensely": 9260,
      "Ġenormous": 9261,
      "ifferent": 9262,
      "Ġbuddies": 9263,
      "Ġmontage": 9264,
      "')": 9265,
      "break": 9266,
      "Ġfo": 9267,
      "Ġfinger": 9268,
      "athetic": 9269,
      "leton": 9270,
      "Ġbew": 9271,
      "ĠTry": 9272,
      "Ġwhim": 9273,
      "child": 9274,
      "ceived": 9275,
      "ĠApart": 9276,
      "ĠHBO": 9277,
      "Ġsuited": 9278,
      "Ġdoomed": 9279,
      "agues": 9280,
      "Ġalas": 9281,
      "oples": 9282,
[...]
