{
  "version": "1.0",
  "truncation": null,
  "padding": null,
  "added_tokens": [
    {
      "id": 0,
      "content": "[PAD]",
      "single_word": false,
      "lstrip": false,
      "rstrip": false,
      "normalized": false,
      "special": true
    },
    {
      "id": 1,
      "content": "[UNK]",
      "single_word": false,
      "lstrip": false,
      "rstrip": false,
      "normalized": false,
      "special": true
    },
    {
      "id": 2,
      "content": "<|endoftext|>",
      "single_word": false,
      "lstrip": false,
      "rstrip": false,
      "normalized": false,
      "special": true
    }
  ],
  "normalizer": null,
  "pre_tokenizer": {
    "type": "Sequence",
    "pretokenizers": [
      {
        "type": "Whitespace"
      },
      {
        "type": "Punctuation",
        "behavior": "Isolated"
      }
    ]
  },
  "post_processor": null,
  "decoder": null,
  "model": {
    "type": "BPE",
    "dropout": null,
    "unk_token": "[UNK]",
    "continuing_subword_prefix": null,
    "end_of_word_suffix": null,
    "fuse_unk": false,
    "byte_fallback": false,
    "ignore_merges": false,
    "vocab": {
      "[PAD]": 0,
      "[UNK]": 1,
      "<|endoftext|>": 2,
      "\b": 3,
      "\u0010": 4,
      "!": 5,
      "\"": 6,
      "#": 7,
      "$": 8,
      "%": 9,
      "&": 10,
      "'": 11,
      "(": 12,
      ")": 13,
      "*": 14,
      "+": 15,
      ",": 16,
      "-": 17,
      ".": 18,
      "/": 19,
      "0": 20,
      "1": 21,
      "2": 22,
      "3": 23,
      "4": 24,
      "5": 25,
      "6": 26,
      "7": 27,
      "8": 28,
      "9": 29,
      ":": 30,
      ";": 31,
      "<": 32,
      "=": 33,
      ">": 34,
      "?": 35,
      "@": 36,
      "A": 37,
      "B": 38,
      "C": 39,
      "D": 40,
      "E": 41,
      "F": 42,
      "G": 43,
      "H": 44,
      "I": 45,
      "J": 46,
      "K": 47,
      "L": 48,
      "M": 49,
      "N": 50,
      "O": 51,
      "P": 52,
      "Q": 53,
      "R": 54,
      "S": 55,
      "T": 56,
      "U": 57,
      "V": 58,
      "W": 59,
      "X": 60,
      "Y": 61,
      "Z": 62,
      "[": 63,
      "\\": 64,
      "]": 65,
      "^": 66,
      "_": 67,
      "`": 68,
      "a": 69,
      "b": 70,
      "c": 71,
      "d": 72,
      "e": 73,
      "f": 74,
      "g": 75,
      "h": 76,
      "i": 77,
      "j": 78,
      "k": 79,
      "l": 80,
      "m": 81,
      "n": 82,
      "o": 83,
      "p": 84,
      "q": 85,
      "r": 86,
      "s": 87,
      "t": 88,
      "u": 89,
      "v": 90,
      "w": 91,
      "x": 92,
      "y": 93,
      "z": 94,
      "{": 95,
      "|": 96,
      "}": 97,
      "~": 98,
      "": 99,
      "": 100,
      "": 101,
      "": 102,
      "": 103,
      "": 104,
      "": 105,
      "": 106,
      "": 107,
      "": 108,
      "¡": 109,
      "¢": 110,
      "£": 111,
      "¤": 112,
      "¦": 113,
      "§": 114,
      "¨": 115,
      "«": 116,
      "­": 117,
      "®": 118,
      "°": 119,
      "³": 120,
      "´": 121,
      "·": 122,
      "º": 123,
      "»": 124,
      "½": 125,
      "¾": 126,
      "¿": 127,
      "À": 128,
      "Á": 129,
      "Ã": 130,
      "Ä": 131,
      "Å": 132,
      "È": 133,
      "É": 134,
      "Ê": 135,
      "Õ": 136,
      "Ø": 137,
      "Ü": 138,
      "ß": 139,
      "à": 140,
      "á": 141,
      "â": 142,
      "ã": 143,
      "ä": 144,
      "å": 145,
      "æ": 146,
      "ç": 147,
      "è": 148,
      "é": 149,
      "ê": 150,
      "ë": 151,
      "ì": 152,
      "í": 153,
      "î": 154,
      "ï": 155,
      "ð": 156,
      "ñ": 157,
      "ò": 158,
      "ó": 159,
      "ô": 160,
      "ö": 161,
      "ø": 162,
      "ù": 163,
      "ú": 164,
      "û": 165,
      "ü": 166,
      "ý": 167,
      "ō": 168,
      "–": 169,
      "‘": 170,
      "’": 171,
      "“": 172,
      "”": 173,
      "…": 174,
      "₤": 175,
      "": 176,
      "th": 177,
      "in": 178,
      "er": 179,
      "an": 180,
      "the": 181,
      "is": 182,
      "re": 183,
      "on": 184,
      "en": 185,
      "at": 186,
      "to": 187,
      "ou": 188,
      "ing": 189,
      "es": 190,
      "al": 191,
      "as": 192,
      "and": 193,
      "or": 194,
      "it": 195,
      "of": 196,
      "ar": 197,
      "ed": 198,
      "il": 199,
      "st": 200,
      "ly": 201,
      "he": 202,
      "om": 203,
      "le": 204,
      "se": 205,
      "ch": 206,
      "be": 207,
      "mo": 208,
      "ac": 209,
      "ic": 210,
      "wh": 211,
      "ve": 212,
      "ie": 213,
      "ad": 214,
      "that": 215,
      "ot": 216,
      "ow": 217,
      "ut": 218,
      "ver": 219,
      "ent": 220,
      "this": 221,
      "ion": 222,
      "for": 223,
      "im": 224,
      "ay": 225,
      "ter": 226,
      "gh": 227,
      "li": 228,
      "am": 229,
      "id": 230,
      "mov": 231,
      "was": 232,
      "ith": 233,
      "un": 234,
      "fil": 235,
      "The": 236,
      "film": 237,
      "el": 238,
      "ere": 239,
      "ab": 240,
      "ke": 241,
      "with": 242,
      "oo": 243,
      "ld": 244,
      "his": 245,
      "are": 246,
      "one": 247,
      "movie": 248,
      "ir": 249,
      "out": 250,
      "ha": 251,
      "ge": 252,
      "you": 253,
      "ro": 254,
      "ri": 255,
      "su": 256,
      "all": 257,
      "sh": 258,
      "pe": 259,
      "ce": 260,
      "but": 261,
      "so": 262,
      "ome": 263,
      "ul": 264,
      "pl": 265,
      "de": 266,
      "ally": 267,
      "tor": 268,
      "not": 269,
      "fe": 270,
      "ther": 271,
      "ct": 272,
      "ne": 273,
      "ill": 274,
      "com": 275,
      "ma": 276,
      "tr": 277,
      "ur": 278,
      "sc": 279,
      "ould": 280,
      "ap": 281,
      "act": 282,
      "ex": 283,
      "have": 284,
      "man": 285,
      "ght": 286,
      "po": 287,
      "lo": 288,
      "ust": 289,
      "do": 290,
      "me": 291,
      "est": 292,
      "us": 293,
      "di": 294,
      "some": 295,
      "who": 296,
      "per": 297,
      "end": 298,
      "ess": 299,
      "rom": 300,
      "her": 301,
      "no": 302,
      "con": 303,
      "by": 304,
      "ant": 305,
      "very": 306,
      "ain": 307,
      "art": 308,
      "thing": 309,
      "ood": 310,
      "nd": 311,
      "au": 312,
      "ag": 313,
      "ell": 314,
      "wor": 315,
      "like": 316,
      "see": 317,
      "ol": 318,
      "It": 319,
      "ple": 320,
      "ous": 321,
      "tim": 322,
      "te": 323,
      "up": 324,
      "they": 325,
      "from": 326,
      "ven": 327,
      "if": 328,
      "we": 329,
      "ies": 330,
      "ast": 331,
      "pre": 332,
      "qu": 333,
      "ation": 334,
      "ack": 335,
      "ate": 336,
      "get": 337,
      "ough": 338,
      "ist": 339,
      "pro": 340,
      "ind": 341,
      "has": 342,
      "just": 343,
      "ers": 344,
      "char": 345,
      "about": 346,
      "way": 347,
      "atch": 348,
      "can": 349,
      "ig": 350,
      "ive": 351,
      "go": 352,
      "any": 353,
      "ment": 354,
      "other": 355,
      "my": 356,
      "ook": 357,
      "ard": 358,
      "This": 359,
      "tory": 360,
      "good": 361,
      "Th": 362,
      "more": 363,
      "ure": 364,
      "acter": 365,
      "der": 366,
      "character": 367,
      "ine": 368,
      "ich": 369,
      "what": 370,
      "reat": 371,
      "ong": 372,
      "bo": 373,
      "watch": 374,
      "able": 375,
      "ss": 376,
      "ity": 377,
      "would": 378,
      "now": 379,
      "int": 380,
      "ra": 381,
      "time": 382,
      "there": 383,
      "ite": 384,
      "ak": 385,
      "ound": 386,
      "um": 387,
      "our": 388,
      "gr": 389,
      "story": 390,
      "et": 391,
      "ame": 392,
      "ful": 393,
      "pt": 394,
      "she": 395,
      "most": 396,
      "ck": 397,
      "ight": 398,
      "sp": 399,
      "when": 400,
      "over": 401,
      "which": 402,
      "ide": 403,
      "even": 404,
      "had": 405,
      "gu": 406,
      "only": 407,
      "own": 408,
      "uch": 409,
      "really": 410,
      "scen": 411,
      "ble": 412,
      "Wh": 413,
      "their": 414,
      "him": 415,
      "than": 416,
      "bec": 417,
      "were": 418,
      "itt": 419,
      "ear": 420,
      "play": 421,
      "cl": 422,
      "ever": 423,
      "ade": 424,
      "its": 425,
      "ink": 426,
      "aw": 427,
      "sel": 428,
      "ick": 429,
      "ious": 430,
      "how": 431,
      "ep": 432,
      "did": 433,
      "does": 434,
      "ty": 435,
      "av": 436,
      "bl": 437,
      "show": 438,
      "look": 439,
      "pp": 440,
      "ish": 441,
      "ore": 442,
      "ff": 443,
      "ob": 444,
      "ence": 445,
      "ause": 446,
      "ll": 447,
      "ort": 448,
      "them": 449,
      "bad": 450,
      "ice": 451,
      "ci": 452,
      "off": 453,
      "ass": 454,
      "age": 455,
      "great": 456,
      "well": 457,
      "bet": 458,
      "much": 459,
      "will": 460,
      "ire": 461,
      "too": 462,
      "irst": 463,
      "ople": 464,
      "been": 465,
      "could": 466,
      "thr": 467,
      "In": 468,
      "into": 469,
      "know": 470,
      "ud": 471,
      "dis": 472,
      "real": 473,
      "tw": 474,
      "pr": 475,
      "mak": 476,
      "people": 477,
      "ves": 478,
      "op": 479,
      "think": 480,
      "part": 481,
      "make": 482,
      "dire": 483,
      "wr": 484,
      "because": 485,
      "cr": 486,
      "af": 487,
      "don": 488,
      "made": 489,
      "fun": 490,
      "son": 491,
      "br": 492,
      "old": 493,
      "ser": 494,
      "work": 495,
      "first": 496,
      "every": 497,
      "self": 498,
      "ert": 499,
      "ace": 500,
      "And": 501,
      "ile": 502,
      "also": 503,
      "inter": 504,
      "vie": 505,
      "ny": 506,
      "where": 507,
      "nt": 508,
      "du": 509,
      "ated": 510,
      "But": 511,
      "seem": 512,
      "say": 513,
      "cre": 514,
      "movies": 515,
      "ary": 516,
      "ical": 517,
      "des": 518,
      "jo": 519,
      "spe": 520,
      "low": 521,
      "plot": 522,
      "actor": 523,
      "Ch": 524,
      "characters": 525,
      "view": 526,
      "ans": 527,
      "fa": 528,
      "less": 529,
      "ance": 530,
      "back": 531,
      "ach": 532,
      "point": 533,
      "ng": 534,
      "then": 535,
      "mer": 536,
      "films": 537,
      "year": 538,
      "fect": 539,
      "seen": 540,
      "He": 541,
      "ving": 542,
      "though": 543,
      "acting": 544,
      "fl": 545,
      "want": 546,
      "after": 547,
      "ps": 548,
      "your": 549,
      "being": 550,
      "life": 551,
      "many": 552,
      "ces": 553,
      "min": 554,
      "ittle": 555,
      "ctor": 556,
      "two": 557,
      "love": 558,
      "fin": 559,
      "ict": 560,
      "There": 561,
      "never": 562,
      "iz": 563,
      "ber": 564,
      "str": 565,
      "hor": 566,
      "ang": 567,
      "urn": 568,
      "through": 569,
      "day": 570,
      "co": 571,
      "dr": 572,
      "19": 573,
      "ens": 574,
      "little": 575,
      "try": 576,
      "ction": 577,
      "lie": 578,
      "ily": 579,
      "best": 580,
      "ose": 581,
      "tal": 582,
      "ually": 583,
      "here": 584,
      "cent": 585,
      "ved": 586,
      "ue": 587,
      "fore": 588,
      "ta": 589,
      "ise": 590,
      "ark": 591,
      "better": 592,
      "ting": 593,
      "kill": 594,
      "mat": 595,
      "ild": 596,
      "perfor": 597,
      "ph": 598,
      "gi": 599,
      "ry": 600,
      "should": 601,
      "od": 602,
      "find": 603,
      "scene": 604,
      "If": 605,
      "ought": 606,
      "sur": 607,
      "fri": 608,
      "augh": 609,
      "ev": 610,
      "won": 611,
      "Al": 612,
      "feel": 613,
      "under": 614,
      "igh": 615,
      "read": 616,
      "ef": 617,
      "again": 618,
      "cast": 619,
      "ase": 620,
      "scenes": 621,
      "still": 622,
      "10": 623,
      "ars": 624,
      "cou": 625,
      "interest": 626,
      "ertain": 627,
      "stand": 628,
      "set": 629,
      "ath": 630,
      "irl": 631,
      "ree": 632,
      "such": 633,
      "ning": 634,
      "ave": 635,
      "happ": 636,
      "something": 637,
      "fam": 638,
      "ably": 639,
      "che": 640,
      "lot": 641,
      "gen": 642,
      "ions": 643,
      "belie": 644,
      "may": 645,
      "friend": 646,
      "St": 647,
      "turn": 648,
      "new": 649,
      "ian": 650,
      "ason": 651,
      "vers": 652,
      "ating": 653,
      "ense": 654,
      "these": 655,
      "performan": 656,
      "joy": 657,
      "em": 658,
      "ror": 659,
      "cont": 660,
      "mis": 661,
      "Jo": 662,
      "inal": 663,
      "ip": 664,
      "got": 665,
      "ins": 666,
      "pret": 667,
      "director": 668,
      "down": 669,
      "imp": 670,
      "right": 671,
      "scre": 672,
      "wom": 673,
      "girl": 674,
      "actors": 675,
      "doesn": 676,
      "att": 677,
      "ial": 678,
      "ents": 679,
      "funny": 680,
      "sto": 681,
      "while": 682,
      "ash": 683,
      "pos": 684,
      "comm": 685,
      "years": 686,
      "dy": 687,
      "those": 688,
      "long": 689,
      "times": 690,
      "watching": 691,
      "tak": 692,
      "mem": 693,
      "didn": 694,
      "mus": 695,
      "les": 696,
      "ways": 697,
      "ater": 698,
      "makes": 699,
      "start": 700,
      "pect": 701,
      "enjoy": 702,
      "ult": 703,
      "going": 704,
      "guy": 705,
      "comed": 706,
      "bit": 707,
      "ual": 708,
      "Br": 709,
      "light": 710,
      "orig": 711,
      "hel": 712,
      "red": 713,
      "put": 714,
      "few": 715,
      "produ": 716,
      "before": 717,
      "actually": 718,
      "vis": 719,
      "car": 720,
      "As": 721,
      "same": 722,
      "ia": 723,
      "action": 724,
      "big": 725,
      "diff": 726,
      "why": 727,
      "exc": 728,
      "tri": 729,
      "young": 730,
      "comes": 731,
      "let": 732,
      "fact": 733,
      "ho": 734,
      "laugh": 735,
      "appe": 736,
      "thought": 737,
      "nothing": 738,
      "You": 739,
      "ute": 740,
      "ript": 741,
      "mon": 742,
      "ool": 743,
      "az": 744,
      "sub": 745,
      "another": 746,
      "bu": 747,
      "sa": 748,
      "sing": 749,
      "ste": 750,
      "arr": 751,
      "ress": 752,
      "high": 753,
      "screen": 754,
      "comple": 755,
      "original": 756,
      "quite": 757,
      "rel": 758,
      "ren": 759,
      "cept": 760,
      "hu": 761,
      "world": 762,
      "come": 763,
      "iting": 764,
      "around": 765,
      "seems": 766,
      "So": 767,
      "aut": 768,
      "How": 769,
      "fort": 770,
      "effect": 771,
      "hard": 772,
      "cle": 773,
      "pretty": 774,
      "ings": 775,
      "things": 776,
      "need": 777,
      "por": 778,
      "ner": 779,
      "vi": 780,
      "ince": 781,
      "cial": 782,
      "sm": 783,
      "mind": 784,
      "script": 785,
      "inv": 786,
      "tell": 787,
      "ten": 788,
      "fr": 789,
      "ically": 790,
      "beg": 791,
      "person": 792,
      "kind": 793,
      "ween": 794,
      "enough": 795,
      "ster": 796,
      "horror": 797,
      "gets": 798,
      "ately": 799,
      "bor": 800,
      "kid": 801,
      "take": 802,
      "between": 803,
      "wonder": 804,
      "give": 805,
      "She": 806,
      "ward": 807,
      "meric": 808,
      "ness": 809,
      "press": 810,
      "oc": 811,
      "Americ": 812,
      "vel": 813,
      "comp": 814,
      "What": 815,
      "ular": 816,
      "ations": 817,
      "far": 818,
      "interesting": 819,
      "expect": 820,
      "series": 821,
      "king": 822,
      "hand": 823,
      "sex": 824,
      "main": 825,
      "cess": 826,
      "must": 827,
      "cor": 828,
      "saw": 829,
      "child": 830,
      "class": 831,
      "used": 832,
      "done": 833,
      "reason": 834,
      "grap": 835,
      "care": 836,
      "They": 837,
      "ced": 838,
      "ank": 839,
      "worth": 840,
      "role": 841,
      "led": 842,
      "mom": 843,
      "vious": 844,
      "wood": 845,
      "expl": 846,
      "illi": 847,
      "always": 848,
      "unt": 849,
      "De": 850,
      "isn": 851,
      "lead": 852,
      "ug": 853,
      "sure": 854,
      "least": 855,
      "sequ": 856,
      "comedy": 857,
      "ft": 858,
      "war": 859,
      "ending": 860,
      "beaut": 861,
      "whole": 862,
      "med": 863,
      "line": 864,
      "utes": 865,
      "differ": 866,
      "shot": 867,
      "ouse": 868,
      "family": 869,
      "ased": 870,
      "ale": 871,
      "col": 872,
      "use": 873,
      "both": 874,
      "without": 875,
      "music": 876,
      "call": 877,
      "app": 878,
      "head": 879,
      "making": 880,
      "might": 881,
      "cour": 882,
      "almost": 883,
      "tru": 884,
      "cine": 885,
      "hy": 886,
      "book": 887,
      "An": 888,
      "cam": 889,
      "pie": 890,
      "tem": 891,
      "ey": 892,
      "mot": 893,
      "je": 894,
      "minutes": 895,
      "ible": 896,
      "alo": 897,
      "away": 898,
      "clo": 899,
      "last": 900,
      "land": 901,
      "sound": 902,
      "TH": 903,
      "complete": 904,
      "performance": 905,
      "hn": 906,
      "For": 907,
      "TV": 908,
      "ines": 909,
      "00": 910,
      "bably": 911,
      "anything": 912,
      "ature": 913,
      "dec": 914,
      "audi": 915,
      "add": 916,
      "air": 917,
      "sent": 918,
      "os": 919,
      "mar": 920,
      "ign": 921,
      "boy": 922,
      "cond": 923,
      "uring": 924,
      "iful": 925,
      "woman": 926,
      "ife": 927,
      "rible": 928,
      "run": 929,
      "entertain": 930,
      "ms": 931,
      "Be": 932,
      "No": 933,
      "ional": 934,
      "peri": 935,
      "That": 936,
      "fol": 937,
      "John": 938,
      "sol": 939,
      "found": 940,
      "ext": 941,
      "cially": 942,
      "sid": 943,
      "played": 944,
      "espe": 945,
      "oney": 946,
      "probably": 947,
      "ane": 948,
      "dram": 949,
      "poss": 950,
      "na": 951,
      "ments": 952,
      "rest": 953,
      "sy": 954,
      "val": 955,
      "lack": 956,
      "Le": 957,
      "ying": 958,
      "place": 959,
      "iso": 960,
      "pol": 961,
      "pris": 962,
      "mas": 963,
      "All": 964,
      "ange": 965,
      "rather": 966,
      "My": 967,
      "gl": 968,
      "lik": 969,
      "stu": 970,
      "Chr": 971,
      "mean": 972,
      "ative": 973,
      "era": 974,
      "sho": 975,
      "We": 976,
      "since": 977,
      "sense": 978,
      "cap": 979,
      "top": 980,
      "men": 981,
      "night": 982,
      "worst": 983,
      "Re": 984,
      "course": 985,
      "dialo": 986,
      "episo": 987,
      "happen": 988,
      "When": 989,
      "different": 990,
      "ks": 991,
      "tit": 992,
      "bre": 993,
      "poor": 994,
      "beautiful": 995,
      "sim": 996,
      "ER": 997,
      "cut": 998,
      "pict": 999,
      "body": 1000,
      "hum": 1001,
      "side": 1002,
      "keep": 1003,
      "Hol": 1004,
      "direct": 1005,
      "job": 1006,
      "help": 1007,
      "each": 1008,
      "believe": 1009,
      "vo": 1010,
      "DV": 1011,
      "trying": 1012,
      "goes": 1013,
      "istic": 1014,
      "ither": 1015,
      "looking": 1016,
      "Ne": 1017,
      "sl": 1018,
      "spect": 1019,
      "ted": 1020,
      "plays": 1021,
      "member": 1022,
      "ney": 1023,
      "looks": 1024,
      "ingly": 1025,
      "fully": 1026,
      "ru": 1027,
      "DVD": 1028,
      "alf": 1029,
      "anyone": 1030,
      "yet": 1031,
      "gether": 1032,
      "posed": 1033,
      "commend": 1034,
      "anim": 1035,
      "perfect": 1036,
      "sup": 1037,
      "father": 1038,
      "Ro": 1039,
      "ond": 1040,
      "especially": 1041,
      "Se": 1042,
      "ics": 1043,
      "iter": 1044,
      "stead": 1045,
      "proble": 1046,
      "Mar": 1047,
      "money": 1048,
      "together": 1049,
      "human": 1050,
      "creat": 1051,
      "fan": 1052,
      "wasn": 1053,
      "One": 1054,
      "bud": 1055,
      "ull": 1056,
      "ject": 1057,
      "shows": 1058,
      "Mo": 1059,
      "Ar": 1060,
      "ilar": 1061,
      "fall": 1062,
      "Un": 1063,
      "bro": 1064,
      "having": 1065,
      "arent": 1066,
      "version": 1067,
      "ele": 1068,
      "watched": 1069,
      "American": 1070,
      "bly": 1071,
      "half": 1072,
      "imag": 1073,
      "ality": 1074,
      "Not": 1075,
      "fav": 1076,
      "short": 1077,
      "takes": 1078,
      "sit": 1079,
      "certain": 1080,
      "follow": 1081,
      "usu": 1082,
      "nice": 1083,
      "wife": 1084,
      "rele": 1085,
      "true": 1086,
      "said": 1087,
      "audience": 1088,
      "second": 1089,
      "effects": 1090,
      "cur": 1091,
      "understand": 1092,
      "house": 1093,
      "sch": 1094,
      "ellent": 1095,
      "piece": 1096,
      "ates": 1097,
      "tempt": 1098,
      "recommend": 1099,
      "form": 1100,
      "ons": 1101,
      "cu": 1102,
      "himself": 1103,
      "someone": 1104,
      "At": 1105,
      "rid": 1106,
      "incl": 1107,
      "ism": 1108,
      "vide": 1109,
      "To": 1110,
      "Ste": 1111,
      "als": 1112,
      "review": 1113,
      "gue": 1114,
      "tray": 1115,
      "ames": 1116,
      "else": 1117,
      "hour": 1118,
      "sty": 1119,
      "ship": 1120,
      "special": 1121,
      "cover": 1122,
      "heart": 1123,
      "ts": 1124,
      "ences": 1125,
      "lywood": 1126,
      "word": 1127,
      "den": 1128,
      "begin": 1129,
      "fight": 1130,
      "ix": 1131,
      "obvious": 1132,
      "three": 1133,
      "later": 1134,
      "came": 1135,
      "left": 1136,
      "star": 1137,
      "omb": 1138,
      "super": 1139,
      "mur": 1140,
      "entire": 1141,
      "ists": 1142,
      "idea": 1143,
      "Some": 1144,
      "wn": 1145,
      "imply": 1146,
      "Rob": 1147,
      "invol": 1148,
      "0s": 1149,
      "seeing": 1150,
      "ited": 1151,
      "cho": 1152,
      "cing": 1153,
      "Well": 1154,
      "partic": 1155,
      "excellent": 1156,
      "ition": 1157,
      "ired": 1158,
      "gy": 1159,
      "conv": 1160,
      "However": 1161,
      "everything": 1162,
      "ones": 1163,
      "appoint": 1164,
      "ling": 1165,
      "Pe": 1166,
      "Don": 1167,
      "On": 1168,
      "rent": 1169,
      "upid": 1170,
      "once": 1171,
      "ters": 1172,
      "ends": 1173,
      "ake": 1174,
      "ah": 1175,
      "during": 1176,
      "hero": 1177,
      "io": 1178,
      "reg": 1179,
      "cy": 1180,
      "suc": 1181,
      "using": 1182,
      "ower": 1183,
      "attempt": 1184,
      "ese": 1185,
      "ird": 1186,
      "production": 1187,
      "ries": 1188,
      "everyone": 1189,
      "eas": 1190,
      "ross": 1191,
      "portray": 1192,
      "remember": 1193,
      "miss": 1194,
      "pport": 1195,
      "face": 1196,
      "disappoint": 1197,
      "gener": 1198,
      "fortun": 1199,
      "par": 1200,
      "ared": 1201,
      "simply": 1202,
      "defin": 1203,
      "itch": 1204,
      "Hollywood": 1205,
      "home": 1206,
      "death": 1207,
      "IN": 1208,
      "budget": 1209,
      "ier": 1210,
      "stupid": 1211,
      "Gr": 1212,
      "completely": 1213,
      "Fr": 1214,
      "given": 1215,
      "cer": 1216,
      "arly": 1217,
      "ref": 1218,
      "solute": 1219,
      "loc": 1220,
      "friends": 1221,
      "song": 1222,
      "open": 1223,
      "serious": 1224,
      "mess": 1225,
      "supposed": 1226,
      "pain": 1227,
      "sider": 1228,
      "sort": 1229,
      "num": 1230,
      "uck": 1231,
      "eng": 1232,
      "pass": 1233,
      "tra": 1234,
      "wrong": 1235,
      "performances": 1236,
      "que": 1237,
      "ures": 1238,
      "Car": 1239,
      "cop": 1240,
      "fel": 1241,
      "itten": 1242,
      "fail": 1243,
      "ident": 1244,
      "either": 1245,
      "lig": 1246,
      "Bo": 1247,
      "graphy": 1248,
      "fo": 1249,
      "particular": 1250,
      "camera": 1251,
      "black": 1252,
      "small": 1253,
      "boring": 1254,
      "kids": 1255,
      "classic": 1256,
      "ley": 1257,
      "band": 1258,
      "exam": 1259,
      "emot": 1260,
      "except": 1261,
      "AN": 1262,
      "xt": 1263,
      "Sh": 1264,
      "dri": 1265,
      "surpris": 1266,
      "ned": 1267,
      "along": 1268,
      "women": 1269,
      "Cl": 1270,
      "velo": 1271,
      "ready": 1272,
      "absolute": 1273,
      "Af": 1274,
      "ery": 1275,
      "haps": 1276,
      "mother": 1277,
      "ream": 1278,
      "school": 1279,
      "until": 1280,
      "Christ": 1281,
      "awful": 1282,
      "live": 1283,
      "present": 1284,
      "favor": 1285,
      "ret": 1286,
      "viol": 1287,
      "wa": 1288,
      "Mr": 1289,
      "couple": 1290,
      "ory": 1291,
      "sul": 1292,
      "coun": 1293,
      "ors": 1294,
      "ming": 1295,
      "ities": 1296,
      "playing": 1297,
      "allow": 1298,
      "itely": 1299,
      "Even": 1300,
      "ides": 1301,
      "develo": 1302,
      "ton": 1303,
      "iness": 1304,
      "truly": 1305,
      "moments": 1306,
      "name": 1307,
      "flick": 1308,
      "ime": 1309,
      "consider": 1310,
      "getting": 1311,
      "ize": 1312,
      "wal": 1313,
      "instead": 1314,
      "amaz": 1315,
      "lines": 1316,
      "quest": 1317,
      "amp": 1318,
      "full": 1319,
      "video": 1320,
      "case": 1321,
      "feature": 1322,
      "dead": 1323,
      "includ": 1324,
      "stars": 1325,
      "slow": 1326,
      "After": 1327,
      "ky": 1328,
      "ike": 1329,
      "ote": 1330,
      "doing": 1331,
      "murder": 1332,
      "nor": 1333,
      "ler": 1334,
      "episode": 1335,
      "humor": 1336,
      "dist": 1337,
      "ger": 1338,
      "power": 1339,
      "sil": 1340,
      "felt": 1341,
      "Man": 1342,
      "sad": 1343,
      "mention": 1344,
      "room": 1345,
      "gives": 1346,
      "THE": 1347,
      "ility": 1348,
      "liked": 1349,
      "fant": 1350,
      "adv": 1351,
      "unch": 1352,
      "lish": 1353,
      "sever": 1354,
      "bed": 1355,
      "male": 1356,
      "pu": 1357,
      "written": 1358,
      "style": 1359,
      "His": 1360,
      "tern": 1361,
      "often": 1362,
      "Dav": 1363,
      "pa": 1364,
      "others": 1365,
      "sci": 1366,
      "itself": 1367,
      "experi": 1368,
      "Lu": 1369,
      "although": 1370,
      "talent": 1371,
      "drama": 1372,
      "non": 1373,
      "bas": 1374,
      "impress": 1375,
      "aring": 1376,
      "mark": 1377,
      "aged": 1378,
      "wonderful": 1379,
      "Jack": 1380,
      "iv": 1381,
      "however": 1382,
      "early": 1383,
      "become": 1384,
      "kes": 1385,
      "meet": 1386,
      "next": 1387,
      "Sp": 1388,
      "terrible": 1389,
      "strong": 1390,
      "actress": 1391,
      "Bl": 1392,
      "ages": 1393,
      "conf": 1394,
      "mid": 1395,
      "dialogue": 1396,
      "ains": 1397,
      "maybe": 1398,
      "guess": 1399,
      "loved": 1400,
      "cinemat": 1401,
      "und": 1402,
      "Lo": 1403,
      "went": 1404,
      "credi": 1405,
      "develop": 1406,
      "ys": 1407,
      "coming": 1408,
      "mor": 1409,
      "turns": 1410,
      "Do": 1411,
      "town": 1412,
      "ention": 1413,
      "brilli": 1414,
      "hope": 1415,
      "ont": 1416,
      "thrill": 1417,
      "mag": 1418,
      "gest": 1419,
      "couldn": 1420,
      "evil": 1421,
      "ni": 1422,
      "With": 1423,
      "children": 1424,
      "New": 1425,
      "sat": 1426,
      "break": 1427,
      "tic": 1428,
      "ST": 1429,
      "ael": 1430,
      "dark": 1431,
      "spir": 1432,
      "ulous": 1433,
      "against": 1434,
      "possible": 1435,
      "ground": 1436,
      "fre": 1437,
      "waste": 1438,
      "entertaining": 1439,
      "title": 1440,
      "rif": 1441,
      "called": 1442,
      "ca": 1443,
      "Dan": 1444,
      "ended": 1445,
      "extre": 1446,
      "deli": 1447,
      "relation": 1448,
      "ony": 1449,
      "cli": 1450,
      "wish": 1451,
      "spo": 1452,
      "cred": 1453,
      "Sc": 1454,
      "ord": 1455,
      "ized": 1456,
      "While": 1457,
      "list": 1458,
      "problem": 1459,
      "Mich": 1460,
      "direction": 1461,
      "known": 1462,
      "close": 1463,
      "success": 1464,
      "RE": 1465,
      "fine": 1466,
      "fortunately": 1467,
      "beginning": 1468,
      "ude": 1469,
      "Then": 1470,
      "works": 1471,
      "worse": 1472,
      "definitely": 1473,
      "absolutely": 1474,
      "Eng": 1475,
      "ues": 1476,
      "picture": 1477,
      "support": 1478,
      "track": 1479,
      "Mc": 1480,
      "dict": 1481,
      "lear": 1482,
      "selves": 1483,
      "win": 1484,
      "brother": 1485,
      "becomes": 1486,
      "Also": 1487,
      "vable": 1488,
      "cas": 1489,
      "Ed": 1490,
      "appear": 1491,
      "pite": 1492,
      "teen": 1493,
      "genre": 1494,
      "Michael": 1495,
      "cra": 1496,
      "lives": 1497,
      "cinema": 1498,
      "log": 1499,
      "already": 1500,
      "blood": 1501,
      "Of": 1502,
      "seemed": 1503,
      "brilliant": 1504,
      "extreme": 1505,
      "Pa": 1506,
      "wanted": 1507,
      "certainly": 1508,
      "past": 1509,
      "example": 1510,
      "writing": 1511,
      "Char": 1512,
      "mentary": 1513,
      "master": 1514,
      "fans": 1515,
      "fair": 1516,
      "vision": 1517,
      "hind": 1518,
      "pop": 1519,
      "ied": 1520,
      "ific": 1521,
      "psy": 1522,
      "uni": 1523,
      "leg": 1524,
      "Je": 1525,
      "pri": 1526,
      "ino": 1527,
      "nam": 1528,
      "several": 1529,
      "based": 1530,
      "200": 1531,
      "ball": 1532,
      "cult": 1533,
      "uses": 1534,
      "Ri": 1535,
      "lost": 1536,
      "quality": 1537,
      "touch": 1538,
      "daugh": 1539,
      "ided": 1540,
      "pur": 1541,
      "ister": 1542,
      "ON": 1543,
      "Just": 1544,
      "dou": 1545,
      "atic": 1546,
      "ub": 1547,
      "anno": 1548,
      "writer": 1549,
      "deser": 1550,
      "Why": 1551,
      "atur": 1552,
      "susp": 1553,
      "dep": 1554,
      "vic": 1555,
      "wants": 1556,
      "Tr": 1557,
      "ax": 1558,
      "viewer": 1559,
      "aim": 1560,
      "hold": 1561,
      "tries": 1562,
      "Now": 1563,
      "antic": 1564,
      "capt": 1565,
      "orge": 1566,
      "deal": 1567,
      "Her": 1568,
      "tot": 1569,
      "days": 1570,
      "wise": 1571,
      "guys": 1572,
      "dam": 1573,
      "vill": 1574,
      "killer": 1575,
      "usual": 1576,
      "totally": 1577,
      "game": 1578,
      "adm": 1579,
      "fig": 1580,
      "history": 1581,
      "sk": 1582,
      "throughout": 1583,
      "bar": 1584,
      "stuff": 1585,
      "foot": 1586,
      "ried": 1587,
      "May": 1588,
      "enjoyed": 1589,
      "novel": 1590,
      "myster": 1591,
      "Con": 1592,
      "NO": 1593,
      "ago": 1594,
      "parts": 1595,
      "hon": 1596,
      "level": 1597,
      "ket": 1598,
      "import": 1599,
      "late": 1600,
      "ask": 1601,
      "War": 1602,
      "jor": 1603,
      "Ge": 1604,
      "amazing": 1605,
      "ount": 1606,
      "arch": 1607,
      "docu": 1608,
      "finally": 1609,
      "typ": 1610,
      "gave": 1611,
      "starts": 1612,
      "etc": 1613,
      "crit": 1614,
      "fac": 1615,
      "behind": 1616,
      "contin": 1617,
      "stay": 1618,
      "Is": 1619,
      "intel": 1620,
      "type": 1621,
      "favorite": 1622,
      "ding": 1623,
      "colle": 1624,
      "prom": 1625,
      "wer": 1626,
      "Every": 1627,
      "aving": 1628,
      "final": 1629,
      "themselves": 1630,
      "bing": 1631,
      "ali": 1632,
      "white": 1633,
      "situ": 1634,
      "score": 1635,
      "grou": 1636,
      "today": 1637,
      "moment": 1638,
      "Dr": 1639,
      "compl": 1640,
      "ung": 1641,
      "predict": 1642,
      "God": 1643,
      "Ger": 1644,
      "sum": 1645,
      "girls": 1646,
      "thinking": 1647,
      "pick": 1648,
      "decent": 1649,
      "perhaps": 1650,
      "Robert": 1651,
      "Or": 1652,
      "ances": 1653,
      "dream": 1654,
      "ek": 1655,
      "tech": 1656,
      "killed": 1657,
      "Brit": 1658,
      "ination": 1659,
      "stories": 1660,
      "AL": 1661,
      "uss": 1662,
      "bers": 1663,
      "feeling": 1664,
      "gn": 1665,
      "tract": 1666,
      "exact": 1667,
      "voice": 1668,
      "believable": 1669,
      "Paul": 1670,
      "matter": 1671,
      "daughter": 1672,
      "appro": 1673,
      "trans": 1674,
      "shoot": 1675,
      "Har": 1676,
      "die": 1677,
      "ography": 1678,
      "musical": 1679,
      "directed": 1680,
      "bus": 1681,
      "key": 1682,
      "myself": 1683,
      "looked": 1684,
      "ridic": 1685,
      "heard": 1686,
      "lock": 1687,
      "prof": 1688,
      "Any": 1689,
      "count": 1690,
      "speak": 1691,
      "anger": 1692,
      "soon": 1693,
      "eyes": 1694,
      "apt": 1695,
      "hilar": 1696,
      "gun": 1697,
      "chang": 1698,
      "effort": 1699,
      "Co": 1700,
      "graph": 1701,
      "AT": 1702,
      "weak": 1703,
      "roles": 1704,
      "horrible": 1705,
      "took": 1706,
      "convin": 1707,
      "antly": 1708,
      "ump": 1709,
      "says": 1710,
      "stud": 1711,
      "ief": 1712,
      "scar": 1713,
      "usband": 1714,
      "vir": 1715,
      "ott": 1716,
      "incredi": 1717,
      "desc": 1718,
      "ady": 1719,
      "James": 1720,
      "move": 1721,
      "hop": 1722,
      "inst": 1723,
      "unk": 1724,
      "reet": 1725,
      "Me": 1726,
      "dra": 1727,
      "event": 1728,
      "Per": 1729,
      "order": 1730,
      "ail": 1731,
      "husband": 1732,
      "bring": 1733,
      "cannot": 1734,
      "major": 1735,
      "tail": 1736,
      "taking": 1737,
      "involved": 1738,
      "astic": 1739,
      "sle": 1740,
      "hit": 1741,
      "pay": 1742,
      "happens": 1743,
      "stop": 1744,
      "lar": 1745,
      "ridiculous": 1746,
      "lan": 1747,
      "told": 1748,
      "makers": 1749,
      "experience": 1750,
      "umb": 1751,
      "polit": 1752,
      "pose": 1753,
      "aves": 1754,
      "rating": 1755,
      "rew": 1756,
      "var": 1757,
      "recent": 1758,
      "aren": 1759,
      "swe": 1760,
      "gar": 1761,
      "similar": 1762,
      "dle": 1763,
      "opin": 1764,
      "David": 1765,
      "violence": 1766,
      "tele": 1767,
      "alone": 1768,
      "resul": 1769,
      "turned": 1770,
      "happened": 1771,
      "group": 1772,
      "change": 1773,
      "ential": 1774,
      "ered": 1775,
      "rated": 1776,
      "ained": 1777,
      "chard": 1778,
      "police": 1779,
      "ards": 1780,
      "shock": 1781,
      "US": 1782,
      "itive": 1783,
      "fut": 1784,
      "crap": 1785,
      "Col": 1786,
      "including": 1787,
      "Su": 1788,
      "foc": 1789,
      "ering": 1790,
      "Pr": 1791,
      "oto": 1792,
      "particularly": 1793,
      "First": 1794,
      "urt": 1795,
      "extremely": 1796,
      "leave": 1797,
      "ured": 1798,
      "expected": 1799,
      "chance": 1800,
      "illiam": 1801,
      "sequel": 1802,
      "Richard": 1803,
      "memor": 1804,
      "apan": 1805,
      "cheap": 1806,
      "hilarious": 1807,
      "ric": 1808,
      "moder": 1809,
      "Oh": 1810,
      "wouldn": 1811,
      "apparent": 1812,
      "zy": 1813,
      "plan": 1814,
      "ann": 1815,
      "Bar": 1816,
      "cool": 1817,
      "quick": 1818,
      "sometimes": 1819,
      "annoying": 1820,
      "roll": 1821,
      "talk": 1822,
      "Tom": 1823,
      "suff": 1824,
      "ows": 1825,
      "sym": 1826,
      "IL": 1827,
      "wards": 1828,
      "career": 1829,
      "obviously": 1830,
      "aris": 1831,
      "iss": 1832,
      "ib": 1833,
      "Japan": 1834,
      "English": 1835,
      "Bro": 1836,
      "OK": 1837,
      "realistic": 1838,
      "Mor": 1839,
      "ene": 1840,
      "shown": 1841,
      "photo": 1842,
      "198": 1843,
      "highly": 1844,
      "20": 1845,
      "pot": 1846,
      "ational": 1847,
      "pleas": 1848,
      "sw": 1849,
      "dies": 1850,
      "number": 1851,
      "clear": 1852,
      "forget": 1853,
      "odd": 1854,
      "rench": 1855,
      "Wor": 1856,
      "whose": 1857,
      "hot": 1858,
      "four": 1859,
      "ina": 1860,
      "pped": 1861,
      "Although": 1862,
      "deep": 1863,
      "simple": 1864,
      "strange": 1865,
      "taken": 1866,
      "near": 1867,
      "197": 1868,
      "country": 1869,
      "Ben": 1870,
      "zomb": 1871,
      "happy": 1872,
      "stra": 1873,
      "respect": 1874,
      "shots": 1875,
      "released": 1876,
      "gore": 1877,
      "relationship": 1878,
      "jokes": 1879,
      "William": 1880,
      "del": 1881,
      "hours": 1882,
      "treat": 1883,
      "mist": 1884,
      "ats": 1885,
      "itting": 1886,
      "yourself": 1887,
      "started": 1888,
      "Dis": 1889,
      "exactly": 1890,
      "opinion": 1891,
      "IM": 1892,
      "IS": 1893,
      "ator": 1894,
      "reality": 1895,
      "AR": 1896,
      "sign": 1897,
      "ently": 1898,
      "somewhat": 1899,
      "huge": 1900,
      "iety": 1901,
      "exist": 1902,
      "none": 1903,
      "sor": 1904,
      "pet": 1905,
      "ili": 1906,
      "Po": 1907,
      "opening": 1908,
      "season": 1909,
      "check": 1910,
      "modern": 1911,
      "finds": 1912,
      "build": 1913,
      "across": 1914,
      "learn": 1915,
      "thor": 1916,
      "usually": 1917,
      "ush": 1918,
      "El": 1919,
      "enty": 1920,
      "narr": 1921,
      "cinematography": 1922,
      "important": 1923,
      "ives": 1924,
      "cause": 1925,
      "ury": 1926,
      "living": 1927,
      "comment": 1928,
      "talking": 1929,
      "Wal": 1930,
      "aby": 1931,
      "mal": 1932,
      "box": 1933,
      "subject": 1934,
      "Over": 1935,
      "female": 1936,
      "sequence": 1937,
      "documentary": 1938,
      "natur": 1939,
      "ined": 1940,
      "despite": 1941,
      "running": 1942,
      "OR": 1943,
      "la": 1944,
      "saying": 1945,
      "episodes": 1946,
      "gan": 1947,
      "parent": 1948,
      "clich": 1949,
      "fast": 1950,
      "famous": 1951,
      "ris": 1952,
      "words": 1953,
      "save": 1954,
      "ield": 1955,
      "plac": 1956,
      "cost": 1957,
      "ished": 1958,
      "sets": 1959,
      "predictable": 1960,
      "Com": 1961,
      "rodu": 1962,
      "appre": 1963,
      "appears": 1964,
      "ants": 1965,
      "atmo": 1966,
      "yes": 1967,
      "ork": 1968,
      "lect": 1969,
      "aff": 1970,
      "outh": 1971,
      "necess": 1972,
      "team": 1973,
      "single": 1974,
      "fer": 1975,
      "vol": 1976,
      "disappointed": 1977,
      "local": 1978,
      "honest": 1979,
      "EN": 1980,
      "ged": 1981,
      "dan": 1982,
      "mil": 1983,
      "Sha": 1984,
      "law": 1985,
      "utter": 1986,
      "ather": 1987,
      "ik": 1988,
      "whe": 1989,
      "pres": 1990,
      "199": 1991,
      "suspense": 1992,
      "dialog": 1993,
      "iet": 1994,
      "events": 1995,
      "atmosp": 1996,
      "doub": 1997,
      "discover": 1998,
      "attention": 1999,
      "remind": 2000,
      "due": 2001,
      "cret": 2002,
      "intellig": 2003,
      "straight": 2004,
      "erial": 2005,
      "asy": 2006,
      "abo": 2007,
      "British": 2008,
      "middle": 2009,
      "aver": 2010,
      "stick": 2011,
      "scary": 2012,
      "dest": 2013,
      "ls": 2014,
      "ised": 2015,
      "hell": 2016,
      "songs": 2017,
      "bal": 2018,
      "tells": 2019,
      "knew": 2020,
      "eless": 2021,
      "mostly": 2022,
      "giving": 2023,
      "sexual": 2024,
      "acy": 2025,
      "comic": 2026,
      "question": 2027,
      "romantic": 2028,
      "thriller": 2029,
      "prem": 2030,
      "Who": 2031,
      "problems": 2032,
      "res": 2033,
      "falls": 2034,
      "equ": 2035,
      "detail": 2036,
      "apart": 2037,
      "ING": 2038,
      "appreci": 2039,
      "fire": 2040,
      "ital": 2041,
      "acc": 2042,
      "stage": 2043,
      "knows": 2044,
      "Go": 2045,
      "among": 2046,
      "silly": 2047,
      "future": 2048,
      "Chris": 2049,
      "thetic": 2050,
      "rend": 2051,
      "vil": 2052,
      "adult": 2053,
      "eye": 2054,
      "television": 2055,
      "oud": 2056,
      "moving": 2057,
      "George": 2058,
      "walk": 2059,
      "ability": 2060,
      "usion": 2061,
      "otic": 2062,
      "easily": 2063,
      "enn": 2064,
      "Yes": 2065,
      "claim": 2066,
      "writ": 2067,
      "pping": 2068,
      "sequences": 2069,
      "prise": 2070,
      "ham": 2071,
      "mix": 2072,
      "York": 2073,
      "points": 2074,
      "II": 2075,
      "shi": 2076,
      "King": 2077,
      "hol": 2078,
      "spoil": 2079,
      "supporting": 2080,
      "material": 2081,
      "Oscar": 2082,
      "aspect": 2083,
      "ctive": 2084,
      "diffic": 2085,
      "front": 2086,
      "ots": 2087,
      "ibly": 2088,
      "suck": 2089,
      "stru": 2090,
      "bey": 2091,
      "setting": 2092,
      "enjoyable": 2093,
      "gang": 2094,
      "clearly": 2095,
      "Can": 2096,
      "seriously": 2097,
      "lim": 2098,
      "needs": 2099,
      "dull": 2100,
      "creep": 2101,
      "entertainment": 2102,
      "Maybe": 2103,
      "Sam": 2104,
      "match": 2105,
      "sold": 2106,
      "named": 2107,
      "Unfortunately": 2108,
      "kept": 2109,
      "actual": 2110,
      "prov": 2111,
      "oid": 2112,
      "agon": 2113,
      "By": 2114,
      "fell": 2115,
      "free": 2116,
      "ceed": 2117,
      "previous": 2118,
      "ension": 2119,
      "search": 2120,
      "arely": 2121,
      "uro": 2122,
      "working": 2123,
      "message": 2124,
      "easy": 2125,
      "From": 2126,
      "port": 2127,
      "deed": 2128,
      "period": 2129,
      "atter": 2130,
      "herself": 2131,
      "Nor": 2132,
      "batt": 2133,
      "aster": 2134,
      "lies": 2135,
      "carto": 2136,
      "telling": 2137,
      "hear": 2138,
      "soc": 2139,
      "aught": 2140,
      "Lee": 2141,
      "victim": 2142,
      "twist": 2143,
      "cliché": 2144,
      "Ph": 2145,
      "publ": 2146,
      "hate": 2147,
      "lin": 2148,
      "dro": 2149,
      "dog": 2150,
      "Most": 2151,
      "ral": 2152,
      "estern": 2153,
      "feels": 2154,
      "flaw": 2155,
      "tale": 2156,
      "Ex": 2157,
      "omin": 2158,
      "rip": 2159,
      "const": 2160,
      "Peter": 2161,
      "clim": 2162,
      "theme": 2163,
      "five": 2164,
      "surprised": 2165,
      "above": 2166,
      "inc": 2167,
      "haven": 2168,
      "personal": 2169,
      "path": 2170,
      "tle": 2171,
      "ening": 2172,
      "ution": 2173,
      "attack": 2174,
      "Ke": 2175,
      "slight": 2176,
      "accept": 2177,
      "trou": 2178,
      "animation": 2179,
      "release": 2180,
      "sug": 2181,
      "doubt": 2182,
      "upon": 2183,
      "visual": 2184,
      "50": 2185,
      "ses": 2186,
      "dramatic": 2187,
      "tom": 2188,
      "storyline": 2189,
      "sn": 2190,
      "state": 2191,
      "30": 2192,
      "Dire": 2193,
      "agree": 2194,
      "city": 2195,
      "issu": 2196,
      "bunch": 2197,
      "within": 2198,
      "Jim": 2199,
      "theat": 2200,
      "iment": 2201,
      "kills": 2202,
      "sem": 2203,
      "nearly": 2204,
      "ken": 2205,
      "overall": 2206,
      "Frank": 2207,
      "minute": 2208,
      "elements": 2209,
      "pat": 2210,
      "thy": 2211,
      "forward": 2212,
      "viewers": 2213,
      "hood": 2214,
      "Gu": 2215,
      "beyond": 2216,
      "Good": 2217,
      "tried": 2218,
      "Like": 2219,
      "typical": 2220,
      "Disney": 2221,
      "har": 2222,
      "begins": 2223,
      "decided": 2224,
      "difficult": 2225,
      "Cr": 2226,
      "drug": 2227,
      "means": 2228,
      "figure": 2229,
      "large": 2230,
      "suggest": 2231,
      "wit": 2232,
      "nature": 2233,
      "inno": 2234,
      "reve": 2235,
      "post": 2236,
      "parents": 2237,
      "ana": 2238,
      "viewing": 2239,
      "soundtrack": 2240,
      "mill": 2241,
      "mel": 2242,
      "rock": 2243,
      "comments": 2244,
      "Fil": 2245,
      "showing": 2246,
      "asc": 2247,
      "contro": 2248,
      "lier": 2249,
      "comb": 2250,
      "truth": 2251,
      "sister": 2252,
      "rich": 2253,
      "Indi": 2254,
      "round": 2255,
      "tori": 2256,
      "acted": 2257,
      "ugh": 2258,
      "hom": 2259,
      "editing": 2260,
      "rate": 2261,
      "resp": 2262,
      "Night": 2263,
      "ban": 2264,
      "fantastic": 2265,
      "catch": 2266,
      "sha": 2267,
      "pathetic": 2268,
      "Des": 2269,
      "Watch": 2270,
      "leads": 2271,
      "Pl": 2272,
      "theater": 2273,
      "meaning": 2274,
      "ially": 2275,
      "appeal": 2276,
      "LE": 2277,
      "step": 2278,
      "writers": 2279,
      "flash": 2280,
      "French": 2281,
      "kick": 2282,
      "owing": 2283,
      "business": 2284,
      "repe": 2285,
      "ener": 2286,
      "brought": 2287,
      "accent": 2288,
      "rob": 2289,
      "Its": 2290,
      "introdu": 2291,
      "atmosphere": 2292,
      "advent": 2293,
      "bel": 2294,
      "whether": 2295,
      "Che": 2296,
      "atever": 2297,
      "wait": 2298,
      "express": 2299,
      "natural": 2300,
      "kay": 2301,
      "van": 2302,
      "secret": 2303,
      "Ber": 2304,
      "VER": 2305,
      "descri": 2306,
      "filmed": 2307,
      "America": 2308,
      "convincing": 2309,
      "Ho": 2310,
      "lame": 2311,
      "rap": 2312,
      "wind": 2313,
      "div": 2314,
      "crime": 2315,
      "buy": 2316,
      "Star": 2317,
      "background": 2318,
      "NOT": 2319,
      "dden": 2320,
      "exe": 2321,
      "conne": 2322,
      "reviews": 2323,
      "ches": 2324,
      "unity": 2325,
      "Mart": 2326,
      "onic": 2327,
      "Japanese": 2328,
      "wo": 2329,
      "rific": 2330,
      "These": 2331,
      "liter": 2332,
      "sou": 2333,
      "apparently": 2334,
      "premise": 2335,
      "OU": 2336,
      "cons": 2337,
      "greatest": 2338,
      "flu": 2339,
      "Em": 2340,
      "weird": 2341,
      "camp": 2342,
      "ultim": 2343,
      "strug": 2344,
      "gone": 2345,
      "met": 2346,
      "ires": 2347,
      "basically": 2348,
      "average": 2349,
      "Jane": 2350,
      "heav": 2351,
      "oose": 2352,
      "forced": 2353,
      "medi": 2354,
      "standing": 2355,
      "mentioned": 2356,
      "pure": 2357,
      "vent": 2358,
      "lying": 2359,
      "teach": 2360,
      "effective": 2361,
      "write": 2362,
      "Ang": 2363,
      "street": 2364,
      "crim": 2365,
      "mystery": 2366,
      "urther": 2367,
      "became": 2368,
      "ilo": 2369,
      "surprise": 2370,
      "yp": 2371,
      "week": 2372,
      "poorly": 2373,
      "Here": 2374,
      "sudden": 2375,
      "dance": 2376,
      "water": 2377,
      "esy": 2378,
      "needed": 2379,
      "Ab": 2380,
      "lots": 2381,
      "public": 2382,
      "Cor": 2383,
      "hi": 2384,
      "third": 2385,
      "ously": 2386,
      "possibly": 2387,
      "Ir": 2388,
      "interested": 2389,
      "emb": 2390,
      "Ser": 2391,
      "aging": 2392,
      "serv": 2393,
      "els": 2394,
      "killing": 2395,
      "leading": 2396,
      "Fo": 2397,
      "amount": 2398,
      "ze": 2399,
      "Scott": 2400,
      "rey": 2401,
      "leaves": 2402,
      "concept": 2403,
      "profess": 2404,
      "Joe": 2405,
      "deliver": 2406,
      "LO": 2407,
      "emotional": 2408,
      "villain": 2409,
      "Qu": 2410,
      "mach": 2411,
      "Ital": 2412,
      "Mat": 2413,
      "rup": 2414,
      "oper": 2415,
      "ring": 2416,
      "concl": 2417,
      "PO": 2418,
      "Tim": 2419,
      "fi": 2420,
      "trad": 2421,
      "credits": 2422,
      "memorable": 2423,
      "unlike": 2424,
      "reading": 2425,
      "inally": 2426,
      "note": 2427,
      "aining": 2428,
      "cru": 2429,
      "situation": 2430,
      "net": 2431,
      "refer": 2432,
      "iction": 2433,
      "mad": 2434,
      "bored": 2435,
      "meets": 2436,
      "IMD": 2437,
      "ye": 2438,
      "depict": 2439,
      "grand": 2440,
      "Sch": 2441,
      "reco": 2442,
      "older": 2443,
      "popular": 2444,
      "somehow": 2445,
      "bul": 2446,
      "jud": 2447,
      "iel": 2448,
      "meant": 2449,
      "unique": 2450,
      "attract": 2451,
      "Overall": 2452,
      "prison": 2453,
      "emotion": 2454,
      "exper": 2455,
      "worked": 2456,
      "ager": 2457,
      "earlier": 2458,
      "realize": 2459,
      "80": 2460,
      "rad": 2461,
      "screenplay": 2462,
      "cers": 2463,
      "sick": 2464,
      "yn": 2465,
      "superb": 2466,
      "Sm": 2467,
      "lor": 2468,
      "reen": 2469,
      "gotten": 2470,
      "pac": 2471,
      "unning": 2472,
      "Wood": 2473,
      "zz": 2474,
      "dem": 2475,
      "design": 2476,
      "casting": 2477,
      "Euro": 2478,
      "bur": 2479,
      "venge": 2480,
      "laughs": 2481,
      "cted": 2482,
      "rave": 2483,
      "create": 2484,
      "pull": 2485,
      "shame": 2486,
      "distur": 2487,
      "fasc": 2488,
      "ians": 2489,
      "footage": 2490,
      "ging": 2491,
      "ero": 2492,
      "directors": 2493,
      "studi": 2494,
      "satis": 2495,
      "cat": 2496,
      "hair": 2497,
      "romance": 2498,
      "keeps": 2499,
      "Black": 2500,
      "196": 2501,
      "beat": 2502,
      "anyway": 2503,
      "result": 2504,
      "society": 2505,
      "clever": 2506,
      "badly": 2507,
      "stere": 2508,
      "wart": 2509,
      "ising": 2510,
      "whom": 2511,
      "trash": 2512,
      "Will": 2513,
      "arre": 2514,
      "perfectly": 2515,
      "imagine": 2516,
      "Let": 2517,
      "adapt": 2518,
      "features": 2519,
      "aste": 2520,
      "recogn": 2521,
      "Other": 2522,
      "fit": 2523,
      "fest": 2524,
      "social": 2525,
      "quickly": 2526,
      "neg": 2527,
      "please": 2528,
      "anks": 2529,
      "necessary": 2530,
      "sens": 2531,
      "tre": 2532,
      "edu": 2533,
      "development": 2534,
      "creepy": 2535,
      "brings": 2536,
      "directing": 2537,
      "IT": 2538,
      "Mon": 2539,
      "aked": 2540,
      "general": 2541,
      "psycho": 2542,
      "imm": 2543,
      "concer": 2544,
      "space": 2545,
      "iliar": 2546,
      "ices": 2547,
      "board": 2548,
      "ai": 2549,
      "bert": 2550,
      "admit": 2551,
      "execut": 2552,
      "bother": 2553,
      "ges": 2554,
      "joke": 2555,
      "Ale": 2556,
      "gay": 2557,
      "spl": 2558,
      "rac": 2559,
      "Christmas": 2560,
      "Ano": 2561,
      "ost": 2562,
      "ica": 2563,
      "Still": 2564,
      "Ad": 2565,
      "nud": 2566,
      "oun": 2567,
      "apped": 2568,
      "ald": 2569,
      "girlfriend": 2570,
      "avoid": 2571,
      "familiar": 2572,
      "Another": 2573,
      "ague": 2574,
      "battle": 2575,
      "Am": 2576,
      "field": 2577,
      "Bet": 2578,
      "Great": 2579,
      "project": 2580,
      "cheesy": 2581,
      "potential": 2582,
      "ES": 2583,
      "Ear": 2584,
      "copy": 2585,
      "powerful": 2586,
      "demon": 2587,
      "rage": 2588,
      "eventually": 2589,
      "political": 2590,
      "hands": 2591,
      "fails": 2592,
      "En": 2593,
      "towards": 2594,
      "fighting": 2595,
      "talented": 2596,
      "stereot": 2597,
      "Fred": 2598,
      "flo": 2599,
      "members": 2600,
      "arring": 2601,
      "occas": 2602,
      "sleep": 2603,
      "dumb": 2604,
      "total": 2605,
      "fantasy": 2606,
      "fairly": 2607,
      "German": 2608,
      "jour": 2609,
      "flat": 2610,
      "193": 2611,
      "AD": 2612,
      "portrayed": 2613,
      "scient": 2614,
      "masterpiece": 2615,
      "anna": 2616,
      "stal": 2617,
      "various": 2618,
      "Vic": 2619,
      "revol": 2620,
      "spirit": 2621,
      "Mary": 2622,
      "logical": 2623,
      "incredibly": 2624,
      "cartoon": 2625,
      "Bill": 2626,
      "Gold": 2627,
      "cute": 2628,
      "ival": 2629,
      "plain": 2630,
      "plenty": 2631,
      "sorry": 2632,
      "remark": 2633,
      "ares": 2634,
      "roy": 2635,
      "ideas": 2636,
      "reasons": 2637,
      "illy": 2638,
      "IMDb": 2639,
      "ped": 2640,
      "explo": 2641,
      "crew": 2642,
      "satisf": 2643,
      "inger": 2644,
      "elling": 2645,
      "Sim": 2646,
      "bs": 2647,
      "logy": 2648,
      "positive": 2649,
      "sounds": 2650,
      "cir": 2651,
      "wed": 2652,
      "histor": 2653,
      "anti": 2654,
      "deserves": 2655,
      "15": 2656,
      "expecting": 2657,
      "Li": 2658,
      "dev": 2659,
      "iff": 2660,
      "194": 2661,
      "manages": 2662,
      "missing": 2663,
      "arrass": 2664,
      "psych": 2665,
      "indeed": 2666,
      "achie": 2667,
      "Hor": 2668,
      "lady": 2669,
      "lid": 2670,
      "suit": 2671,
      "berg": 2672,
      "langu": 2673,
      "Aust": 2674,
      "reach": 2675,
      "itty": 2676,
      "remake": 2677,
      "trave": 2678,
      "phys": 2679,
      "store": 2680,
      "invest": 2681,
      "attempts": 2682,
      "crazy": 2683,
      "Director": 2684,
      "90": 2685,
      "married": 2686,
      "bi": 2687,
      "Red": 2688,
      "filled": 2689,
      "beauty": 2690,
      "boys": 2691,
      "Big": 2692,
      "desper": 2693,
      "LY": 2694,
      "bes": 2695,
      "dress": 2696,
      "former": 2697,
      "outside": 2698,
      "wrote": 2699,
      "embarrass": 2700,
      "andy": 2701,
      "relig": 2702,
      "whatever": 2703,
      "nudity": 2704,
      "Pat": 2705,
      "ford": 2706,
      "ula": 2707,
      "reveal": 2708,
      "return": 2709,
      "erson": 2710,
      "missed": 2711,
      "sweet": 2712,
      "AS": 2713,
      "CH": 2714,
      "ders": 2715,
      "table": 2716,
      "ican": 2717,
      "disc": 2718,
      "depth": 2719,
      "luck": 2720,
      "insp": 2721,
      "itted": 2722,
      "Mur": 2723,
      "inside": 2724,
      "created": 2725,
      "further": 2726,
      "recor": 2727,
      "erry": 2728,
      "hardly": 2729,
      "vamp": 2730,
      "195": 2731,
      "Mac": 2732,
      "asher": 2733,
      "accident": 2734,
      "biz": 2735,
      "rit": 2736,
      "elly": 2737,
      "dim": 2738,
      "idi": 2739,
      "monster": 2740,
      "Pal": 2741,
      "La": 2742,
      "stri": 2743,
      "accur": 2744,
      "wasted": 2745,
      "cei": 2746,
      "drag": 2747,
      "Dead": 2748,
      "trail": 2749,
      "impressive": 2750,
      "Pro": 2751,
      "Van": 2752,
      "House": 2753,
      "Mad": 2754,
      "sess": 2755,
      "recently": 2756,
      "died": 2757,
      "filmmakers": 2758,
      "World": 2759,
      "ient": 2760,
      "pace": 2761,
      "suspect": 2762,
      "delight": 2763,
      "produced": 2764,
      "successful": 2765,
      "gle": 2766,
      "ison": 2767,
      "deem": 2768,
      "brain": 2769,
      "ashing": 2770,
      "common": 2771,
      "Europe": 2772,
      "Instead": 2773,
      "mood": 2774,
      "tort": 2775,
      "gram": 2776,
      "offic": 2777,
      "approach": 2778,
      "caught": 2779,
      "fash": 2780,
      "gress": 2781,
      "iously": 2782,
      "scream": 2783,
      "decides": 2784,
      "Bur": 2785,
      "credit": 2786,
      "Bat": 2787,
      "cape": 2788,
      "Act": 2789,
      "ns": 2790,
      "sees": 2791,
      "ghost": 2792,
      "moves": 2793,
      "intri": 2794,
      "akes": 2795,
      "subtle": 2796,
      "Pol": 2797,
      "waiting": 2798,
      "draw": 2799,
      "ius": 2800,
      "complex": 2801,
      "Ju": 2802,
      "spent": 2803,
      "brief": 2804,
      "ships": 2805,
      "dub": 2806,
      "base": 2807,
      "intelligent": 2808,
      "contri": 2809,
      "exciting": 2810,
      "Rock": 2811,
      "slightly": 2812,
      "immedi": 2813,
      "izing": 2814,
      "color": 2815,
      "Lon": 2816,
      "ker": 2817,
      "thus": 2818,
      "maker": 2819,
      "ordin": 2820,
      "dancing": 2821,
      "mere": 2822,
      "doctor": 2823,
      "Mel": 2824,
      "comput": 2825,
      "Lou": 2826,
      "unless": 2827,
      "actions": 2828,
      "worthy": 2829,
      "High": 2830,
      "tension": 2831,
      "ened": 2832,
      "esome": 2833,
      "aine": 2834,
      "company": 2835,
      "regard": 2836,
      "jump": 2837,
      "mass": 2838,
      "road": 2839,
      "entirely": 2840,
      "unfortunately": 2841,
      "lover": 2842,
      "Perhaps": 2843,
      "Best": 2844,
      "pul": 2845,
      "manner": 2846,
      "pointless": 2847,
      "wall": 2848,
      "bling": 2849,
      "laughing": 2850,
      "tough": 2851,
      "escape": 2852,
      "itation": 2853,
      "value": 2854,
      "slasher": 2855,
      "zombie": 2856,
      "acts": 2857,
      "choice": 2858,
      "earth": 2859,
      "prot": 2860,
      "Bel": 2861,
      "baby": 2862,
      "def": 2863,
      "Movie": 2864,
      "Italian": 2865,
      "aven": 2866,
      "extra": 2867,
      "Ham": 2868,
      "iced": 2869,
      "presented": 2870,
      "cross": 2871,
      "solid": 2872,
      "door": 2873,
      "ensive": 2874,
      "focus": 2875,
      "bizarre": 2876,
      "OM": 2877,
      "row": 2878,
      "depend": 2879,
      "Bri": 2880,
      "Tony": 2881,
      "ech": 2882,
      "nie": 2883,
      "arri": 2884,
      "ples": 2885,
      "Fe": 2886,
      "spot": 2887,
      "ba": 2888,
      "Love": 2889,
      "language": 2890,
      "Du": 2891,
      "sport": 2892,
      "following": 2893,
      "Ru": 2894,
      "portrayal": 2895,
      "Super": 2896,
      "hid": 2897,
      "uine": 2898,
      "appreciate": 2899,
      "appy": 2900,
      "stereotyp": 2901,
      "mes": 2902,
      "oh": 2903,
      "biggest": 2904,
      "fat": 2905,
      "ito": 2906,
      "rough": 2907,
      "western": 2908,
      "fashion": 2909,
      "burn": 2910,
      "ites": 2911,
      "finish": 2912,
      "books": 2913,
      "sav": 2914,
      "amusing": 2915,
      "runs": 2916,
      "changed": 2917,
      "requ": 2918,
      "olf": 2919,
      "faith": 2920,
      "control": 2921,
      "Park": 2922,
      "pack": 2923,
      "force": 2924,
      "spend": 2925,
      "genuine": 2926,
      "Where": 2927,
      "pieces": 2928,
      "critic": 2929,
      "continu": 2930,
      "singing": 2931,
      "appearance": 2932,
      "incredible": 2933,
      "Hen": 2934,
      "ades": 2935,
      "culture": 2936,
      "opport": 2937,
      "follows": 2938,
      "violent": 2939,
      "science": 2940,
      "Pre": 2941,
      "hang": 2942,
      "six": 2943,
      "Stan": 2944,
      "younger": 2945,
      "impro": 2946,
      "plo": 2947,
      "god": 2948,
      "Afr": 2949,
      "dad": 2950,
      "itary": 2951,
      "ateur": 2952,
      "flict": 2953,
      "Alex": 2954,
      "gover": 2955,
      "brut": 2956,
      "compared": 2957,
      "magic": 2958,
      "Smith": 2959,
      "Sure": 2960,
      "mistry": 2961,
      "glad": 2962,
      "trouble": 2963,
      "office": 2964,
      "revenge": 2965,
      "pract": 2966,
      "bage": 2967,
      "gain": 2968,
      "showed": 2969,
      "otherwise": 2970,
      "chemistry": 2971,
      "animated": 2972,
      "exception": 2973,
      "fascin": 2974,
      "danger": 2975,
      "dete": 2976,
      "fear": 2977,
      "100": 2978,
      "weren": 2979,
      "redeem": 2980,
      "ribly": 2981,
      "proper": 2982,
      "favour": 2983,
      "considered": 2984,
      "loss": 2985,
      "answer": 2986,
      "involving": 2987,
      "developed": 2988,
      "situations": 2989,
      "heavy": 2990,
      "Tar": 2991,
      "iers": 2992,
      "taste": 2993,
      "inner": 2994,
      "decide": 2995,
      "Fran": 2996,
      "sters": 2997,
      "phen": 2998,
      "Steve": 2999,
      "Rom": 3000,
      "rect": 3001,
      "host": 3002,
      "purpose": 3003,
      "suddenly": 3004,
      "Bas": 3005,
      "Dou": 3006,
      "survi": 3007,
      "gent": 3008,
      "ilt": 3009,
      "failed": 3010,
      "adventure": 3011,
      "assu": 3012,
      "bles": 3013,
      "party": 3014,
      "normal": 3015,
      "Anyway": 3016,
      "disturbing": 3017,
      "date": 3018,
      "loud": 3019,
      "rema": 3020,
      "likes": 3021,
      "ED": 3022,
      "rand": 3023,
      "affect": 3024,
      "longer": 3025,
      "lad": 3026,
      "amateur": 3027,
      "obsess": 3028,
      "carry": 3029,
      "studio": 3030,
      "nical": 3031,
      "iny": 3032,
      "thes": 3033,
      "questions": 3034,
      "Adam": 3035,
      "barely": 3036,
      "producers": 3037,
      "trip": 3038,
      "test": 3039,
      "author": 3040,
      "shooting": 3041,
      "consist": 3042,
      "Gar": 3043,
      "hun": 3044,
      "za": 3045,
      "aper": 3046,
      "awesome": 3047,
      "cold": 3048,
      "ises": 3049,
      "irty": 3050,
      "doll": 3051,
      "appeared": 3052,
      "leng": 3053,
      "rub": 3054,
      "criminal": 3055,
      "conclusion": 3056,
      "Earth": 3057,
      "OF": 3058,
      "Str": 3059,
      "smo": 3060,
      "fake": 3061,
      "lets": 3062,
      "values": 3063,
      "formation": 3064,
      "Ma": 3065,
      "Russ": 3066,
      "Very": 3067,
      "ths": 3068,
      "Stewart": 3069,
      "inspired": 3070,
      "London": 3071,
      "Way": 3072,
      "thur": 3073,
      "Though": 3074,
      "rupt": 3075,
      "11": 3076,
      "City": 3077,
      "impossible": 3078,
      "audiences": 3079,
      "annel": 3080,
      "insul": 3081,
      "sell": 3082,
      "added": 3083,
      "counter": 3084,
      "Jeff": 3085,
      "ded": 3086,
      "program": 3087,
      "likable": 3088,
      "70": 3089,
      "Sun": 3090,
      "pal": 3091,
      "leaving": 3092,
      "roc": 3093,
      "umes": 3094,
      "Yet": 3095,
      "college": 3096,
      "Film": 3097,
      "computer": 3098,
      "People": 3099,
      "craft": 3100,
      "Den": 3101,
      "charming": 3102,
      "belief": 3103,
      "explain": 3104,
      "images": 3105,
      "stem": 3106,
      "arily": 3107,
      "Ray": 3108,
      "ena": 3109,
      "Harry": 3110,
      "respons": 3111,
      "Ken": 3112,
      "bought": 3113,
      "standard": 3114,
      "humour": 3115,
      "Arthur": 3116,
      "starring": 3117,
      "ization": 3118,
      "wel": 3119,
      "terror": 3120,
      "Only": 3121,
      "Christian": 3122,
      "impression": 3123,
      "ining": 3124,
      "stunning": 3125,
      "neigh": 3126,
      "garbage": 3127,
      "Day": 3128,
      "ov": 3129,
      "rare": 3130,
      "mental": 3131,
      "AND": 3132,
      "basic": 3133,
      "ceived": 3134,
      "succeed": 3135,
      "drawn": 3136,
      "literally": 3137,
      "fu": 3138,
      "sight": 3139,
      "rious": 3140,
      "riage": 3141,
      "urch": 3142,
      "ody": 3143,
      "motion": 3144,
      "Two": 3145,
      "gory": 3146,
      "pair": 3147,
      "contr": 3148,
      "immediately": 3149,
      "fresh": 3150,
      "climax": 3151,
      "adaptation": 3152,
      "40": 3153,
      "oft": 3154,
      "pers": 3155,
      "aking": 3156,
      "HO": 3157,
      "genius": 3158,
      "ID": 3159,
      "bomb": 3160,
      "cell": 3161,
      "chase": 3162,
      "investig": 3163,
      "random": 3164,
      "tone": 3165,
      "threat": 3166,
      "ico": 3167,
      "avail": 3168,
      "minor": 3169,
      "smart": 3170,
      "Because": 3171,
      "Despite": 3172,
      "Paris": 3173,
      "somewhere": 3174,
      "occur": 3175,
      "ultimately": 3176,
      "cry": 3177,
      "ran": 3178,
      "tend": 3179,
      "utterly": 3180,
      "itor": 3181,
      "considering": 3182,
      "innocent": 3183,
      "Dick": 3184,
      "iller": 3185,
      "Charlie": 3186,
      "Harr": 3187,
      "bot": 3188,
      "depress": 3189,
      "throw": 3190,
      "dom": 3191,
      "gas": 3192,
      "mir": 3193,
      "pan": 3194,
      "wild": 3195,
      "feat": 3196,
      "neither": 3197,
      "thinks": 3198,
      "Sar": 3199,
      "beha": 3200,
      "See": 3201,
      "Wil": 3202,
      "absur": 3203,
      "Kelly": 3204,
      "aus": 3205,
      "sitting": 3206,
      "terms": 3207,
      "moved": 3208,
      "qual": 3209,
      "bled": 3210,
      "twists": 3211,
      "sexy": 3212,
      "issues": 3213,
      "Dark": 3214,
      "SPO": 3215,
      "notice": 3216,
      "noir": 3217,
      "indust": 3218,
      "comedies": 3219,
      "surprisingly": 3220,
      "lay": 3221,
      "names": 3222,
      "enced": 3223,
      "vert": 3224,
      "aint": 3225,
      "drive": 3226,
      "LA": 3227,
      "nment": 3228,
      "uce": 3229,
      "plus": 3230,
      "ella": 3231,
      "born": 3232,
      "military": 3233,
      "intrigu": 3234,
      "ordinary": 3235,
      "BC": 3236,
      "aire": 3237,
      "ILER": 3238,
      "18": 3239,
      "Mic": 3240,
      "Sand": 3241,
      "managed": 3242,
      "steal": 3243,
      "generally": 3244,
      "Ac": 3245,
      "anda": 3246,
      "zombies": 3247,
      "witness": 3248,
      "shed": 3249,
      "likely": 3250,
      "touching": 3251,
      "million": 3252,
      "Jones": 3253,
      "lab": 3254,
      "pil": 3255,
      "unbelievable": 3256,
      "charm": 3257,
      "moral": 3258,
      "places": 3259,
      "Angel": 3260,
      "mult": 3261,
      "okay": 3262,
      "izes": 3263,
      "Jes": 3264,
      "conflict": 3265,
      "ified": 3266,
      "serial": 3267,
      "Nothing": 3268,
      "narrative": 3269,
      "SPOILER": 3270,
      "Bob": 3271,
      "Miss": 3272,
      "gag": 3273,
      "bear": 3274,
      "nowhere": 3275,
      "raid": 3276,
      "spec": 3277,
      "Cra": 3278,
      "Part": 3279,
      "terrific": 3280,
      "prop": 3281,
      "themes": 3282,
      "Ra": 3283,
      "exp": 3284,
      "uster": 3285,
      "topher": 3286,
      "GI": 3287,
      "Too": 3288,
      "Allen": 3289,
      "appropri": 3290,
      "attractive": 3291,
      "Ple": 3292,
      "seg": 3293,
      "verse": 3294,
      "views": 3295,
      "000": 3296,
      "mistake": 3297,
      "lyn": 3298,
      "load": 3299,
      "asty": 3300,
      "cock": 3301,
      "laughable": 3302,
      "remains": 3303,
      "inn": 3304,
      "train": 3305,
      "boss": 3306,
      "century": 3307,
      "sen": 3308,
      "void": 3309,
      "constantly": 3310,
      "wis": 3311,
      "init": 3312,
      "knowing": 3313,
      "flashback": 3314,
      "divid": 3315,
      "comfort": 3316,
      "laughter": 3317,
      "presence": 3318,
      "equally": 3319,
      "Christopher": 3320,
      "mm": 3321,
      "chall": 3322,
      "icated": 3323,
      "idence": 3324,
      "plane": 3325,
      "aware": 3326,
      "position": 3327,
      "absurd": 3328,
      "held": 3329,
      "ively": 3330,
      "intent": 3331,
      "gry": 3332,
      "thank": 3333,
      "costumes": 3334,
      "Life": 3335,
      "WW": 3336,
      "ify": 3337,
      "painful": 3338,
      "walking": 3339,
      "ties": 3340,
      "remain": 3341,
      "lose": 3342,
      "loves": 3343,
      "scenery": 3344,
      "thrown": 3345,
      "crow": 3346,
      "excuse": 3347,
      "beautifully": 3348,
      "Jean": 3349,
      "13": 3350,
      "OO": 3351,
      "Sci": 3352,
      "ched": 3353,
      "une": 3354,
      "ante": 3355,
      "difference": 3356,
      "marriage": 3357,
      "Once": 3358,
      "cinematic": 3359,
      "changes": 3360,
      "professional": 3361,
      "Story": 3362,
      "South": 3363,
      "len": 3364,
      "edge": 3365,
      "lia": 3366,
      "watchable": 3367,
      "offer": 3368,
      "ledge": 3369,
      "pictures": 3370,
      "dreams": 3371,
      "soul": 3372,
      "individ": 3373,
      "onto": 3374,
      "Young": 3375,
      "system": 3376,
      "disappointing": 3377,
      "Charles": 3378,
      "EVER": 3379,
      "ior": 3380,
      "ands": 3381,
      "details": 3382,
      "Mus": 3383,
      "escap": 3384,
      "alive": 3385,
      "intended": 3386,
      "correct": 3387,
      "historical": 3388,
      "theless": 3389,
      "irth": 3390,
      "shad": 3391,
      "mission": 3392,
      "disappointment": 3393,
      "influ": 3394,
      "drunk": 3395,
      "subst": 3396,
      "animals": 3397,
      "current": 3398,
      "passion": 3399,
      "photography": 3400,
      "available": 3401,
      "Hard": 3402,
      "squ": 3403,
      "inspir": 3404,
      "stands": 3405,
      "numbers": 3406,
      "hoping": 3407,
      "mouth": 3408,
      "yle": 3409,
      "reck": 3410,
      "edy": 3411,
      "Henry": 3412,
      "mart": 3413,
      "ron": 3414,
      "club": 3415,
      "medio": 3416,
      "aspects": 3417,
      "pen": 3418,
      "commer": 3419,
      "agic": 3420,
      "mysterious": 3421,
      "journey": 3422,
      "West": 3423,
      "core": 3424,
      "ride": 3425,
      "outstanding": 3426,
      "expectations": 3427,
      "slowly": 3428,
      "destroy": 3429,
      "owers": 3430,
      "inder": 3431,
      "feelings": 3432,
      "suppose": 3433,
      "placed": 3434,
      "12": 3435,
      "Bad": 3436,
      "Hel": 3437,
      "ki": 3438,
      "witch": 3439,
      "yer": 3440,
      "esh": 3441,
      "recommended": 3442,
      "building": 3443,
      "Batman": 3444,
      "Little": 3445,
      "tar": 3446,
      "amed": 3447,
      "graphic": 3448,
      "Indian": 3449,
      "Ram": 3450,
      "dated": 3451,
      "tur": 3452,
      "ini": 3453,
      "island": 3454,
      "aton": 3455,
      "willing": 3456,
      "Bruce": 3457,
      "boyfriend": 3458,
      "breath": 3459,
      "imagin": 3460,
      "fiction": 3461,
      "affair": 3462,
      "rape": 3463,
      "lovely": 3464,
      "lighting": 3465,
      "opportunity": 3466,
      "resem": 3467,
      "icide": 3468,
      "lived": 3469,
      "dig": 3470,
      "compelling": 3471,
      "Mark": 3472,
      "Show": 3473,
      "andon": 3474,
      "filming": 3475,
      "Sy": 3476,
      "justice": 3477,
      "clean": 3478,
      "soldiers": 3479,
      "bits": 3480,
      "gust": 3481,
      "vey": 3482,
      "contains": 3483,
      "Many": 3484,
      "trick": 3485,
      "phone": 3486,
      "surround": 3487,
      "fright": 3488,
      "legend": 3489,
      "Tre": 3490,
      "bol": 3491,
      "cele": 3492,
      "ura": 3493,
      "aps": 3494,
      "grad": 3495,
      "producer": 3496,
      "emotions": 3497,
      "protagon": 3498,
      "fool": 3499,
      "wide": 3500,
      "ills": 3501,
      "government": 3502,
      "fascinating": 3503,
      "individual": 3504,
      "Spe": 3505,
      "loose": 3506,
      "oop": 3507,
      "intense": 3508,
      "happening": 3509,
      "silent": 3510,
      "Never": 3511,
      "stre": 3512,
      "model": 3513,
      "intention": 3514,
      "Ant": 3515,
      "asks": 3516,
      "image": 3517,
      "anted": 3518,
      "content": 3519,
      "puts": 3520,
      "sal": 3521,
      "tired": 3522,
      "Thom": 3523,
      "Shak": 3524,
      "Kr": 3525,
      "Kar": 3526,
      "gin": 3527,
      "traged": 3528,
      "Dar": 3529,
      "via": 3530,
      "chick": 3531,
      "cks": 3532,
      "Canad": 3533,
      "fellow": 3534,
      "detective": 3535,
      "neighbor": 3536,
      "Oli": 3537,
      "flow": 3538,
      "element": 3539,
      "include": 3540,
      "SE": 3541,
      "aside": 3542,
      "drink": 3543,
      "helps": 3544,
      "critics": 3545,
      "MO": 3546,
      "arts": 3547,
      "phy": 3548,
      "victims": 3549,
      "nic": 3550,
      "itude": 3551,
      "entially": 3552,
      "mainly": 3553,
      "Steven": 3554,
      "behavi": 3555,
      "kno": 3556,
      "argu": 3557,
      "titles": 3558,
      "IE": 3559,
      "si": 3560,
      "hasn": 3561,
      "plots": 3562,
      "fault": 3563,
      "Mex": 3564,
      "han": 3565,
      "deter": 3566,
      "safe": 3567,
      "niest": 3568,
      "planet": 3569,
      "circ": 3570,
      "commercial": 3571,
      "celebr": 3572,
      "share": 3573,
      "lacks": 3574,
      "een": 3575,
      "pun": 3576,
      "iles": 3577,
      "ural": 3578,
      "crack": 3579,
      "paid": 3580,
      "adults": 3581,
      "struct": 3582,
      "Martin": 3583,
      "eth": 3584,
      "gorge": 3585,
      "itional": 3586,
      "spital": 3587,
      "actresses": 3588,
      "negative": 3589,
      "Bol": 3590,
      "Did": 3591,
      "Jerry": 3592,
      "RA": 3593,
      "apo": 3594,
      "artist": 3595,
      "tood": 3596,
      "prim": 3597,
      "confused": 3598,
      "alien": 3599,
      "student": 3600,
      "ape": 3601,
      "wolf": 3602,
      "enter": 3603,
      "progress": 3604,
      "thorough": 3605,
      "Billy": 3606,
      "IG": 3607,
      "naked": 3608,
      "loy": 3609,
      "Americans": 3610,
      "falling": 3611,
      "Blood": 3612,
      "ander": 3613,
      "mote": 3614,
      "matic": 3615,
      "followed": 3616,
      "Both": 3617,
      "virt": 3618,
      "ibility": 3619,
      "melo": 3620,
      "Par": 3621,
      "creative": 3622,
      "impressed": 3623,
      "relationships": 3624,
      "flaws": 3625,
      "trailer": 3626,
      "Gi": 3627,
      "Val": 3628,
      "pra": 3629,
      "rout": 3630,
      "gold": 3631,
      "ablish": 3632,
      "disgust": 3633,
      "emplo": 3634,
      "confusing": 3635,
      "More": 3636,
      "lessly": 3637,
      "collection": 3638,
      "Please": 3639,
      "Les": 3640,
      "latter": 3641,
      "mine": 3642,
      "uous": 3643,
      "thin": 3644,
      "onna": 3645,
      "trust": 3646,
      "quiet": 3647,
      "porn": 3648,
      "record": 3649,
      "ahead": 3650,
      "ju": 3651,
      "proves": 3652,
      "decis": 3653,
      "Jul": 3654,
      "superi": 3655,
      "prote": 3656,
      "imagination": 3657,
      "flicks": 3658,
      "winning": 3659,
      "Girl": 3660,
      "race": 3661,
      "soft": 3662,
      "independ": 3663,
      "ases": 3664,
      "establish": 3665,
      "prin": 3666,
      "standards": 3667,
      "laughed": 3668,
      "wondering": 3669,
      "childhood": 3670,
      "explained": 3671,
      "merely": 3672,
      "mediocre": 3673,
      "minis": 3674,
      "warm": 3675,
      "Davis": 3676,
      "delivers": 3677,
      "brothers": 3678,
      "students": 3679,
      "Brian": 3680,
      "60": 3681,
      "uts": 3682,
      "irrit": 3683,
      "gem": 3684,
      "forever": 3685,
      "frust": 3686,
      "pleasant": 3687,
      "tragedy": 3688,
      "Ver": 3689,
      "dread": 3690,
      "gg": 3691,
      "sin": 3692,
      "offers": 3693,
      "Alan": 3694,
      "gorgeous": 3695,
      "Mag": 3696,
      "Nick": 3697,
      "remote": 3698,
      "forgotten": 3699,
      "nobody": 3700,
      "formula": 3701,
      "provides": 3702,
      "Cha": 3703,
      "tragic": 3704,
      "awk": 3705,
      "addition": 3706,
      "hide": 3707,
      "heal": 3708,
      "becoming": 3709,
      "funniest": 3710,
      "Jud": 3711,
      "Men": 3712,
      "VE": 3713,
      "mount": 3714,
      "loving": 3715,
      "lights": 3716,
      "putting": 3717,
      "Zomb": 3718,
      "information": 3719,
      "ilities": 3720,
      "igno": 3721,
      "grat": 3722,
      "central": 3723,
      "compan": 3724,
      "deserved": 3725,
      "Williams": 3726,
      "accurate": 3727,
      "Ter": 3728,
      "eat": 3729,
      "hab": 3730,
      "text": 3731,
      "ado": 3732,
      "soci": 3733,
      "spectac": 3734,
      "murders": 3735,
      "multi": 3736,
      "Cam": 3737,
      "Having": 3738,
      "compet": 3739,
      "thanks": 3740,
      "evol": 3741,
      "surely": 3742,
      "opera": 3743,
      "ancy": 3744,
      "resc": 3745,
      "blind": 3746,
      "sadly": 3747,
      "forgettable": 3748,
      "achieve": 3749,
      "Shakespe": 3750,
      "thoroughly": 3751,
      "AM": 3752,
      "Ms": 3753,
      "ider": 3754,
      "ishing": 3755,
      "object": 3756,
      "inese": 3757,
      "stuck": 3758,
      "faces": 3759,
      "anic": 3760,
      "agger": 3761,
      "afraid": 3762,
      "Robin": 3763,
      "Jackson": 3764,
      "double": 3765,
      "Jon": 3766,
      "bright": 3767,
      "itions": 3768,
      "contem": 3769,
      "auto": 3770,
      "Fox": 3771,
      "length": 3772,
      "Bor": 3773,
      "hook": 3774,
      "twice": 3775,
      "reminded": 3776,
      "Look": 3777,
      "Mi": 3778,
      "ups": 3779,
      "seemingly": 3780,
      "gling": 3781,
      "honestly": 3782,
      "occasion": 3783,
      "BE": 3784,
      "DO": 3785,
      "empt": 3786,
      "allowed": 3787,
      "evin": 3788,
      "hospital": 3789,
      "azz": 3790,
      "relative": 3791,
      "adds": 3792,
      "location": 3793,
      "DE": 3794,
      "Lyn": 3795,
      "aries": 3796,
      "oted": 3797,
      "turning": 3798,
      "woods": 3799,
      "mut": 3800,
      "tt": 3801,
      "aud": 3802,
      "White": 3803,
      "personality": 3804,
      "apartment": 3805,
      "remarkable": 3806,
      "Gor": 3807,
      "Sin": 3808,
      "Since": 3809,
      "shing": 3810,
      "process": 3811,
      "folks": 3812,
      "holes": 3813,
      "Austral": 3814,
      "industry": 3815,
      "itz": 3816,
      "station": 3817,
      "finished": 3818,
      "news": 3819,
      "azy": 3820,
      "Death": 3821,
      "supposedly": 3822,
      "damn": 3823,
      "presents": 3824,
      "Hit": 3825,
      "birth": 3826,
      "cal": 3827,
      "nu": 3828,
      "area": 3829,
      "artistic": 3830,
      "rented": 3831,
      "shocking": 3832,
      "Er": 3833,
      "block": 3834,
      "bell": 3835,
      "giant": 3836,
      "Street": 3837,
      "impact": 3838,
      "seconds": 3839,
      "Sil": 3840,
      "onder": 3841,
      "filmmaker": 3842,
      "prefer": 3843,
      "broad": 3844,
      "Danny": 3845,
      "picked": 3846,
      "describe": 3847,
      "hic": 3848,
      "nasty": 3849,
      "anymore": 3850,
      "clothes": 3851,
      "discuss": 3852,
      "zan": 3853,
      "grow": 3854,
      "grade": 3855,
      "Chinese": 3856,
      "explan": 3857,
      "heads": 3858,
      "pleasure": 3859,
      "Horror": 3860,
      "bottom": 3861,
      "Bak": 3862,
      "Sant": 3863,
      "Tay": 3864,
      "mare": 3865,
      "erous": 3866,
      "Their": 3867,
      "youth": 3868,
      "speaking": 3869,
      "scientist": 3870,
      "redeeming": 3871,
      "streng": 3872,
      "Shakespeare": 3873,
      "Wr": 3874,
      "eight": 3875,
      "nal": 3876,
      "finding": 3877,
      "Roy": 3878,
      "Stephen": 3879,
      "Everything": 3880,
      "struggle": 3881,
      "Dam": 3882,
      "emp": 3883,
      "magn": 3884,
      "IC": 3885,
      "fits": 3886,
      "ano": 3887,
      "unexpected": 3888,
      "desert": 3889,
      "buff": 3890,
      "helped": 3891,
      "regular": 3892,
      "Jason": 3893,
      "Lar": 3894,
      "bank": 3895,
      "grace": 3896,
      "shouldn": 3897,
      "commun": 3898,
      "ugly": 3899,
      "techno": 3900,
      "vampire": 3901,
      "superior": 3902,
      "Que": 3903,
      "bum": 3904,
      "uff": 3905,
      "ency": 3906,
      "asp": 3907,
      "iro": 3908,
      "wearing": 3909,
      "realized": 3910,
      "ctions": 3911,
      "Mal": 3912,
      "Sus": 3913,
      "da": 3914,
      "sour": 3915,
      "ita": 3916,
      "rog": 3917,
      "soever": 3918,
      "tran": 3919,
      "wooden": 3920,
      "Ann": 3921,
      "drugs": 3922,
      "UN": 3923,
      "ked": 3924,
      "wing": 3925,
      "hey": 3926,
      "icate": 3927,
      "began": 3928,
      "motiv": 3929,
      "issue": 3930,
      "Dougl": 3931,
      "Green": 3932,
      "Out": 3933,
      "nia": 3934,
      "arm": 3935,
      "whatsoever": 3936,
      "insight": 3937,
      "pretent": 3938,
      "dying": 3939,
      "possess": 3940,
      "engaging": 3941,
      "AC": 3942,
      "national": 3943,
      "sky": 3944,
      "tack": 3945,
      "shop": 3946,
      "Which": 3947,
      "fights": 3948,
      "includes": 3949,
      "fli": 3950,
      "gre": 3951,
      "asure": 3952,
      "fill": 3953,
      "Joan": 3954,
      "Before": 3955,
      "favourite": 3956,
      "flying": 3957,
      "mally": 3958,
      "punch": 3959,
      "va": 3960,
      "angry": 3961,
      "wee": 3962,
      "ppy": 3963,
      "everybody": 3964,
      "listen": 3965,
      "hotel": 3966,
      "repeated": 3967,
      "Was": 3968,
      "bid": 3969,
      "boo": 3970,
      "bish": 3971,
      "food": 3972,
      "hat": 3973,
      "sun": 3974,
      "research": 3975,
      "chore": 3976,
      "deeply": 3977,
      "intelligence": 3978,
      "energy": 3979,
      "teacher": 3980,
      "Taylor": 3981,
      "iest": 3982,
      "tight": 3983,
      "award": 3984,
      "wonderfully": 3985,
      "comparis": 3986,
      "spective": 3987,
      "fold": 3988,
      "hint": 3989,
      "zo": 3990,
      "army": 3991,
      "irk": 3992,
      "scare": 3993,
      "manage": 3994,
      "bland": 3995,
      "comedic": 3996,
      "technical": 3997,
      "Brother": 3998,
      "drop": 3999,
      "introduced": 4000,
      "appropriate": 4001,
      "Douglas": 4002,
      "Ron": 4003,
      "suicide": 4004,
      "doz": 4005,
      "heroes": 4006,
      "breaking": 4007,
      "capture": 4008,
      "limited": 4009,
      "Phil": 4010,
      "physical": 4011,
      "Kate": 4012,
      "Sad": 4013,
      "fif": 4014,
      "stream": 4015,
      "mob": 4016,
      "weap": 4017,
      "oppos": 4018,
      "Andy": 4019,
      "sident": 4020,
      "responsible": 4021,
      "Finally": 4022,
      "tears": 4023,
      "epic": 4024,
      "disaster": 4025,
      "80s": 4026,
      "Naz": 4027,
      "convers": 4028,
      "skin": 4029,
      "Morgan": 4030,
      "martial": 4031,
      "Di": 4032,
      "Kid": 4033,
      "sey": 4034,
      "herent": 4035,
      "Johnny": 4036,
      "slap": 4037,
      "signific": 4038,
      "Keaton": 4039,
      "Im": 4040,
      "bill": 4041,
      "games": 4042,
      "lon": 4043,
      "perform": 4044,
      "explore": 4045,
      "sentiment": 4046,
      "osen": 4047,
      "humans": 4048,
      "Eddie": 4049,
      "priv": 4050,
      "continue": 4051,
      "brutal": 4052,
      "pretentious": 4053,
      "Lau": 4054,
      "ben": 4055,
      "bra": 4056,
      "cate": 4057,
      "inct": 4058,
      "stunt": 4059,
      "commentary": 4060,
      "provide": 4061,
      "Andrew": 4062,
      "holds": 4063,
      "religious": 4064,
      "itous": 4065,
      "Eli": 4066,
      "TO": 4067,
      "leep": 4068,
      "agent": 4069,
      "Those": 4070,
      "awn": 4071,
      "knowledge": 4072,
      "realism": 4073,
      "partner": 4074,
      "Dor": 4075,
      "sac": 4076,
      "stat": 4077,
      "illa": 4078,
      "asked": 4079,
      "sympath": 4080,
      "Hitler": 4081,
      "GE": 4082,
      "cable": 4083,
      "interpret": 4084,
      "kidn": 4085,
      "Jose": 4086,
      "fle": 4087,
      "ga": 4088,
      "channel": 4089,
      "unusual": 4090,
      "unnecessary": 4091,
      "anywhere": 4092,
      "personally": 4093,
      "grapher": 4094,
      "surprising": 4095,
      "Span": 4096,
      "contrast": 4097,
      "AY": 4098,
      "VH": 4099,
      "relie": 4100,
      "account": 4101,
      "vehic": 4102,
      "unting": 4103,
      "scared": 4104,
      "memory": 4105,
      "Second": 4106,
      "paced": 4107,
      "Russian": 4108,
      "70s": 4109,
      "Law": 4110,
      "bound": 4111,
      "fare": 4112,
      "depart": 4113,
      "ifer": 4114,
      "player": 4115,
      "dry": 4116,
      "capable": 4117,
      "Lind": 4118,
      "Rose": 4119,
      "Western": 4120,
      "ston": 4121,
      "accompl": 4122,
      "ays": 4123,
      "horse": 4124,
      "Ford": 4125,
      "teenage": 4126,
      "bath": 4127,
      "cow": 4128,
      "cup": 4129,
      "abs": 4130,
      "ademy": 4131,
      "cording": 4132,
      "creating": 4133,
      "BO": 4134,
      "Carr": 4135,
      "CGI": 4136,
      "kin": 4137,
      "nomin": 4138,
      "separ": 4139,
      "extr": 4140,
      "leader": 4141,
      "elect": 4142,
      "England": 4143,
      "pilot": 4144,
      "Pac": 4145,
      "eper": 4146,
      "fly": 4147,
      "asing": 4148,
      "otes": 4149,
      "ama": 4150,
      "noticed": 4151,
      "prec": 4152,
      "ipul": 4153,
      "Brook": 4154,
      "compare": 4155,
      "Fl": 4156,
      "Last": 4157,
      "advert": 4158,
      "irt": 4159,
      "debut": 4160,
      "creature": 4161,
      "undred": 4162,
      "independent": 4163,
      "Ry": 4164,
      "vive": 4165,
      "ya": 4166,
      "print": 4167,
      "cuts": 4168,
      "desperate": 4169,
      "awkward": 4170,
      "gers": 4171,
      "sli": 4172,
      "ils": 4173,
      "understanding": 4174,
      "Jr": 4175,
      "Lady": 4176,
      "wanting": 4177,
      "Everyone": 4178,
      "Victori": 4179,
      "intriguing": 4180,
      "Eric": 4181,
      "Okay": 4182,
      "Tit": 4183,
      "hundred": 4184,
      "mild": 4185,
      "yed": 4186,
      "resol": 4187,
      "acqu": 4188,
      "owell": 4189,
      "deb": 4190,
      "Uni": 4191,
      "symbol": 4192,
      "knock": 4193,
      "hur": 4194,
      "ption": 4195,
      "smile": 4196,
      "heroine": 4197,
      "passed": 4198,
      "intellect": 4199,
      "instance": 4200,
      "discovered": 4201,
      "Rus": 4202,
      "card": 4203,
      "rarely": 4204,
      "isa": 4205,
      "stret": 4206,
      "ousy": 4207,
      "stock": 4208,
      "ugs": 4209,
      "media": 4210,
      "Donald": 4211,
      "pacing": 4212,
      "Far": 4213,
      "rical": 4214,
      "cher": 4215,
      "lif": 4216,
      "visit": 4217,
      "explos": 4218,
      "humanity": 4219,
      "reminds": 4220,
      "dimens": 4221,
      "WH": 4222,
      "bird": 4223,
      "rul": 4224,
      "belong": 4225,
      "flesh": 4226,
      "frame": 4227,
      "calls": 4228,
      "cul": 4229,
      "hurt": 4230,
      "vit": 4231,
      "inj": 4232,
      "unknown": 4233,
      "deserve": 4234,
      "clichés": 4235,
      "East": 4236,
      "San": 4237,
      "jer": 4238,
      "rick": 4239,
      "sed": 4240,
      "thats": 4241,
      "lovers": 4242,
      "owner": 4243,
      "players": 4244,
      "product": 4245,
      "visible": 4246,
      "invent": 4247,
      "explic": 4248,
      "Space": 4249,
      "techni": 4250,
      "explanation": 4251,
      "represent": 4252,
      "ilst": 4253,
      "ooper": 4254,
      "Thank": 4255,
      "sympathetic": 4256,
      "Jesus": 4257,
      "Kevin": 4258,
      "hated": 4259,
      "ication": 4260,
      "community": 4261,
      "cops": 4262,
      "rifying": 4263,
      "hidden": 4264,
      "Lynch": 4265,
      "14": 4266,
      "Fi": 4267,
      "thous": 4268,
      "tour": 4269,
      "church": 4270,
      "impl": 4271,
      "blame": 4272,
      "nicely": 4273,
      "Barbar": 4274,
      "constant": 4275,
      "torture": 4276,
      "Superman": 4277,
      "edited": 4278,
      "wash": 4279,
      "anybody": 4280,
      "sons": 4281,
      "Freddy": 4282,
      "lied": 4283,
      "ourne": 4284,
      "desire": 4285,
      "nonsense": 4286,
      "ALL": 4287,
      "guns": 4288,
      "spectacular": 4289,
      "VHS": 4290,
      "Cast": 4291,
      "Mid": 4292,
      "RO": 4293,
      "bian": 4294,
      "tie": 4295,
      "nold": 4296,
      "oph": 4297,
      "stein": 4298,
      "animal": 4299,
      "mixed": 4300,
      "radio": 4301,
      "satisfying": 4302,
      "Simon": 4303,
      "European": 4304,
      "magnific": 4305,
      "Spanish": 4306,
      "pin": 4307,
      "soap": 4308,
      "conc": 4309,
      "weight": 4310,
      "growing": 4311,
      "hadn": 4312,
      "served": 4313,
      "frequ": 4314,
      "educ": 4315,
      "floor": 4316,
      "bio": 4317,
      "cars": 4318,
      "gal": 4319,
      "stink": 4320,
      "charis": 4321,
      "twenty": 4322,
      "mature": 4323,
      "allows": 4324,
      "Jan": 4325,
      "Spo": 4326,
      "toward": 4327,
      "pless": 4328,
      "crash": 4329,
      "friendship": 4330,
      "Tarzan": 4331,
      "Sid": 4332,
      "returns": 4333,
      "onde": 4334,
      "seven": 4335,
      "forces": 4336,
      "sole": 4337,
      "prove": 4338,
      "Albert": 4339,
      "unted": 4340,
      "villains": 4341,
      "treated": 4342,
      "Cass": 4343,
      "Ye": 4344,
      "hall": 4345,
      "oul": 4346,
      "alk": 4347,
      "prep": 4348,
      "boat": 4349,
      "soldier": 4350,
      "concerned": 4351,
      "pulled": 4352,
      "Jess": 4353,
      "Mike": 4354,
      "Sher": 4355,
      "pse": 4356,
      "atory": 4357,
      "specially": 4358,
      "courage": 4359,
      "context": 4360,
      "court": 4361,
      "Lewis": 4362,
      "relev": 4363,
      "hearted": 4364,
      "freak": 4365,
      "summer": 4366,
      "hopes": 4367,
      "results": 4368,
      "Jimmy": 4369,
      "Capt": 4370,
      "Gl": 4371,
      "HA": 4372,
      "powers": 4373,
      "apes": 4374,
      "judge": 4375,
      "rubbish": 4376,
      "Free": 4377,
      "Sur": 4378,
      "Und": 4379,
      "Wow": 4380,
      "gs": 4381,
      "hits": 4382,
      "mate": 4383,
      "anch": 4384,
      "organ": 4385,
      "ario": 4386,
      "proceed": 4387,
      "related": 4388,
      "viv": 4389,
      "included": 4390,
      "memories": 4391,
      "appealing": 4392,
      "behavior": 4393,
      "EL": 4394,
      "Gary": 4395,
      "Washing": 4396,
      "fab": 4397,
      "aly": 4398,
      "months": 4399,
      "Anna": 4400,
      "market": 4401,
      "convent": 4402,
      "saved": 4403,
      "Jenn": 4404,
      "Rain": 4405,
      "ners": 4406,
      "reaction": 4407,
      "ators": 4408,
      "ender": 4409,
      "asts": 4410,
      "umbo": 4411,
      "grown": 4412,
      "Anth": 4413,
      "lacking": 4414,
      "Leon": 4415,
      "keeping": 4416,
      "bloody": 4417,
      "Broad": 4418,
      "iloso": 4419,
      "Washington": 4420,
      "Gene": 4421,
      "Lord": 4422,
      "fate": 4423,
      "skills": 4424,
      "wanna": 4425,
      "ari": 4426,
      "terribly": 4427,
      "finest": 4428,
      "talents": 4429,
      "versions": 4430,
      "traditional": 4431,
      "Queen": 4432,
      "Lam": 4433,
      "eating": 4434,
      "rise": 4435,
      "ato": 4436,
      "raz": 4437,
      "seless": 4438,
      "assist": 4439,
      "unders": 4440,
      "dangerous": 4441,
      "circum": 4442,
      "None": 4443,
      "send": 4444,
      "erotic": 4445,
      "abandon": 4446,
      "perspective": 4447,
      "ears": 4448,
      "expert": 4449,
      "delightful": 4450,
      "Bond": 4451,
      "Up": 4452,
      "ray": 4453,
      "atra": 4454,
      "weal": 4455,
      "finale": 4456,
      "philoso": 4457,
      "Moon": 4458,
      "dealing": 4459,
      "machine": 4460,
      "Anthony": 4461,
      "Hart": 4462,
      "cus": 4463,
      "kn": 4464,
      "nation": 4465,
      "park": 4466,
      "omen": 4467,
      "imal": 4468,
      "idge": 4469,
      "iring": 4470,
      "humorous": 4471,
      "yeah": 4472,
      "Santa": 4473,
      "Cine": 4474,
      "lat": 4475,
      "pup": 4476,
      "incre": 4477,
      "err": 4478,
      "deals": 4479,
      "manipul": 4480,
      "constru": 4481,
      "agers": 4482,
      "wear": 4483,
      "originally": 4484,
      "locations": 4485,
      "ivity": 4486,
      "captured": 4487,
      "theatre": 4488,
      "lucky": 4489,
      "Cap": 4490,
      "Sor": 4491,
      "green": 4492,
      "anced": 4493,
      "ache": 4494,
      "achel": 4495,
      "loses": 4496,
      "ette": 4497,
      "bigger": 4498,
      "kinda": 4499,
      "THIS": 4500,
      "reviewers": 4501,
      "driving": 4502,
      "breaks": 4503,
      "types": 4504,
      "gags": 4505,
      "ando": 4506,
      "format": 4507,
      "formed": 4508,
      "unfunny": 4509,
      "shar": 4510,
      "speed": 4511,
      "angle": 4512,
      "Stre": 4513,
      "marry": 4514,
      "Sean": 4515,
      "covered": 4516,
      "numerous": 4517,
      "murdered": 4518,
      "continues": 4519,
      "existence": 4520,
      "experiment": 4521,
      "psychological": 4522,
      "comfortable": 4523,
      "opposite": 4524,
      "dimensional": 4525,
      "Avoid": 4526,
      "gri": 4527,
      "received": 4528,
      "iled": 4529,
      "beth": 4530,
      "compe": 4531,
      "saur": 4532,
      "naive": 4533,
      "remembered": 4534,
      "Daniel": 4535,
      "sucks": 4536,
      "travel": 4537,
      "empty": 4538,
      "Tor": 4539,
      "fict": 4540,
      "ram": 4541,
      "ube": 4542,
      "opens": 4543,
      "strict": 4544,
      "Anne": 4545,
      "Luke": 4546,
      "satire": 4547,
      "graphed": 4548,
      "Kim": 4549,
      "RI": 4550,
      "tho": 4551,
      "ilies": 4552,
      "below": 4553,
      "serve": 4554,
      "viewed": 4555,
      "starting": 4556,
      "Marie": 4557,
      "Mrs": 4558,
      "revealed": 4559,
      "ladies": 4560,
      "featuring": 4561,
      "Jennifer": 4562,
      "Full": 4563,
      "Vo": 4564,
      "ka": 4565,
      "rix": 4566,
      "rival": 4567,
      "sche": 4568,
      "blue": 4569,
      "udes": 4570,
      "sett": 4571,
      "creates": 4572,
      "cameo": 4573,
      "reflect": 4574,
      "revolution": 4575,
      "Again": 4576,
      "Moo": 4577,
      "Plan": 4578,
      "fal": 4579,
      "grew": 4580,
      "udo": 4581,
      "zed": 4582,
      "iling": 4583,
      "ambit": 4584,
      "arded": 4585,
      "singer": 4586,
      "simpl": 4587,
      "Welles": 4588,
      "fortunate": 4589,
      "advice": 4590,
      "priest": 4591,
      "SPOILERS": 4592,
      "Kong": 4593,
      "consc": 4594,
      "insane": 4595,
      "Howard": 4596,
      "Beat": 4597,
      "efforts": 4598,
      "chester": 4599,
      "contribut": 4600,
      "circumst": 4601,
      "Ha": 4602,
      "Hell": 4603,
      "Hitch": 4604,
      "Sal": 4605,
      "hill": 4606,
      "ift": 4607,
      "preh": 4608,
      "learned": 4609,
      "African": 4610,
      "Harris": 4611,
      "Thomas": 4612,
      "princi": 4613,
      "Are": 4614,
      "Hu": 4615,
      "cis": 4616,
      "ec": 4617,
      "mary": 4618,
      "sis": 4619,
      "vul": 4620,
      "fet": 4621,
      "proved": 4622,
      "crappy": 4623,
      "Stone": 4624,
      "warning": 4625,
      "gangster": 4626,
      "witty": 4627,
      "shallow": 4628,
      "peace": 4629,
      "somebody": 4630,
      "survive": 4631,
      "Brad": 4632,
      "corpor": 4633,
      "Really": 4634,
      "ONE": 4635,
      "labor": 4636,
      "Get": 4637,
      "Time": 4638,
      "bon": 4639,
      "paper": 4640,
      "slo": 4641,
      "uitous": 4642,
      "vin": 4643,
      "iding": 4644,
      "unfold": 4645,
      "spell": 4646,
      "broken": 4647,
      "visuals": 4648,
      "ultimate": 4649,
      "segment": 4650,
      "Anton": 4651,
      "Had": 4652,
      "Vin": 4653,
      "tun": 4654,
      "oman": 4655,
      "Chan": 4656,
      "rence": 4657,
      "decade": 4658,
      "popul": 4659,
      "festival": 4660,
      "crowd": 4661,
      "target": 4662,
      "comparison": 4663,
      "Cage": 4664,
      "Mir": 4665,
      "aa": 4666,
      "wy": 4667,
      "associ": 4668,
      "seat": 4669,
      "goof": 4670,
      "built": 4671,
      "genuinely": 4672,
      "Fre": 4673,
      "Much": 4674,
      "YOU": 4675,
      "gam": 4676,
      "ration": 4677,
      "envir": 4678,
      "chair": 4679,
      "forms": 4680,
      "ribut": 4681,
      "porary": 4682,
      "officer": 4683,
      "Dol": 4684,
      "eer": 4685,
      "tes": 4686,
      "mented": 4687,
      "coherent": 4688,
      "frank": 4689,
      "regret": 4690,
      "North": 4691,
      "relief": 4692,
      "site": 4693,
      "thent": 4694,
      "esty": 4695,
      "therefore": 4696,
      "overly": 4697,
      "sake": 4698,
      "higher": 4699,
      "parody": 4700,
      "REAL": 4701,
      "brilliantly": 4702,
      "study": 4703,
      "suffering": 4704,
      "determin": 4705,
      "Sinatra": 4706,
      "16": 4707,
      "Lin": 4708,
      "Long": 4709,
      "MAN": 4710,
      "emer": 4711,
      "grave": 4712,
      "atives": 4713,
      "altern": 4714,
      "authent": 4715,
      "curious": 4716,
      "failure": 4717,
      "morning": 4718,
      "connection": 4719,
      "references": 4720,
      "demonstr": 4721,
      "Louis": 4722,
      "challeng": 4723,
      "irritating": 4724,
      "strength": 4725,
      "Hall": 4726,
      "cash": 4727,
      "thro": 4728,
      "discovers": 4729,
      "window": 4730,
      "stereotypes": 4731,
      "Joseph": 4732,
      "Barbara": 4733,
      "Bud": 4734,
      "Hay": 4735,
      "Hallow": 4736,
      "Tex": 4737,
      "gross": 4738,
      "reun": 4739,
      "chill": 4740,
      "unable": 4741,
      "ummer": 4742,
      "sheer": 4743,
      "Brown": 4744,
      "apping": 4745,
      "refre": 4746,
      "bringing": 4747,
      "sucked": 4748,
      "Watching": 4749,
      "delivered": 4750,
      "wedding": 4751,
      "screaming": 4752,
      "Bon": 4753,
      "wound": 4754,
      "ende": 4755,
      "stit": 4756,
      "ching": 4757,
      "usive": 4758,
      "miser": 4759,
      "marvel": 4760,
      "Anyone": 4761,
      "statement": 4762,
      "executed": 4763,
      "technology": 4764,
      "sharp": 4765,
      "environ": 4766,
      "Wars": 4767,
      "stone": 4768,
      "irm": 4769,
      "mini": 4770,
      "foreign": 4771,
      "corny": 4772,
      "spoof": 4773,
      "Cas": 4774,
      "Tri": 4775,
      "gonna": 4776,
      "stated": 4777,
      "nox": 4778,
      "lesson": 4779,
      "produce": 4780,
      "claims": 4781,
      "emotionally": 4782,
      "Die": 4783,
      "LI": 4784,
      "chan": 4785,
      "convey": 4786,
      "bodies": 4787,
      "blown": 4788,
      "cient": 4789,
      "Parker": 4790,
      "gratuitous": 4791,
      "Gordon": 4792,
      "wers": 4793,
      "edom": 4794,
      "compreh": 4795,
      "excite": 4796,
      "entertained": 4797,
      "caused": 4798,
      "majority": 4799,
      "Broadway": 4800,
      "Max": 4801,
      "bow": 4802,
      "ease": 4803,
      "hack": 4804,
      "rous": 4805,
      "veter": 4806,
      "mans": 4807,
      "speech": 4808,
      "versal": 4809,
      "monsters": 4810,
      "relate": 4811,
      "colour": 4812,
      "glass": 4813,
      "Prince": 4814,
      "protagonist": 4815,
      "Bes": 4816,
      "Rod": 4817,
      "Tru": 4818,
      "bag": 4819,
      "encounter": 4820,
      "alle": 4821,
      "cha": 4822,
      "offensive": 4823,
      "families": 4824,
      "Boy": 4825,
      "driven": 4826,
      "logic": 4827,
      "spoilers": 4828,
      "flashbacks": 4829,
      "25": 4830,
      "Gener": 4831,
      "Old": 4832,
      "Viet": 4833,
      "alco": 4834,
      "itter": 4835,
      "liber": 4836,
      "abr": 4837,
      "raw": 4838,
      "attitude": 4839,
      "painfully": 4840,
      "experienced": 4841,
      "alifor": 4842,
      "Mean": 4843,
      "switch": 4844,
      "treatment": 4845,
      "sports": 4846,
      "Wayne": 4847,
      "Academy": 4848,
      "shadow": 4849,
      "Trek": 4850,
      "vehicle": 4851,
      "authentic": 4852,
      "17": 4853,
      "lone": 4854,
      "blonde": 4855,
      "serves": 4856,
      "levels": 4857,
      "rolling": 4858,
      "incident": 4859,
      "Sadly": 4860,
      "Ash": 4861,
      "Ty": 4862,
      "aid": 4863,
      "iac": 4864,
      "pity": 4865,
      "angles": 4866,
      "France": 4867,
      "identity": 4868,
      "walks": 4869,
      "meeting": 4870,
      "dressed": 4871,
      "decision": 4872,
      "occasionally": 4873,
      "Moore": 4874,
      "Halloween": 4875,
      "Cinder": 4876,
      "Matt": 4877,
      "Nich": 4878,
      "Sto": 4879,
      "range": 4880,
      "zero": 4881,
      "report": 4882,
      "atroc": 4883,
      "amor": 4884,
      "shine": 4885,
      "provo": 4886,
      "excited": 4887,
      "handed": 4888,
      "harsh": 4889,
      "combination": 4890,
      "obsessed": 4891,
      "UK": 4892,
      "uel": 4893,
      "whel": 4894,
      "ador": 4895,
      "thern": 4896,
      "inept": 4897,
      "ached": 4898,
      "handsome": 4899,
      "Jackie": 4900,
      "suffer": 4901,
      "described": 4902,
      "Victoria": 4903,
      "Sky": 4904,
      "UT": 4905,
      "junk": 4906,
      "pit": 4907,
      "uc": 4908,
      "asking": 4909,
      "ara": 4910,
      "rig": 4911,
      "essentially": 4912,
      "spin": 4913,
      "Asian": 4914,
      "corrupt": 4915,
      "ville": 4916,
      "cruel": 4917,
      "Victor": 4918,
      "amateurish": 4919,
      "magnificent": 4920,
      "App": 4921,
      "Cru": 4922,
      "cab": 4923,
      "skill": 4924,
      "finitely": 4925,
      "angers": 4926,
      "tape": 4927,
      "underrated": 4928,
      "believes": 4929,
      "expression": 4930,
      "exploitation": 4931,
      "assume": 4932,
      "Karl": 4933,
      "dreadful": 4934,
      "understood": 4935,
      "alifornia": 4936,
      "Cinderella": 4937,
      "LD": 4938,
      "bond": 4939,
      "ench": 4940,
      "river": 4941,
      "aka": 4942,
      "distr": 4943,
      "reviewer": 4944,
      "portrays": 4945,
      "Grant": 4946,
      "Clark": 4947,
      "seasons": 4948,
      "theaters": 4949,
      "Woody": 4950,
      "religion": 4951,
      "Hitchcock": 4952,
      "Cal": 4953,
      "Nancy": 4954,
      "rain": 4955,
      "vs": 4956,
      "vac": 4957,
      "inte": 4958,
      "stopped": 4959,
      "Being": 4960,
      "normally": 4961,
      "focused": 4962,
      "learns": 4963,
      "service": 4964,
      "Francis": 4965,
      "competent": 4966,
      "Care": 4967,
      "Kill": 4968,
      "glo": 4969,
      "imo": 4970,
      "lum": 4971,
      "chosen": 4972,
      "ulli": 4973,
      "neck": 4974,
      "quir": 4975,
      "Anderson": 4976,
      "ignor": 4977,
      "dubbed": 4978,
      "contrived": 4979,
      "Canadian": 4980,
      "Ali": 4981,
      "Ret": 4982,
      "cro": 4983,
      "reput": 4984,
      "repor": 4985,
      "stum": 4986,
      "forth": 4987,
      "ament": 4988,
      "feet": 4989,
      "endless": 4990,
      "mates": 4991,
      "fron": 4992,
      "cares": 4993,
      "ruined": 4994,
      "involves": 4995,
      "Without": 4996,
      "embarrassing": 4997,
      "practically": 4998,
      "Greg": 4999,
      "Mont": 5000,
      "sedu": 5001,
      "ilty": 5002,
      "lower": 5003,
      "stume": 5004,
      "Lost": 5005,
      "Does": 5006,
      "costs": 5007,
      "necessarily": 5008,
      "largely": 5009,
      "Actually": 5010,
      "Off": 5011,
      "SO": 5012,
      "hearing": 5013,
      "section": 5014,
      "ading": 5015,
      "Through": 5016,
      "thoughts": 5017,
      "highlight": 5018,
      "portraying": 5019,
      "generation": 5020,
      "Germany": 5021,
      "Walter": 5022,
      "Plus": 5023,
      "intentionally": 5024,
      "fictional": 5025,
      "Hop": 5026,
      "Later": 5027,
      "Pri": 5028,
      "buster": 5029,
      "nine": 5030,
      "choose": 5031,
      "unrealistic": 5032,
      "alling": 5033,
      "scr": 5034,
      "cris": 5035,
      "transl": 5036,
      "descript": 5037,
      "Barry": 5038,
      "streets": 5039,
      "Patrick": 5040,
      "Baby": 5041,
      "Wonder": 5042,
      "whilst": 5043,
      "lift": 5044,
      "trade": 5045,
      "scale": 5046,
      "pregn": 5047,
      "proud": 5048,
      "evidence": 5049,
      "THAT": 5050,
      "theatrical": 5051,
      "Come": 5052,
      "fame": 5053,
      "ok": 5054,
      "saving": 5055,
      "vy": 5056,
      "decl": 5057,
      "poses": 5058,
      "facts": 5059,
      "convinced": 5060,
      "thusi": 5061,
      "depressing": 5062,
      "propag": 5063,
      "substance": 5064,
      "Captain": 5065,
      "Cur": 5066,
      "domin": 5067,
      "ancient": 5068,
      "civil": 5069,
      "anged": 5070,
      "center": 5071,
      "ENT": 5072,
      "About": 5073,
      "faithful": 5074,
      "IGH": 5075,
      "routine": 5076,
      "rescue": 5077,
      "Ryan": 5078,
      "circumstances": 5079,
      "Pitt": 5080,
      "Sk": 5081,
      "cel": 5082,
      "wid": 5083,
      "poster": 5084,
      "los": 5085,
      "angel": 5086,
      "commit": 5087,
      "holding": 5088,
      "village": 5089,
      "sequels": 5090,
      "relevant": 5091,
      "excitement": 5092,
      "Nichol": 5093,
      "Dream": 5094,
      "isher": 5095,
      "umps": 5096,
      "Stu": 5097,
      "visually": 5098,
      "voices": 5099,
      "arently": 5100,
      "Grand": 5101,
      "captures": 5102,
      "alcohol": 5103,
      "Dian": 5104,
      "Nat": 5105,
      "cook": 5106,
      "omer": 5107,
      "losing": 5108,
      "whenever": 5109,
      "talks": 5110,
      "tedious": 5111,
      "involve": 5112,
      "imaginative": 5113,
      "intellectual": 5114,
      "Back": 5115,
      "Powell": 5116,
      "Satur": 5117,
      "phe": 5118,
      "vies": 5119,
      "strip": 5120,
      "neat": 5121,
      "essential": 5122,
      "guar": 5123,
      "icked": 5124,
      "handled": 5125,
      "admir": 5126,
      "Oliver": 5127,
      "nominated": 5128,
      "BI": 5129,
      "Camp": 5130,
      "Fest": 5131,
      "GM": 5132,
      "Scre": 5133,
      "Ve": 5134,
      "lousy": 5135,
      "asleep": 5136,
      "ille": 5137,
      "inevit": 5138,
      "udic": 5139,
      "matters": 5140,
      "sides": 5141,
      "teenager": 5142,
      "teenagers": 5143,
      "faced": 5144,
      "relatively": 5145,
      "BS": 5146,
      "Master": 5147,
      "Ted": 5148,
      "gree": 5149,
      "vague": 5150,
      "rep": 5151,
      "enthusi": 5152,
      "torm": 5153,
      "maint": 5154,
      "bitter": 5155,
      "hyster": 5156,
      "directly": 5157,
      "anime": 5158,
      "rental": 5159,
      "sorts": 5160,
      "ilogy": 5161,
      "Murphy": 5162,
      "Africa": 5163,
      "Saturday": 5164,
      "Cent": 5165,
      "Dun": 5166,
      "cant": 5167,
      "pic": 5168,
      "thod": 5169,
      "recall": 5170,
      "heaven": 5171,
      "femin": 5172,
      "urban": 5173,
      "assass": 5174,
      "Inter": 5175,
      "function": 5176,
      "capital": 5177,
      "figured": 5178,
      "appreciated": 5179,
      "Hope": 5180,
      "Apparently": 5181,
      "Evil": 5182,
      "factor": 5183,
      "oting": 5184,
      "pets": 5185,
      "guard": 5186,
      "destru": 5187,
      "urns": 5188,
      "surreal": 5189,
      "steals": 5190,
      "cutting": 5191,
      "strongly": 5192,
      "football": 5193,
      "claimed": 5194,
      "liners": 5195,
      "depicted": 5196,
      "insult": 5197,
      "mirror": 5198,
      "Michel": 5199,
      "initial": 5200,
      "disgusting": 5201,
      "1st": 5202,
      "AA": 5203,
      "Ros": 5204,
      "Sho": 5205,
      "Take": 5206,
      "fix": 5207,
      "secur": 5208,
      "ads": 5209,
      "versity": 5210,
      "THING": 5211,
      "Beaut": 5212,
      "inosaur": 5213,
      "contemporary": 5214,
      "dent": 5215,
      "gard": 5216,
      "pile": 5217,
      "spre": 5218,
      "ww": 5219,
      "reminis": 5220,
      "shel": 5221,
      "clue": 5222,
      "osex": 5223,
      "excess": 5224,
      "pursu": 5225,
      "document": 5226,
      "promising": 5227,
      "anagh": 5228,
      "controvers": 5229,
      "unlikely": 5230,
      "Russell": 5231,
      "Texas": 5232,
      "Besides": 5233,
      "Bu": 5234,
      "MA": 5235,
      "Mer": 5236,
      "Mol": 5237,
      "NY": 5238,
      "ued": 5239,
      "vote": 5240,
      "revel": 5241,
      "believed": 5242,
      "Sometimes": 5243,
      "shocked": 5244,
      "resist": 5245,
      "qualities": 5246,
      "structure": 5247,
      "category": 5248,
      "false": 5249,
      "Cat": 5250,
      "Dem": 5251,
      "End": 5252,
      "Page": 5253,
      "Sat": 5254,
      "ds": 5255,
      "dirty": 5256,
      "hes": 5257,
      "wil": 5258,
      "sher": 5259,
      "ideo": 5260,
      "costume": 5261,
      "lesbian": 5262,
      "prior": 5263,
      "promise": 5264,
      "Columbo": 5265,
      "provided": 5266,
      "semi": 5267,
      "baseball": 5268,
      "Australian": 5269,
      "conscious": 5270,
      "Frid": 5271,
      "gig": 5272,
      "ludic": 5273,
      "ensu": 5274,
      "unfortunate": 5275,
      "Three": 5276,
      "umph": 5277,
      "display": 5278,
      "horribly": 5279,
      "classics": 5280,
      "sitcom": 5281,
      "credible": 5282,
      "cases": 5283,
      "touches": 5284,
      "skip": 5285,
      "lawyer": 5286,
      "connect": 5287,
      "virtually": 5288,
      "protect": 5289,
      "osexual": 5290,
      "During": 5291,
      "sne": 5292,
      "lection": 5293,
      "Island": 5294,
      "Basically": 5295,
      "Yeah": 5296,
      "refreshing": 5297,
      "Ak": 5298,
      "Devil": 5299,
      "Hon": 5300,
      "Sa": 5301,
      "Ul": 5302,
      "gles": 5303,
      "mous": 5304,
      "nically": 5305,
      "omed": 5306,
      "notch": 5307,
      "fee": 5308,
      "exagger": 5309,
      "evening": 5310,
      "avy": 5311,
      "makeup": 5312,
      "friendly": 5313,
      "corn": 5314,
      "glor": 5315,
      "ruin": 5316,
      "painting": 5317,
      "Comm": 5318,
      "Irish": 5319,
      "designed": 5320,
      "trem": 5321,
      "hanging": 5322,
      "source": 5323,
      "integr": 5324,
      "Hugh": 5325,
      "Our": 5326,
      "Your": 5327,
      "gie": 5328,
      "ws": 5329,
      "chose": 5330,
      "uncle": 5331,
      "plans": 5332,
      "training": 5333,
      "killers": 5334,
      "Movies": 5335,
      "speaks": 5336,
      "changing": 5337,
      "movement": 5338,
      "politics": 5339,
      "accents": 5340,
      "Enter": 5341,
      "influence": 5342,
      "habit": 5343,
      "reporter": 5344,
      "Festival": 5345,
      "Caine": 5346,
      "Ell": 5347,
      "Fu": 5348,
      "Fer": 5349,
      "HE": 5350,
      "link": 5351,
      "mic": 5352,
      "sink": 5353,
      "sword": 5354,
      "inch": 5355,
      "itiz": 5356,
      "aming": 5357,
      "ets": 5358,
      "mainstream": 5359,
      "paint": 5360,
      "surprises": 5361,
      "freedom": 5362,
      "suffers": 5363,
      "Emma": 5364,
      "besides": 5365,
      "continuity": 5366,
      "latest": 5367,
      "CK": 5368,
      "Jay": 5369,
      "Ob": 5370,
      "Wall": 5371,
      "aust": 5372,
      "bin": 5373,
      "abuse": 5374,
      "aret": 5375,
      "shall": 5376,
      "degree": 5377,
      "aken": 5378,
      "Leg": 5379,
      "Roger": 5380,
      "supernatural": 5381,
      "deaths": 5382,
      "passing": 5383,
      "experiences": 5384,
      "Wilson": 5385,
      "multiple": 5386,
      "emphas": 5387,
      "Brothers": 5388,
      "Pacino": 5389,
      "Meanwhile": 5390,
      "Kore": 5391,
      "MGM": 5392,
      "Vis": 5393,
      "brave": 5394,
      "wreck": 5395,
      "zing": 5396,
      "arrest": 5397,
      "uted": 5398,
      "agre": 5399,
      "teens": 5400,
      "realizes": 5401,
      "truck": 5402,
      "Edward": 5403,
      "critical": 5404,
      "accidentally": 5405,
      "benef": 5406,
      "propaganda": 5407,
      "Gre": 5408,
      "Jen": 5409,
      "phis": 5410,
      "voc": 5411,
      "shr": 5412,
      "States": 5413,
      "closer": 5414,
      "particip": 5415,
      "mistakes": 5416,
      "previously": 5417,
      "cartoons": 5418,
      "execution": 5419,
      "MOV": 5420,
      "loyal": 5421,
      "weeks": 5422,
      "private": 5423,
      "Eliza": 5424,
      "Under": 5425,
      "Drew": 5426,
      "Hoff": 5427,
      "bat": 5428,
      "page": 5429,
      "chy": 5430,
      "icious": 5431,
      "uninteresting": 5432,
      "maid": 5433,
      "contest": 5434,
      "creatures": 5435,
      "Atl": 5436,
      "convince": 5437,
      "idiot": 5438,
      "Del": 5439,
      "Especially": 5440,
      "Fair": 5441,
      "Pict": 5442,
      "gor": 5443,
      "till": 5444,
      "rece": 5445,
      "chief": 5446,
      "acle": 5447,
      "riff": 5448,
      "ummy": 5449,
      "Hey": 5450,
      "fairy": 5451,
      "naturally": 5452,
      "struggling": 5453,
      "sensitive": 5454,
      "Zombie": 5455,
      "frankly": 5456,
      "Cle": 5457,
      "bust": 5458,
      "hip": 5459,
      "nude": 5460,
      "anity": 5461,
      "poign": 5462,
      "prostit": 5463,
      "gosi": 5464,
      "surface": 5465,
      "castle": 5466,
      "headed": 5467,
      "Lugosi": 5468,
      "complain": 5469,
      "connected": 5470,
      "rules": 5471,
      "Gand": 5472,
      "Sulli": 5473,
      "athan": 5474,
      "fing": 5475,
      "nier": 5476,
      "pool": 5477,
      "rot": 5478,
      "outrage": 5479,
      "crude": 5480,
      "Alice": 5481,
      "addict": 5482,
      "Sarah": 5483,
      "ausible": 5484,
      "Hong": 5485,
      "Haw": 5486,
      "Killer": 5487,
      "Rachel": 5488,
      "iner": 5489,
      "offered": 5490,
      "committed": 5491,
      "kinds": 5492,
      "United": 5493,
      "Dog": 5494,
      "walked": 5495,
      "VERY": 5496,
      "recognize": 5497,
      "frightening": 5498,
      "Sullivan": 5499,
      "Flor": 5500,
      "Tra": 5501,
      "Vir": 5502,
      "gra": 5503,
      "isol": 5504,
      "toler": 5505,
      "ada": 5506,
      "haunting": 5507,
      "overwhel": 5508,
      "ideal": 5509,
      "gues": 5510,
      "udd": 5511,
      "attle": 5512,
      "landsc": 5513,
      "adding": 5514,
      "fortune": 5515,
      "figures": 5516,
      "combined": 5517,
      "Play": 5518,
      "Hoffman": 5519,
      "Ever": 5520,
      "TER": 5521,
      "figh": 5522,
      "intr": 5523,
      "sea": 5524,
      "spite": 5525,
      "blow": 5526,
      "brick": 5527,
      "narration": 5528,
      "pati": 5529,
      "occasional": 5530,
      "gentle": 5531,
      "reputation": 5532,
      "Bourne": 5533,
      "CI": 5534,
      "Run": 5535,
      "jail": 5536,
      "lap": 5537,
      "according": 5538,
      "aded": 5539,
      "supp": 5540,
      "sophis": 5541,
      "plant": 5542,
      "concent": 5543,
      "olic": 5544,
      "gritty": 5545,
      "price": 5546,
      "rights": 5547,
      "porno": 5548,
      "risk": 5549,
      "improve": 5550,
      "atrocious": 5551,
      "Friday": 5552,
      "California": 5553,
      "Der": 5554,
      "Gra": 5555,
      "Te": 5556,
      "noon": 5557,
      "Child": 5558,
      "jobs": 5559,
      "push": 5560,
      "touched": 5561,
      "demand": 5562,
      "sisters": 5563,
      "Vietnam": 5564,
      "BBC": 5565,
      "Fam": 5566,
      "Pu": 5567,
      "Spr": 5568,
      "Vamp": 5569,
      "lake": 5570,
      "chased": 5571,
      "trilogy": 5572,
      "method": 5573,
      "grab": 5574,
      "spends": 5575,
      "werewolf": 5576,
      "performed": 5577,
      "dynam": 5578,
      "colors": 5579,
      "Carol": 5580,
      "featured": 5581,
      "dollars": 5582,
      "Sunday": 5583,
      "remotely": 5584,
      "dozen": 5585,
      "Philip": 5586,
      "sophistic": 5587,
      "MST": 5588,
      "Wat": 5589,
      "bility": 5590,
      "cence": 5591,
      "nut": 5592,
      "snow": 5593,
      "arms": 5594,
      "kets": 5595,
      "preach": 5596,
      "guest": 5597,
      "downright": 5598,
      "explains": 5599,
      "Unlike": 5600,
      "curi": 5601,
      "spoken": 5602,
      "captiv": 5603,
      "suspenseful": 5604,
      "effectively": 5605,
      "massive": 5606,
      "required": 5607,
      "Music": 5608,
      "melodrama": 5609,
      "security": 5610,
      "Sn": 5611,
      "hired": 5612,
      "oth": 5613,
      "mock": 5614,
      "scares": 5615,
      "guilty": 5616,
      "cring": 5617,
      "crying": 5618,
      "everywhere": 5619,
      "gia": 5620,
      "stolen": 5621,
      "ashed": 5622,
      "worthwhile": 5623,
      "lands": 5624,
      "folk": 5625,
      "syn": 5626,
      "buddy": 5627,
      "imagery": 5628,
      "ANY": 5629,
      "advant": 5630,
      "complicated": 5631,
      "ungle": 5632,
      "spoiler": 5633,
      "legendary": 5634,
      "extras": 5635,
      "Freeman": 5636,
      "60s": 5637,
      "Vi": 5638,
      "Whe": 5639,
      "gather": 5640,
      "ium": 5641,
      "pitch": 5642,
      "thed": 5643,
      "haunted": 5644,
      "shut": 5645,
      "nostal": 5646,
      "subtitles": 5647,
      "minded": 5648,
      "Definitely": 5649,
      "Johnson": 5650,
      "starred": 5651,
      "Someone": 5652,
      "favorites": 5653,
      "twisted": 5654,
      "steps": 5655,
      "Otherwise": 5656,
      "bothered": 5657,
      "concert": 5658,
      "Ama": 5659,
      "Each": 5660,
      "Have": 5661,
      "Person": 5662,
      "cous": 5663,
      "dinosaur": 5664,
      "gate": 5665,
      "rist": 5666,
      "instru": 5667,
      "orn": 5668,
      "betray": 5669,
      "spark": 5670,
      "blah": 5671,
      "Branagh": 5672,
      "explor": 5673,
      "warned": 5674,
      "stayed": 5675,
      "Add": 5676,
      "welcome": 5677,
      "sympathy": 5678,
      "tremend": 5679,
      "Curt": 5680,
      "Lisa": 5681,
      "Ned": 5682,
      "bab": 5683,
      "iat": 5684,
      "lu": 5685,
      "lust": 5686,
      "rat": 5687,
      "adap": 5688,
      "unconvincing": 5689,
      "trapped": 5690,
      "indul": 5691,
      "believ": 5692,
      "buying": 5693,
      "jeal": 5694,
      "ski": 5695,
      "stays": 5696,
      "swim": 5697,
      "torious": 5698,
      "pulls": 5699,
      "Susan": 5700,
      "ping": 5701,
      "tain": 5702,
      "enge": 5703,
      "outs": 5704,
      "prevent": 5705,
      "bore": 5706,
      "awards": 5707,
      "1950": 5708,
      "minds": 5709,
      "amazed": 5710,
      "focuses": 5711,
      "reveals": 5712,
      "adventures": 5713,
      "tradition": 5714,
      "Mexico": 5715,
      "Larry": 5716,
      "Cath": 5717,
      "Cub": 5718,
      "Fun": 5719,
      "Fri": 5720,
      "Hal": 5721,
      "Hun": 5722,
      "tire": 5723,
      "moon": 5724,
      "aces": 5725,
      "obsc": 5726,
      "crush": 5727,
      "caring": 5728,
      "mont": 5729,
      "Dean": 5730,
      "address": 5731,
      "confess": 5732,
      "magical": 5733,
      "winner": 5734,
      "device": 5735,
      "Julia": 5736,
      "significant": 5737,
      "abandoned": 5738,
      "Bre": 5739,
      "Home": 5740,
      "heck": 5741,
      "access": 5742,
      "Things": 5743,
      "intens": 5744,
      "scenario": 5745,
      "evident": 5746,
      "hole": 5747,
      "Myster": 5748,
      "legal": 5749,
      "paying": 5750,
      "vampires": 5751,
      "Roman": 5752,
      "status": 5753,
      "Sidney": 5754,
      "prepared": 5755,
      "veteran": 5756,
      "Power": 5757,
      "tong": 5758,
      "idly": 5759,
      "pled": 5760,
      "worry": 5761,
      "stomach": 5762,
      "Soon": 5763,
      "Shar": 5764,
      "delivery": 5765,
      "variety": 5766,
      "clichéd": 5767,
      "environment": 5768,
      "Son": 5769,
      "aur": 5770,
      "fish": 5771,
      "wand": 5772,
      "acing": 5773,
      "ounds": 5774,
      "grues": 5775,
      "closing": 5776,
      "Maria": 5777,
      "clips": 5778,
      "True": 5779,
      "install": 5780,
      "ILL": 5781,
      "India": 5782,
      "heavily": 5783,
      "weekend": 5784,
      "Mexican": 5785,
      "praise": 5786,
      "Nazi": 5787,
      "conversation": 5788,
      "Produ": 5789,
      "lord": 5790,
      "oe": 5791,
      "chuck": 5792,
      "teeth": 5793,
      "appearing": 5794,
      "illian": 5795,
      "successfully": 5796,
      "cultural": 5797,
      "profound": 5798,
      "ennis": 5799,
      "journal": 5800,
      "Police": 5801,
      "Titanic": 5802,
      "ludicrous": 5803,
      "24": 5804,
      "Dy": 5805,
      "Gun": 5806,
      "Mill": 5807,
      "Rol": 5808,
      "py": 5809,
      "tons": 5810,
      "wrest": 5811,
      "reject": 5812,
      "deeper": 5813,
      "tear": 5814,
      "ques": 5815,
      "adequ": 5816,
      "phan": 5817,
      "warming": 5818,
      "decades": 5819,
      "Blue": 5820,
      "anticip": 5821,
      "destroyed": 5822,
      "Cre": 5823,
      "Dennis": 5824,
      "Hill": 5825,
      "ION": 5826,
      "Mas": 5827,
      "Pan": 5828,
      "cand": 5829,
      "dile": 5830,
      "iven": 5831,
      "lberg": 5832,
      "tast": 5833,
      "wins": 5834,
      "ilton": 5835,
      "stair": 5836,
      "neth": 5837,
      "mail": 5838,
      "renting": 5839,
      "murderer": 5840,
      "listening": 5841,
      "USA": 5842,
      "1980": 5843,
      "metap": 5844,
      "slapstick": 5845,
      "pregnant": 5846,
      "Elizabeth": 5847,
      "Air": 5848,
      "Rick": 5849,
      "SS": 5850,
      "Scar": 5851,
      "Tal": 5852,
      "Wes": 5853,
      "bone": 5854,
      "fed": 5855,
      "fond": 5856,
      "task": 5857,
      "theory": 5858,
      "trap": 5859,
      "dign": 5860,
      "obnox": 5861,
      "spector": 5862,
      "screening": 5863,
      "occup": 5864,
      "sounded": 5865,
      "onda": 5866,
      "Army": 5867,
      "Warner": 5868,
      "facial": 5869,
      "picks": 5870,
      "campy": 5871,
      "burst": 5872,
      "stereotypical": 5873,
      "Sorry": 5874,
      "gruesome": 5875,
      "Da": 5876,
      "Hy": 5877,
      "Niro": 5878,
      "ope": 5879,
      "tha": 5880,
      "libr": 5881,
      "illust": 5882,
      "upper": 5883,
      "answers": 5884,
      "border": 5885,
      "coln": 5886,
      "helping": 5887,
      "Something": 5888,
      "severe": 5889,
      "locked": 5890,
      "hopeless": 5891,
      "rolled": 5892,
      "settings": 5893,
      "Guy": 5894,
      "racist": 5895,
      "Lincoln": 5896,
      "nom": 5897,
      "native": 5898,
      "alike": 5899,
      "forgot": 5900,
      "outing": 5901,
      "artists": 5902,
      "elled": 5903,
      "seek": 5904,
      "prime": 5905,
      "reek": 5906,
      "ashamed": 5907,
      "mond": 5908,
      "handle": 5909,
      "camer": 5910,
      "trait": 5911,
      "Carl": 5912,
      "Philli": 5913,
      "Iran": 5914,
      "depiction": 5915,
      "Acting": 5916,
      "Leslie": 5917,
      "Julie": 5918,
      "description": 5919,
      "Ca": 5920,
      "Lat": 5921,
      "Sw": 5922,
      "TA": 5923,
      "Wid": 5924,
      "reward": 5925,
      "term": 5926,
      "torn": 5927,
      "scars": 5928,
      "appl": 5929,
      "blat": 5930,
      "greater": 5931,
      "disbelief": 5932,
      "interview": 5933,
      "struck": 5934,
      "cheese": 5935,
      "originality": 5936,
      "extent": 5937,
      "examples": 5938,
      "Claire": 5939,
      "honor": 5940,
      "factory": 5941,
      "inspiring": 5942,
      "quirky": 5943,
      "99": 5944,
      "GO": 5945,
      "Ghost": 5946,
      "Turn": 5947,
      "ja": 5948,
      "yard": 5949,
      "intim": 5950,
      "height": 5951,
      "raised": 5952,
      "funnier": 5953,
      "forest": 5954,
      "choices": 5955,
      "2000": 5956,
      "balance": 5957,
      "Seriously": 5958,
      "desperately": 5959,
      "criminals": 5960,
      "sentimental": 5961,
      "Michelle": 5962,
      "MOVIE": 5963,
      "Burt": 5964,
      "Gen": 5965,
      "Lore": 5966,
      "Next": 5967,
      "Sol": 5968,
      "zel": 5969,
      "error": 5970,
      "redu": 5971,
      "arian": 5972,
      "amer": 5973,
      "comical": 5974,
      "mentally": 5975,
      "storytelling": 5976,
      "China": 5977,
      "afternoon": 5978,
      "viously": 5979,
      "condition": 5980,
      "mask": 5981,
      "Rogers": 5982,
      "covers": 5983,
      "basis": 5984,
      "deliber": 5985,
      "Character": 5986,
      "Cole": 5987,
      "atherine": 5988,
      "Exc": 5989,
      "harm": 5990,
      "divor": 5991,
      "criticism": 5992,
      "mildly": 5993,
      "Vincent": 5994,
      "Return": 5995,
      "IGHT": 5996,
      "reminiscent": 5997,
      "Ap": 5998,
      "Bac": 5999,
      "Ka": 6000,
      "Nol": 6001,
      "Ral": 6002,
      "tiny": 6003,
      "lean": 6004,
      "ida": 6005,
      "rol": 6006,
      "ripped": 6007,
      "assion": 6008,
      "throws": 6009,
      "command": 6010,
      "pressed": 6011,
      "marks": 6012,
      "novels": 6013,
      "Matth": 6014,
      "Stanley": 6015,
      "consistent": 6016,
      "crafted": 6017,
      "Sandler": 6018,
      "drinking": 6019,
      "mountain": 6020,
      "department": 6021,
      "determined": 6022,
      "guarante": 6023,
      "Actor": 6024,
      "Hot": 6025,
      "Sir": 6026,
      "bie": 6027,
      "kung": 6028,
      "beloved": 6029,
      "ader": 6030,
      "adays": 6031,
      "imit": 6032,
      "indie": 6033,
      "throwing": 6034,
      "international": 6035,
      "happiness": 6036,
      "dramat": 6037,
      "titled": 6038,
      "ibilities": 6039,
      "enemy": 6040,
      "homosexual": 6041,
      "repetit": 6042,
      "treasure": 6043,
      "Hardy": 6044,
      "lonely": 6045,
      "AW": 6046,
      "Han": 6047,
      "IR": 6048,
      "Ku": 6049,
      "Miller": 6050,
      "Such": 6051,
      "astr": 6052,
      "hears": 6053,
      "abor": 6054,
      "ros": 6055,
      "feed": 6056,
      "timing": 6057,
      "assign": 6058,
      "Heaven": 6059,
      "tribut": 6060,
      "elev": 6061,
      "Grade": 6062,
      "causes": 6063,
      "graphics": 6064,
      "laid": 6065,
      "extraordinary": 6066,
      "properly": 6067,
      "succeeds": 6068,
      "inspiration": 6069,
      "Brooks": 6070,
      "Jessica": 6071,
      "fabulous": 6072,
      "provoking": 6073,
      "Ba": 6074,
      "Kat": 6075,
      "Tech": 6076,
      "UL": 6077,
      "blo": 6078,
      "jack": 6079,
      "tense": 6080,
      "agal": 6081,
      "join": 6082,
      "franch": 6083,
      "calling": 6084,
      "Reed": 6085,
      "Gray": 6086,
      "driver": 6087,
      "2006": 6088,
      "daughters": 6089,
      "musicals": 6090,
      "1970": 6091,
      "introduction": 6092,
      "striking": 6093,
      "interpretation": 6094,
      "sheriff": 6095,
      "Cooper": 6096,
      "Lion": 6097,
      "Min": 6098,
      "Witch": 6099,
      "ggy": 6100,
      "kiss": 6101,
      "vast": 6102,
      "eness": 6103,
      "icy": 6104,
      "keys": 6105,
      "devil": 6106,
      "rule": 6107,
      "Art": 6108,
      "Doctor": 6109,
      "Tracy": 6110,
      "existent": 6111,
      "Matrix": 6112,
      "reference": 6113,
      "regarding": 6114,
      "breathtaking": 6115,
      "wyck": 6116,
      "Cus": 6117,
      "Fay": 6118,
      "Knight": 6119,
      "Res": 6120,
      "cure": 6121,
      "proof": 6122,
      "raise": 6123,
      "ums": 6124,
      "grim": 6125,
      "awa": 6126,
      "workers": 6127,
      "carries": 6128,
      "carried": 6129,
      "productions": 6130,
      "universe": 6131,
      "summary": 6132,
      "iko": 6133,
      "atmospher": 6134,
      "purely": 6135,
      "established": 6136,
      "weapons": 6137,
      "Virgin": 6138,
      "Brend": 6139,
      "Dad": 6140,
      "Ren": 6141,
      "Spie": 6142,
      "Swed": 6143,
      "Yu": 6144,
      "og": 6145,
      "west": 6146,
      "replaced": 6147,
      "stab": 6148,
      "therland": 6149,
      "eston": 6150,
      "charge": 6151,
      "contain": 6152,
      "subsequ": 6153,
      "Holmes": 6154,
      "Marg": 6155,
      "stylish": 6156,
      "confusion": 6157,
      "2001": 6158,
      "sleazy": 6159,
      "arrives": 6160,
      "carrying": 6161,
      "challenge": 6162,
      "intentional": 6163,
      "escapes": 6164,
      "loyd": 6165,
      "ignore": 6166,
      "advantage": 6167,
      "Boo": 6168,
      "Dal": 6169,
      "ET": 6170,
      "Mod": 6171,
      "Nel": 6172,
      "PG": 6173,
      "Pen": 6174,
      "hous": 6175,
      "kins": 6176,
      "lazy": 6177,
      "penter": 6178,
      "rant": 6179,
      "isms": 6180,
      "orter": 6181,
      "absor": 6182,
      "contract": 6183,
      "aude": 6184,
      "wears": 6185,
      "iger": 6186,
      "creation": 6187,
      "Channel": 6188,
      "enjoying": 6189,
      "halfway": 6190,
      "dogs": 6191,
      "embarrassed": 6192,
      "sinister": 6193,
      "obnoxious": 6194,
      "Bal": 6195,
      "Give": 6196,
      "PLE": 6197,
      "UR": 6198,
      "aired": 6199,
      "dut": 6200,
      "jumps": 6201,
      "nest": 6202,
      "liday": 6203,
      "shark": 6204,
      "plin": 6205,
      "exists": 6206,
      "everyday": 6207,
      "dude": 6208,
      "Chuck": 6209,
      "Along": 6210,
      "Brando": 6211,
      "presentation": 6212,
      "retarded": 6213,
      "Blair": 6214,
      "listed": 6215,
      "Sutherland": 6216,
      "attacked": 6217,
      "shape": 6218,
      "splend": 6219,
      "Bettie": 6220,
      "Stanwyck": 6221,
      "Cinema": 6222,
      "Fort": 6223,
      "WOR": 6224,
      "loo": 6225,
      "vig": 6226,
      "rial": 6227,
      "triumph": 6228,
      "dramas": 6229,
      "topic": 6230,
      "opened": 6231,
      "deadly": 6232,
      "Check": 6233,
      "psychiat": 6234,
      "Laura": 6235,
      "Spoil": 6236,
      "Braz": 6237,
      "Cow": 6238,
      "Dev": 6239,
      "Water": 6240,
      "gic": 6241,
      "alter": 6242,
      "dol": 6243,
      "Think": 6244,
      "Whatever": 6245,
      "disgu": 6246,
      "Peck": 6247,
      "attempting": 6248,
      "Class": 6249,
      "ampion": 6250,
      "Lucy": 6251,
      "Jewish": 6252,
      "ratings": 6253,
      "Golden": 6254,
      "Probably": 6255,
      "official": 6256,
      "WWII": 6257,
      "frequently": 6258,
      "goofy": 6259,
      "General": 6260,
      "intensity": 6261,
      "Ralph": 6262,
      "aunt": 6263,
      "hr": 6264,
      "thic": 6265,
      "beit": 6266,
      "beach": 6267,
      "rive": 6268,
      "indu": 6269,
      "ishes": 6270,
      "disagree": 6271,
      "joint": 6272,
      "horrific": 6273,
      "posing": 6274,
      "Bron": 6275,
      "magaz": 6276,
      "incere": 6277,
      "packed": 6278,
      "Planet": 6279,
      "Obviously": 6280,
      "Fire": 6281,
      "Jake": 6282,
      "KE": 6283,
      "Sav": 6284,
      "tree": 6285,
      "aston": 6286,
      "spy": 6287,
      "happily": 6288,
      "stops": 6289,
      "paralle": 6290,
      "Luc": 6291,
      "personalities": 6292,
      "torial": 6293,
      "immense": 6294,
      "1950s": 6295,
      "neighborhood": 6296,
      "conventional": 6297,
      "competit": 6298,
      "chilling": 6299,
      "MST3": 6300,
      "Matthau": 6301,
      "Kurt": 6302,
      "Sup": 6303,
      "enor": 6304,
      "chasing": 6305,
      "icing": 6306,
      "iche": 6307,
      "terrifying": 6308,
      "shines": 6309,
      "actic": 6310,
      "metal": 6311,
      "confront": 6312,
      "cheer": 6313,
      "relax": 6314,
      "scripts": 6315,
      "nightmare": 6316,
      "distribut": 6317,
      "wishes": 6318,
      "poignant": 6319,
      "Pret": 6320,
      "Shel": 6321,
      "gro": 6322,
      "kh": 6323,
      "lam": 6324,
      "rates": 6325,
      "incess": 6326,
      "ieu": 6327,
      "ira": 6328,
      "trau": 6329,
      "conspir": 6330,
      "upset": 6331,
      "dislike": 6332,
      "finan": 6333,
      "screenwriter": 6334,
      "Rochester": 6335,
      "refuses": 6336,
      "thrilling": 6337,
      "learning": 6338,
      "logist": 6339,
      "Geor": 6340,
      "Poor": 6341,
      "destro": 6342,
      "Nightmare": 6343,
      "expressions": 6344,
      "struggles": 6345,
      "Iron": 6346,
      "sleeping": 6347,
      "revolves": 6348,
      "Living": 6349,
      "birds": 6350,
      "Spielberg": 6351,
      "Brazil": 6352,
      "Award": 6353,
      "Call": 6354,
      "Candy": 6355,
      "Dere": 6356,
      "Doo": 6357,
      "FBI": 6358,
      "Pick": 6359,
      "Ring": 6360,
      "Were": 6361,
      "Would": 6362,
      "ego": 6363,
      "olo": 6364,
      "yell": 6365,
      "erc": 6366,
      "isand": 6367,
      "overcome": 6368,
      "lesser": 6369,
      "letting": 6370,
      "mindless": 6371,
      "Beck": 6372,
      "cynical": 6373,
      "Spir": 6374,
      "legs": 6375,
      "Isra": 6376,
      "umbs": 6377,
      "equal": 6378,
      "attacks": 6379,
      "innov": 6380,
      "kicks": 6381,
      "spiritual": 6382,
      "ghosts": 6383,
      "lynn": 6384,
      "tongue": 6385,
      "Widmark": 6386,
      "Ah": 6387,
      "Ast": 6388,
      "Lan": 6389,
      "Rand": 6390,
      "vous": 6391,
      "ée": 6392,
      "albeit": 6393,
      "arrog": 6394,
      "choo": 6395,
      "amond": 6396,
      "elder": 6397,
      "ironic": 6398,
      "plastic": 6399,
      "blance": 6400,
      "interviews": 6401,
      "horrend": 6402,
      "warn": 6403,
      "medical": 6404,
      "Real": 6405,
      "fallen": 6406,
      "credibility": 6407,
      "nibal": 6408,
      "Consider": 6409,
      "flawed": 6410,
      "Italy": 6411,
      "Bette": 6412,
      "President": 6413,
      "obsession": 6414,
      "bearable": 6415,
      "Helen": 6416,
      "mansion": 6417,
      "BLE": 6418,
      "SH": 6419,
      "Wend": 6420,
      "fic": 6421,
      "hunt": 6422,
      "beating": 6423,
      "tors": 6424,
      "traction": 6425,
      "manager": 6426,
      "ensem": 6427,
      "vised": 6428,
      "osity": 6429,
      "solve": 6430,
      "broke": 6431,
      "convict": 6432,
      "stupidity": 6433,
      "queen": 6434,
      "exceptional": 6435,
      "drives": 6436,
      "amazingly": 6437,
      "puzz": 6438,
      "vira": 6439,
      "announ": 6440,
      "Streisand": 6441,
      "controversial": 6442,
      "Ultim": 6443,
      "Mystery": 6444,
      "Ball": 6445,
      "Eve": 6446,
      "Pier": 6447,
      "Rating": 6448,
      "Sou": 6449,
      "Winter": 6450,
      "Wild": 6451,
      "bare": 6452,
      "sket": 6453,
      "alright": 6454,
      "asm": 6455,
      "arc": 6456,
      "stress": 6457,
      "chain": 6458,
      "oooo": 6459,
      "ulate": 6460,
      "trite": 6461,
      "nose": 6462,
      "myst": 6463,
      "spook": 6464,
      "greatly": 6465,
      "disco": 6466,
      "minimal": 6467,
      "comedian": 6468,
      "month": 6469,
      "Need": 6470,
      "perfection": 6471,
      "Seagal": 6472,
      "guessing": 6473,
      "cinemato": 6474,
      "suffered": 6475,
      "Burton": 6476,
      "dubbing": 6477,
      "Baker": 6478,
      "Andrews": 6479,
      "wealthy": 6480,
      "Family": 6481,
      "Derek": 6482,
      "Cry": 6483,
      "Down": 6484,
      "Len": 6485,
      "Rey": 6486,
      "ware": 6487,
      "chases": 6488,
      "iments": 6489,
      "amie": 6490,
      "wasting": 6491,
      "uncomfortable": 6492,
      "irony": 6493,
      "sham": 6494,
      "seeking": 6495,
      "impse": 6496,
      "attend": 6497,
      "enjoyment": 6498,
      "glimpse": 6499,
      "Carter": 6500,
      "Britain": 6501,
      "countries": 6502,
      "miles": 6503,
      "amongst": 6504,
      "III": 6505,
      "patient": 6506,
      "robot": 6507,
      "expensive": 6508,
      "Bollywood": 6509,
      "performers": 6510,
      "technique": 6511,
      "gripping": 6512,
      "marvelous": 6513,
      "franchise": 6514,
      "BAD": 6515,
      "IV": 6516,
      "Lem": 6517,
      "Ow": 6518,
      "Right": 6519,
      "TR": 6520,
      "Ten": 6521,
      "fitting": 6522,
      "pian": 6523,
      "rum": 6524,
      "tag": 6525,
      "tune": 6526,
      "vice": 6527,
      "wave": 6528,
      "inher": 6529,
      "toil": 6530,
      "states": 6531,
      "abilities": 6532,
      "lovable": 6533,
      "ourselves": 6534,
      "reads": 6535,
      "caric": 6536,
      "ception": 6537,
      "Comp": 6538,
      "innocence": 6539,
      "Highly": 6540,
      "initially": 6541,
      "Chaplin": 6542,
      "separate": 6543,
      "REALLY": 6544,
      "Karloff": 6545,
      "ensemble": 6546,
      "Book": 6547,
      "Cel": 6548,
      "Flynn": 6549,
      "Griff": 6550,
      "Simp": 6551,
      "Ur": 6552,
      "ault": 6553,
      "cere": 6554,
      "pion": 6555,
      "tied": 6556,
      "yl": 6557,
      "eral": 6558,
      "restr": 6559,
      "alleg": 6560,
      "lem": 6561,
      "notable": 6562,
      "quis": 6563,
      "nowadays": 6564,
      "192": 6565,
      "trial": 6566,
      "aliens": 6567,
      "weakness": 6568,
      "satisfied": 6569,
      "weapon": 6570,
      "sophisticated": 6571,
      "Nelson": 6572,
      "Jer": 6573,
      "Rep": 6574,
      "ti": 6575,
      "acre": 6576,
      "terri": 6577,
      "elabor": 6578,
      "exerc": 6579,
      "pover": 6580,
      "mechan": 6581,
      "weet": 6582,
      "Church": 6583,
      "sings": 6584,
      "corner": 6585,
      "Arnold": 6586,
      "riding": 6587,
      "Elvira": 6588,
      "sexuality": 6589,
      "acceptable": 6590,
      "meaningful": 6591,
      "racism": 6592,
      "physically": 6593,
      "specific": 6594,
      "protagonists": 6595,
      "hundreds": 6596,
      "Universal": 6597,
      "atmospheric": 6598,
      "45": 6599,
      "Final": 6600,
      "Gy": 6601,
      "Gil": 6602,
      "Mom": 6603,
      "Sing": 6604,
      "bour": 6605,
      "candy": 6606,
      "dd": 6607,
      "firm": 6608,
      "mu": 6609,
      "nur": 6610,
      "thick": 6611,
      "infect": 6612,
      "owe": 6613,
      "ambig": 6614,
      "conce": 6615,
      "shell": 6616,
      "ffic": 6617,
      "miscast": 6618,
      "shorts": 6619,
      "Carpenter": 6620,
      "darkness": 6621,
      "transfer": 6622,
      "shoots": 6623,
      "suggests": 6624,
      "respond": 6625,
      "thousands": 6626,
      "Az": 6627,
      "Buck": 6628,
      "Father": 6629,
      "Hud": 6630,
      "Jere": 6631,
      "SU": 6632,
      "bast": 6633,
      "dum": 6634,
      "jungle": 6635,
      "mit": 6636,
      "nes": 6637,
      "pher": 6638,
      "sincere": 6639,
      "infamous": 6640,
      "entry": 6641,
      "lix": 6642,
      "elli": 6643,
      "noted": 6644,
      "poet": 6645,
      "meat": 6646,
      "conven": 6647,
      "hase": 6648,
      "oblig": 6649,
      "distract": 6650,
      "afford": 6651,
      "lessons": 6652,
      "attan": 6653,
      "cameos": 6654,
      "passes": 6655,
      "develops": 6656,
      "balls": 6657,
      "hoped": 6658,
      "sticks": 6659,
      "accepted": 6660,
      "consists": 6661,
      "basement": 6662,
      "adopt": 6663,
      "scratch": 6664,
      "widow": 6665,
      "Personally": 6666,
      "caricature": 6667,
      "Dep": 6668,
      "Kirk": 6669,
      "Oscars": 6670,
      "Sis": 6671,
      "Woman": 6672,
      "lit": 6673,
      "rings": 6674,
      "shy": 6675,
      "quar": 6676,
      "aki": 6677,
      "spots": 6678,
      "guilt": 6679,
      "horses": 6680,
      "counters": 6681,
      "Lucas": 6682,
      "thrillers": 6683,
      "appearances": 6684,
      "annoyed": 6685,
      "troubled": 6686,
      "Foster": 6687,
      "idiotic": 6688,
      "hiding": 6689,
      "insulting": 6690,
      "explicit": 6691,
      "assistant": 6692,
      "MST3K": 6693,
      "cies": 6694,
      "mund": 6695,
      "ami": 6696,
      "conom": 6697,
      "Andre": 6698,
      "Neil": 6699,
      "Unless": 6700,
      "rooms": 6701,
      "ification": 6702,
      "larger": 6703,
      "searching": 6704,
      "portion": 6705,
      "drops": 6706,
      "hibit": 6707,
      "surviv": 6708,
      "choreo": 6709,
      "belongs": 6710,
      "Age": 6711,
      "Could": 6712,
      "Daw": 6713,
      "Four": 6714,
      "Glover": 6715,
      "Made": 6716,
      "boun": 6717,
      "ique": 6718,
      "rank": 6719,
      "amber": 6720,
      "essence": 6721,
      "Thanks": 6722,
      "Indeed": 6723,
      "opath": 6724,
      "afore": 6725,
      "tax": 6726,
      "phr": 6727,
      "contact": 6728,
      "Brid": 6729,
      "relent": 6730,
      "superfic": 6731,
      "Roberts": 6732,
      "Elvis": 6733,
      "smooth": 6734,
      "turkey": 6735,
      "Boll": 6736,
      "Castle": 6737,
      "Atlant": 6738,
      "Pretty": 6739,
      "2nd": 6740,
      "CA": 6741,
      "CE": 6742,
      "Catherine": 6743,
      "Dom": 6744,
      "Fin": 6745,
      "Lane": 6746,
      "Win": 6747,
      "bang": 6748,
      "bott": 6749,
      "cket": 6750,
      "dump": 6751,
      "eager": 6752,
      "flight": 6753,
      "guts": 6754,
      "othy": 6755,
      "rhy": 6756,
      "tto": 6757,
      "thel": 6758,
      "rely": 6759,
      "stiff": 6760,
      "ieve": 6761,
      "dian": 6762,
      "oles": 6763,
      "bridge": 6764,
      "underground": 6765,
      "Grace": 6766,
      "Bog": 6767,
      "allowing": 6768,
      "2005": 6769,
      "Point": 6770,
      "concerns": 6771,
      "achieved": 6772,
      "colorful": 6773,
      "Dorothy": 6774,
      "eerie": 6775,
      "endearing": 6776,
      "Curtis": 6777,
      "Cusack": 6778,
      "Blo": 6779,
      "Bach": 6780,
      "Hanks": 6781,
      "Ice": 6782,
      "Mother": 6783,
      "Net": 6784,
      "PS": 6785,
      "Scr": 6786,
      "cave": 6787,
      "saves": 6788,
      "von": 6789,
      "wake": 6790,
      "inexplic": 6791,
      "editor": 6792,
      "utch": 6793,
      "enters": 6794,
      "allo": 6795,
      "ultra": 6796,
      "activ": 6797,
      "doors": 6798,
      "brand": 6799,
      "pointed": 6800,
      "Club": 6801,
      "complaint": 6802,
      "Comedy": 6803,
      "dialogs": 6804,
      "split": 6805,
      "Hamlet": 6806,
      "segments": 6807,
      "hooked": 6808,
      "charismatic": 6809,
      "knife": 6810,
      "destruction": 6811,
      "Satan": 6812,
      "metaphor": 6813,
      "Know": 6814,
      "Luck": 6815,
      "Lloyd": 6816,
      "Nic": 6817,
      "Scor": 6818,
      "dar": 6819,
      "fired": 6820,
      "sends": 6821,
      "loser": 6822,
      "quote": 6823,
      "insist": 6824,
      "letter": 6825,
      "portrait": 6826,
      "rushed": 6827,
      "Walken": 6828,
      "battles": 6829,
      "School": 6830,
      "dragged": 6831,
      "dollar": 6832,
      "Denzel": 6833,
      "Raj": 6834,
      "Eastwood": 6835,
      "adapted": 6836,
      "believably": 6837,
      "Hudson": 6838,
      "Bus": 6839,
      "EX": 6840,
      "FOR": 6841,
      "Gal": 6842,
      "Kay": 6843,
      "Lor": 6844,
      "Lake": 6845,
      "National": 6846,
      "Von": 6847,
      "bull": 6848,
      "dinner": 6849,
      "oil": 6850,
      "ronic": 6851,
      "lian": 6852,
      "idy": 6853,
      "goal": 6854,
      "pray": 6855,
      "drown": 6856,
      "dys": 6857,
      "farm": 6858,
      "Ree": 6859,
      "hopefully": 6860,
      "vices": 6861,
      "dealt": 6862,
      "males": 6863,
      "launch": 6864,
      "homeless": 6865,
      "raped": 6866,
      "Palma": 6867,
      "daily": 6868,
      "charisma": 6869,
      "tribute": 6870,
      "Jeremy": 6871,
      "Domin": 6872,
      "Eye": 6873,
      "Eva": 6874,
      "Heston": 6875,
      "ee": 6876,
      "useless": 6877,
      "isha": 6878,
      "rein": 6879,
      "orient": 6880,
      "unforgettable": 6881,
      "abrupt": 6882,
      "ooby": 6883,
      "demo": 6884,
      "urb": 6885,
      "tooth": 6886,
      "centric": 6887,
      "believing": 6888,
      "buck": 6889,
      "restaur": 6890,
      "strangely": 6891,
      "checking": 6892,
      "millions": 6893,
      "fashioned": 6894,
      "tender": 6895,
      "Nevertheless": 6896,
      "CO": 6897,
      "Ira": 6898,
      "Mass": 6899,
      "Set": 6900,
      "dare": 6901,
      "hitting": 6902,
      "lly": 6903,
      "vest": 6904,
      "zer": 6905,
      "redi": 6906,
      "reactions": 6907,
      "ila": 6908,
      "ental": 6909,
      "plague": 6910,
      "conceived": 6911,
      "ellar": 6912,
      "shower": 6913,
      "Almost": 6914,
      "chell": 6915,
      "newsp": 6916,
      "sexually": 6917,
      "eleg": 6918,
      "Shan": 6919,
      "closely": 6920,
      "1990": 6921,
      "repeat": 6922,
      "boredom": 6923,
      "ittedly": 6924,
      "stealing": 6925,
      "tricks": 6926,
      "Canada": 6927,
      "Camer": 6928,
      "techniques": 6929,
      "thousand": 6930,
      "Excellent": 6931,
      "Burns": 6932,
      "Cli": 6933,
      "GRE": 6934,
      "Pur": 6935,
      "Ritter": 6936,
      "Zero": 6937,
      "zon": 6938,
      "thirty": 6939,
      "incoherent": 6940,
      "enstein": 6941,
      "ingredi": 6942,
      "asingly": 6943,
      "oops": 6944,
      "iron": 6945,
      "mann": 6946,
      "pleased": 6947,
      "istan": 6948,
      "grows": 6949,
      "direc": 6950,
      "selfish": 6951,
      "vier": 6952,
      "hype": 6953,
      "busy": 6954,
      "countless": 6955,
      "virus": 6956,
      "photographer": 6957,
      "resour": 6958,
      "madness": 6959,
      "Adams": 6960,
      "Bobby": 6961,
      "stunts": 6962,
      "cousin": 6963,
      "Au": 6964,
      "Kath": 6965,
      "PE": 6966,
      "econom": 6967,
      "fian": 6968,
      "tap": 6969,
      "tick": 6970,
      "represents": 6971,
      "uristic": 6972,
      "aga": 6973,
      "selling": 6974,
      "ishment": 6975,
      "coach": 6976,
      "ashes": 6977,
      "carefully": 6978,
      "Secret": 6979,
      "attempted": 6980,
      "Clint": 6981,
      "morality": 6982,
      "professor": 6983,
      "intentions": 6984,
      "Science": 6985,
      "surrounded": 6986,
      "vacation": 6987,
      "Kubrick": 6988,
      "fianc": 6989,
      "Py": 6990,
      "TW": 6991,
      "redem": 6992,
      "oub": 6993,
      "ingen": 6994,
      "aced": 6995,
      "agan": 6996,
      "web": 6997,
      "avor": 6998,
      "worker": 6999,
      "attached": 7000,
      "shoes": 7001,
      "easier": 7002,
      "stronger": 7003,
      "rified": 7004,
      "Cox": 7005,
      "1970s": 7006,
      "limit": 7007,
      "dropped": 7008,
      "homage": 7009,
      "walls": 7010,
      "Muslim": 7011,
      "surrounding": 7012,
      "stretch": 7013,
      "horrendous": 7014,
      "Cook": 7015,
      "Certain": 7016,
      "Coun": 7017,
      "Fol": 7018,
      "Ian": 7019,
      "Mit": 7020,
      "Plot": 7021,
      "Wind": 7022,
      "gren": 7023,
      "lur": 7024,
      "stood": 7025,
      "tab": 7026,
      "wicked": 7027,
      "invisible": 7028,
      "toss": 7029,
      "imum": 7030,
      "unintentionally": 7031,
      "shirt": 7032,
      "active": 7033,
      "usions": 7034,
      "ifies": 7035,
      "boot": 7036,
      "string": 7037,
      "mons": 7038,
      "reasonable": 7039,
      "warri": 7040,
      "cycl": 7041,
      "messages": 7042,
      "2002": 7043,
      "importance": 7044,
      "Code": 7045,
      "fourth": 7046,
      "suspects": 7047,
      "requires": 7048,
      "phenomen": 7049,
      "threatening": 7050,
      "occurs": 7051,
      "jerk": 7052,
      "nolds": 7053,
      "increasingly": 7054,
      "wilder": 7055,
      "Astaire": 7056,
      "exercise": 7057,
      "Grey": 7058,
      "Gabr": 7059,
      "Imag": 7060,
      "Kaz": 7061,
      "Land": 7062,
      "Make": 7063,
      "Pie": 7064,
      "Tur": 7065,
      "ramp": 7066,
      "rebel": 7067,
      "onse": 7068,
      "chap": 7069,
      "beast": 7070,
      "urs": 7071,
      "confron": 7072,
      "presum": 7073,
      "evo": 7074,
      "Leo": 7075,
      "identify": 7076,
      "dancer": 7077,
      "hipp": 7078,
      "drags": 7079,
      "Miike": 7080,
      "broadcast": 7081,
      "Bakshi": 7082,
      "philosoph": 7083,
      "vulner": 7084,
      "inevitable": 7085,
      "Korean": 7086,
      "library": 7087,
      "Reynolds": 7088,
      "Dawson": 7089,
      "Further": 7090,
      "Kane": 7091,
      "Mu": 7092,
      "Met": 7093,
      "Rather": 7094,
      "SN": 7095,
      "Sab": 7096,
      "Sally": 7097,
      "Wa": 7098,
      "etern": 7099,
      "sam": 7100,
      "sque": 7101,
      "uct": 7102,
      "encounters": 7103,
      "exter": 7104,
      "inda": 7105,
      "bold": 7106,
      "spending": 7107,
      "lowing": 7108,
      "scripted": 7109,
      "handful": 7110,
      "childish": 7111,
      "videos": 7112,
      "elsewhere": 7113,
      "engage": 7114,
      "Carrey": 7115,
      "Davies": 7116,
      "brilliance": 7117,
      "thrills": 7118,
      "1980s": 7119,
      "matched": 7120,
      "Matthe": 7121,
      "projects": 7122,
      "demons": 7123,
      "scientists": 7124,
      "Murder": 7125,
      "briefly": 7126,
      "Silver": 7127,
      "resolution": 7128,
      "crisis": 7129,
      "Catholic": 7130,
      "toilet": 7131,
      "Es": 7132,
      "MU": 7133,
      "MY": 7134,
      "Top": 7135,
      "dish": 7136,
      "finger": 7137,
      "rever": 7138,
      "replace": 7139,
      "attraction": 7140,
      "alas": 7141,
      "icity": 7142,
      "shay": 7143,
      "dece": 7144,
      "excl": 7145,
      "killings": 7146,
      "performing": 7147,
      "Alt": 7148,
      "bucks": 7149,
      "temper": 7150,
      "advance": 7151,
      "Scooby": 7152,
      "Dragon": 7153,
      "Morris": 7154,
      "pleasantly": 7155,
      "END": 7156,
      "medium": 7157,
      "network": 7158,
      "health": 7159,
      "udos": 7160,
      "associated": 7161,
      "Beautiful": 7162,
      "Honest": 7163,
      "adequate": 7164,
      "stairs": 7165,
      "Cher": 7166,
      "Ey": 7167,
      "Jamie": 7168,
      "Nice": 7169,
      "ae": 7170,
      "cake": 7171,
      "lav": 7172,
      "trend": 7173,
      "wan": 7174,
      "hem": 7175,
      "geon": 7176,
      "sus": 7177,
      "artic": 7178,
      "ifying": 7179,
      "webs": 7180,
      "ruth": 7181,
      "Season": 7182,
      "Uncle": 7183,
      "Mann": 7184,
      "Spike": 7185,
      "rifice": 7186,
      "snan": 7187,
      "patri": 7188,
      "crimes": 7189,
      "continued": 7190,
      "kidnapped": 7191,
      "sneak": 7192,
      "Event": 7193,
      "Isa": 7194,
      "Mil": 7195,
      "Mitch": 7196,
      "Navy": 7197,
      "Rome": 7198,
      "dust": 7199,
      "gift": 7200,
      "hire": 7201,
      "iation": 7202,
      "jaw": 7203,
      "nel": 7204,
      "wow": 7205,
      "forgive": 7206,
      "lifest": 7207,
      "gee": 7208,
      "pses": 7209,
      "stranger": 7210,
      "tales": 7211,
      "phob": 7212,
      "worthless": 7213,
      "menacing": 7214,
      "pushed": 7215,
      "orders": 7216,
      "importantly": 7217,
      "Brosnan": 7218,
      "flawless": 7219,
      "Bern": 7220,
      "Franco": 7221,
      "hunting": 7222,
      "juven": 7223,
      "evolution": 7224,
      "Australia": 7225,
      "eccentric": 7226,
      "reunion": 7227,
      "revelation": 7228,
      "itizen": 7229,
      "Whether": 7230,
      "tremendous": 7231,
      "Hunter": 7232,
      "aforementioned": 7233,
      "superficial": 7234,
      "Falk": 7235,
      "Los": 7236,
      "Mild": 7237,
      "Rex": 7238,
      "bik": 7239,
      "sna": 7240,
      "size": 7241,
      "tly": 7242,
      "urai": 7243,
      "realise": 7244,
      "brow": 7245,
      "serving": 7246,
      "Joey": 7247,
      "Aside": 7248,
      "wondered": 7249,
      "Remember": 7250,
      "generous": 7251,
      "drivel": 7252,
      "admire": 7253,
      "picking": 7254,
      "technically": 7255,
      "instantly": 7256,
      "talked": 7257,
      "mistaken": 7258,
      "nonetheless": 7259,
      "Shaw": 7260,
      "spoiled": 7261,
      "rocks": 7262,
      "robber": 7263,
      "Ruth": 7264,
      "Jesse": 7265,
      "nuclear": 7266,
      "precise": 7267,
      "ambitious": 7268,
      "exaggerated": 7269,
      "outrageous": 7270,
      "ABC": 7271,
      "Cag": 7272,
      "Cop": 7273,
      "Ful": 7274,
      "Gard": 7275,
      "Try": 7276,
      "patch": 7277,
      "inser": 7278,
      "ata": 7279,
      "tool": 7280,
      "tery": 7281,
      "lip": 7282,
      "butt": 7283,
      "conserv": 7284,
      "spring": 7285,
      "ored": 7286,
      "disease": 7287,
      "opposed": 7288,
      "backs": 7289,
      "beings": 7290,
      "Josh": 7291,
      "aze": 7292,
      "buried": 7293,
      "appalling": 7294,
      "breasts": 7295,
      "creators": 7296,
      "ANT": 7297,
      "uniform": 7298,
      "photographed": 7299,
      "Worst": 7300,
      "laws": 7301,
      "Films": 7302,
      "secretary": 7303,
      "beaten": 7304,
      "affected": 7305,
      "investigation": 7306,
      "individuals": 7307,
      "fifteen": 7308,
      "accomplished": 7309,
      "wannabe": 7310,
      "fighter": 7311,
      "CIA": 7312,
      "jealous": 7313,
      "35": 7314,
      "Apart": 7315,
      "FX": 7316,
      "Fall": 7317,
      "Natur": 7318,
      "wack": 7319,
      "infer": 7320,
      "anal": 7321,
      "oms": 7322,
      "icop": 7323,
      "suits": 7324,
      "fears": 7325,
      "estate": 7326,
      "noble": 7327,
      "condu": 7328,
      "consequences": 7329,
      "antics": 7330,
      "aker": 7331,
      "overlooked": 7332,
      "ensible": 7333,
      "cheek": 7334,
      "reluct": 7335,
      "borrow": 7336,
      "cared": 7337,
      "ERE": 7338,
      "fancy": 7339,
      "convol": 7340,
      "misses": 7341,
      "engine": 7342,
      "distinct": 7343,
      "ticket": 7344,
      "planning": 7345,
      "boxing": 7346,
      "attracted": 7347,
      "draws": 7348,
      "Alexander": 7349,
      "sacrifice": 7350,
      "population": 7351,
      "Akshay": 7352,
      "Cameron": 7353,
      "Mitchell": 7354,
      "Cagney": 7355,
      "Doc": 7356,
      "Has": 7357,
      "ME": 7358,
      "Pam": 7359,
      "Summer": 7360,
      "Usu": 7361,
      "Video": 7362,
      "hence": 7363,
      "tte": 7364,
      "tones": 7365,
      "resort": 7366,
      "toy": 7367,
      "ido": 7368,
      "unpleasant": 7369,
      "comics": 7370,
      "exposed": 7371,
      "enda": 7372,
      "artific": 7373,
      "characterization": 7374,
      "watches": 7375,
      "ortal": 7376,
      "coinc": 7377,
      "wonders": 7378,
      "empath": 7379,
      "holiday": 7380,
      "persona": 7381,
      "lacked": 7382,
      "Holly": 7383,
      "slam": 7384,
      "rush": 7385,
      "Perry": 7386,
      "20th": 7387,
      "wheel": 7388,
      "Norman": 7389,
      "slightest": 7390,
      "scientific": 7391,
      "revealing": 7392,
      "Murray": 7393,
      "strike": 7394,
      "Craig": 7395,
      "melodramatic": 7396,
      "companion": 7397,
      "corporate": 7398,
      "throat": 7399,
      "Francisco": 7400,
      "curiosity": 7401,
      "dignity": 7402,
      "repetitive": 7403,
      "Bey": 7404,
      "Dirty": 7405,
      "FE": 7406,
      "Five": 7407,
      "Live": 7408,
      "Mup": 7409,
      "Mach": 7410,
      "Oz": 7411,
      "Tw": 7412,
      "sar": 7413,
      "storm": 7414,
      "reel": 7415,
      "chest": 7416,
      "defe": 7417,
      "viet": 7418,
      "code": 7419,
      "screw": 7420,
      "subplot": 7421,
      "farce": 7422,
      "reasonably": 7423,
      "possibility": 7424,
      "ixon": 7425,
      "Shir": 7426,
      "ketball": 7427,
      "Gothic": 7428,
      "Emily": 7429,
      "Felix": 7430,
      "argument": 7431,
      "Verho": 7432,
      "Picture": 7433,
      "captivating": 7434,
      "poverty": 7435,
      "redemption": 7436,
      "Bot": 7437,
      "Fore": 7438,
      "Fisher": 7439,
      "Ginger": 7440,
      "Ko": 7441,
      "Mars": 7442,
      "NE": 7443,
      "Sex": 7444,
      "Timo": 7445,
      "lest": 7446,
      "mi": 7447,
      "rics": 7448,
      "sno": 7449,
      "analy": 7450,
      "entin": 7451,
      "timeless": 7452,
      "pred": 7453,
      "Thunder": 7454,
      "frag": 7455,
      "compassion": 7456,
      "brea": 7457,
      "hearts": 7458,
      "credited": 7459,
      "2004": 7460,
      "politic": 7461,
      "Goldberg": 7462,
      "fatal": 7463,
      "smoking": 7464,
      "remaining": 7465,
      "ignored": 7466,
      "motivation": 7467,
      "Laurel": 7468,
      "pseudo": 7469,
      "strictly": 7470,
      "settling": 7471,
      "documentaries": 7472,
      "Gandhi": 7473,
      "installment": 7474,
      "subsequent": 7475,
      "splendid": 7476,
      "competition": 7477,
      "directorial": 7478,
      "Cy": 7479,
      "NEVER": 7480,
      "Port": 7481,
      "Tha": 7482,
      "Ze": 7483,
      "rab": 7484,
      "slaughter": 7485,
      "uate": 7486,
      "iser": 7487,
      "encing": 7488,
      "beer": 7489,
      "motor": 7490,
      "acula": 7491,
      "adget": 7492,
      "maniac": 7493,
      "poon": 7494,
      "whoever": 7495,
      "tea": 7496,
      "overdone": 7497,
      "clown": 7498,
      "clues": 7499,
      "partly": 7500,
      "eyed": 7501,
      "slim": 7502,
      "slick": 7503,
      "imagined": 7504,
      "superbly": 7505,
      "itchen": 7506,
      "distant": 7507,
      "cliff": 7508,
      "Hero": 7509,
      "virgin": 7510,
      "oddly": 7511,
      "response": 7512,
      "grandmother": 7513,
      "bullets": 7514,
      "pulling": 7515,
      "hunter": 7516,
      "frustrated": 7517,
      "explored": 7518,
      "miserably": 7519,
      "cabin": 7520,
      "assassin": 7521,
      "Fortun": 7522,
      "spooky": 7523,
      "Verhoeven": 7524,
      "Bush": 7525,
      "Hank": 7526,
      "Pot": 7527,
      "Saw": 7528,
      "WAY": 7529,
      "mour": 7530,
      "resid": 7531,
      "staged": 7532,
      "liking": 7533,
      "uninspired": 7534,
      "outcome": 7535,
      "dear": 7536,
      "noise": 7537,
      "blast": 7538,
      "lifetime": 7539,
      "helicop": 7540,
      "carn": 7541,
      "hyp": 7542,
      "marke": 7543,
      "failing": 7544,
      "fox": 7545,
      "distance": 7546,
      "satir": 7547,
      "2003": 7548,
      "collect": 7549,
      "futuristic": 7550,
      "accused": 7551,
      "hammer": 7552,
      "HOW": 7553,
      "achievement": 7554,
      "biography": 7555,
      "Alien": 7556,
      "obscure": 7557,
      "Turner": 7558,
      "reduced": 7559,
      "houses": 7560,
      "AB": 7561,
      "Dave": 7562,
      "Fan": 7563,
      "Fear": 7564,
      "Med": 7565,
      "gimm": 7566,
      "rd": 7567,
      "tro": 7568,
      "isation": 7569,
      "ingu": 7570,
      "filling": 7571,
      "uded": 7572,
      "anski": 7573,
      "Anim": 7574,
      "Wells": 7575,
      "enger": 7576,
      "Manh": 7577,
      "darker": 7578,
      "River": 7579,
      "vicious": 7580,
      "Prof": 7581,
      "ushing": 7582,
      "Indians": 7583,
      "psychotic": 7584,
      "returning": 7585,
      "Kenneth": 7586,
      "intrigued": 7587,
      "Craven": 7588,
      "shadows": 7589,
      "apoor": 7590,
      "Juliet": 7591,
      "discussion": 7592,
      "bidden": 7593,
      "cardboard": 7594,
      "Glenn": 7595,
      "Studi": 7596,
      "Ellen": 7597,
      "psychiatrist": 7598,
      "elderly": 7599,
      "territory": 7600,
      "elaborate": 7601,
      "gimmick": 7602,
      "FO": 7603,
      "Karen": 7604,
      "Kris": 7605,
      "dating": 7606,
      "gif": 7607,
      "gger": 7608,
      "ji": 7609,
      "returned": 7610,
      "sevent": 7611,
      "terday": 7612,
      "idel": 7613,
      "areas": 7614,
      "suited": 7615,
      "notably": 7616,
      "scope": 7617,
      "notorious": 7618,
      "istically": 7619,
      "bleak": 7620,
      "observ": 7621,
      "Inspector": 7622,
      "internet": 7623,
      "duo": 7624,
      "gotta": 7625,
      "glamor": 7626,
      "slave": 7627,
      "engaged": 7628,
      "aimed": 7629,
      "Princess": 7630,
      "providing": 7631,
      "Except": 7632,
      "LOVE": 7633,
      "recognized": 7634,
      "1930s": 7635,
      "jumping": 7636,
      "defend": 7637,
      "Duke": 7638,
      "Romero": 7639,
      "ACT": 7640,
      "repeatedly": 7641,
      "Throughout": 7642,
      "hysterical": 7643,
      "cringe": 7644,
      "magazine": 7645,
      "Spirit": 7646,
      "Griffith": 7647,
      "Honestly": 7648,
      "convoluted": 7649,
      "Timothy": 7650,
      "50s": 7651,
      "BUT": 7652,
      "CD": 7653,
      "Cold": 7654,
      "WAR": 7655,
      "cried": 7656,
      "flies": 7657,
      "jam": 7658,
      "kar": 7659,
      "som": 7660,
      "oni": 7661,
      "adul": 7662,
      "ligh": 7663,
      "shif": 7664,
      "worried": 7665,
      "horrid": 7666,
      "colon": 7667,
      "extended": 7668,
      "Arab": 7669,
      "typically": 7670,
      "Paulie": 7671,
      "movements": 7672,
      "lected": 7673,
      "reached": 7674,
      "tortured": 7675,
      "require": 7676,
      "occurred": 7677,
      "commercials": 7678,
      "blockbuster": 7679,
      "sloppy": 7680,
      "landscape": 7681,
      "iveness": 7682,
      "Margaret": 7683,
      "Matthew": 7684,
      "Altman": 7685,
      "Manhattan": 7686,
      "Fant": 7687,
      "Hick": 7688,
      "Lily": 7689,
      "Lev": 7690,
      "SC": 7691,
      "bury": 7692,
      "gut": 7693,
      "mouse": 7694,
      "nause": 7695,
      "rational": 7696,
      "ranks": 7697,
      "wig": 7698,
      "inhabit": 7699,
      "reli": 7700,
      "ilted": 7701,
      "chor": 7702,
      "iels": 7703,
      "adoles": 7704,
      "unbearable": 7705,
      "poison": 7706,
      "estic": 7707,
      "ola": 7708,
      "merc": 7709,
      "pretend": 7710,
      "highlights": 7711,
      "pression": 7712,
      "collabor": 7713,
      "definite": 7714,
      "Blake": 7715,
      "Danes": 7716,
      "Scot": 7717,
      "Warren": 7718,
      "Dracula": 7719,
      "existed": 7720,
      "narrator": 7721,
      "Berg": 7722,
      "arrive": 7723,
      "Rambo": 7724,
      "digital": 7725,
      "choreography": 7726,
      "wealth": 7727,
      "construction": 7728,
      "involvement": 7729,
      "Century": 7730,
      "arrested": 7731,
      "conspiracy": 7732,
      "Eyre": 7733,
      "Mildred": 7734,
      "Irel": 7735,
      "Rat": 7736,
      "Seven": 7737,
      "Sold": 7738,
      "cali": 7739,
      "iently": 7740,
      "uth": 7741,
      "wives": 7742,
      "album": 7743,
      "staff": 7744,
      "secre": 7745,
      "uneven": 7746,
      "root": 7747,
      "conve": 7748,
      "quel": 7749,
      "aval": 7750,
      "blend": 7751,
      "displays": 7752,
      "merit": 7753,
      "Heart": 7754,
      "afterwards": 7755,
      "smug": 7756,
      "differences": 7757,
      "sounding": 7758,
      "audio": 7759,
      "genres": 7760,
      "swear": 7761,
      "swing": 7762,
      "dancers": 7763,
      "attered": 7764,
      "Absolute": 7765,
      "demands": 7766,
      "studios": 7767,
      "Hamilton": 7768,
      "improved": 7769,
      "smoke": 7770,
      "resembles": 7771,
      "Carrie": 7772,
      "electric": 7773,
      "precious": 7774,
      "Beatty": 7775,
      "Wallace": 7776,
      "Modesty": 7777,
      "restaurant": 7778,
      "oubted": 7779,
      "Eventually": 7780,
      "Fortunately": 7781,
      "Ireland": 7782,
      "90s": 7783,
      "Fle": 7784,
      "IF": 7785,
      "Miles": 7786,
      "Pet": 7787,
      "Psy": 7788,
      "Todd": 7789,
      "hh": 7790,
      "mum": 7791,
      "pig": 7792,
      "threw": 7793,
      "armed": 7794,
      "argue": 7795,
      "chances": 7796,
      "ications": 7797,
      "verted": 7798,
      "forgiven": 7799,
      "characteristic": 7800,
      "ciating": 7801,
      "enjoys": 7802,
      "Soviet": 7803,
      "sadistic": 7804,
      "Godfather": 7805,
      "ridiculously": 7806,
      "devast": 7807,
      "idiots": 7808,
      "OME": 7809,
      "westerns": 7810,
      "burned": 7811,
      "Given": 7812,
      "Nazis": 7813,
      "Lawrence": 7814,
      "cowboy": 7815,
      "absence": 7816,
      "symbolism": 7817,
      "receive": 7818,
      "dynamic": 7819,
      "website": 7820,
      "Aw": 7821,
      "Bow": 7822,
      "Ev": 7823,
      "Fonda": 7824,
      "Greek": 7825,
      "Terry": 7826,
      "Ward": 7827,
      "Years": 7828,
      "foul": 7829,
      "pir": 7830,
      "zen": 7831,
      "ala": 7832,
      "assem": 7833,
      "offee": 7834,
      "edly": 7835,
      "stro": 7836,
      "chi": 7837,
      "user": 7838,
      "nops": 7839,
      "acknow": 7840,
      "myth": 7841,
      "grasp": 7842,
      "overrated": 7843,
      "Intern": 7844,
      "izard": 7845,
      "settle": 7846,
      "leton": 7847,
      "nery": 7848,
      "Annie": 7849,
      "humili": 7850,
      "heroic": 7851,
      "sadness": 7852,
      "odds": 7853,
      "Quite": 7854,
      "machines": 7855,
      "nett": 7856,
      "concerning": 7857,
      "Enjoy": 7858,
      "strikes": 7859,
      "screams": 7860,
      "intrigue": 7861,
      "drawing": 7862,
      "burning": 7863,
      "Strange": 7864,
      "Kenned": 7865,
      "investigate": 7866,
      "drunken": 7867,
      "sales": 7868,
      "birthday": 7869,
      "bathroom": 7870,
      "proceedings": 7871,
      "Nicholson": 7872,
      "journalist": 7873,
      "ruthless": 7874,
      "22": 7875,
      "Bart": 7876,
      "Cut": 7877,
      "Cour": 7878,
      "Cont": 7879,
      "Eyes": 7880,
      "Line": 7881,
      "Lots": 7882,
      "Tem": 7883,
      "daring": 7884,
      "fred": 7885,
      "oon": 7886,
      "pes": 7887,
      "tame": 7888,
      "tta": 7889,
      "anx": 7890,
      "resur": 7891,
      "aling": 7892,
      "aser": 7893,
      "uns": 7894,
      "decor": 7895,
      "defeat": 7896,
      "notes": 7897,
      "composed": 7898,
      "aints": 7899,
      "aux": 7900,
      "aggress": 7901,
      "akin": 7902,
      "mato": 7903,
      "harder": 7904,
      "horrors": 7905,
      "comprom": 7906,
      "clothing": 7907,
      "glory": 7908,
      "commended": 7909,
      "styles": 7910,
      "cycle": 7911,
      "Granted": 7912,
      "2007": 7913,
      "photograph": 7914,
      "Worth": 7915,
      "combat": 7916,
      "meaningless": 7917,
      "Series": 7918,
      "bullet": 7919,
      "disturbed": 7920,
      "Stiller": 7921,
      "exploit": 7922,
      "Alexand": 7923,
      "Special": 7924,
      "sacrific": 7925,
      "explosion": 7926,
      "Leonard": 7927,
      "Skip": 7928,
      "innovative": 7929,
      "piano": 7930,
      "musc": 7931,
      "Atlantis": 7932,
      "presumably": 7933,
      "Based": 7934,
      "Det": 7935,
      "Kapoor": 7936,
      "Row": 7937,
      "Si": 7938,
      "Sever": 7939,
      "Tot": 7940,
      "WAT": 7941,
      "bene": 7942,
      "dun": 7943,
      "endi": 7944,
      "bears": 7945,
      "beats": 7946,
      "acid": 7947,
      "icon": 7948,
      "plate": 7949,
      "worn": 7950,
      "Thus": 7951,
      "grain": 7952,
      "blows": 7953,
      "blowing": 7954,
      "assault": 7955,
      "1930": 7956,
      "contained": 7957,
      "producing": 7958,
      "worlds": 7959,
      "closed": 7960,
      "Donna": 7961,
      "Edie": 7962,
      "popcorn": 7963,
      "builds": 7964,
      "pressure": 7965,
      "cruciating": 7966,
      "devoted": 7967,
      "Madonna": 7968,
      "answered": 7969,
      "thankfully": 7970,
      "escaped": 7971,
      "gradually": 7972,
      "models": 7973,
      "Valent": 7974,
      "golden": 7975,
      "constructed": 7976,
      "Voight": 7977,
      "Legend": 7978,
      "overwhelming": 7979,
      "Considering": 7980,
      "newspaper": 7981,
      "Fulci": 7982,
      "nopsis": 7983,
      "3rd": 7984,
      "Bell": 7985,
      "Rad": 7986,
      "cig": 7987,
      "kitchen": 7988,
      "sand": 7989,
      "uity": 7990,
      "react": 7991,
      "rell": 7992,
      "uloid": 7993,
      "bless": 7994,
      "offering": 7995,
      "udge": 7996,
      "centered": 7997,
      "Brady": 7998,
      "breed": 7999,
      "Roth": 8000,
      "groups": 8001,
      "nearby": 8002,
      "Walker": 8003,
      "detailed": 8004,
      "banned": 8005,
      "racial": 8006,
      "senseless": 8007,
      "loosely": 8008,
      "possessed": 8009,
      "conversations": 8010,
      "vivid": 8011,
      "thology": 8012,
      "distracting": 8013,
      "errors": 8014,
      "deliberately": 8015,
      "Lemmon": 8016,
      "Kennedy": 8017,
      "Bun": 8018,
      "Bul": 8019,
      "Cary": 8020,
      "Cube": 8021,
      "Hood": 8022,
      "HBO": 8023,
      "Rings": 8024,
      "Wel": 8025,
      "ez": 8026,
      "mares": 8027,
      "rural": 8028,
      "uated": 8029,
      "thumbs": 8030,
      "resto": 8031,
      "relies": 8032,
      "asion": 8033,
      "amuse": 8034,
      "unbelievably": 8035,
      "ela": 8036,
      "goers": 8037,
      "guided": 8038,
      "Note": 8039,
      "murderous": 8040,
      "silver": 8041,
      "NOW": 8042,
      "scores": 8043,
      "Price": 8044,
      "1996": 8045,
      "Woods": 8046,
      "immig": 8047,
      "mesmer": 8048,
      "influenced": 8049,
      "currently": 8050,
      "resemblance": 8051,
      "Brooklyn": 8052,
      "explosions": 8053,
      "philosophy": 8054,
      "liberal": 8055,
      "Scream": 8056,
      "dentist": 8057,
      "prostitute": 8058,
      "Cuba": 8059,
      "cameras": 8060,
      "ingredients": 8061,
      "Certainly": 8062,
      "oubtedly": 8063,
      "Bay": 8064,
      "CR": 8065,
      "Dah": 8066,
      "Dawn": 8067,
      "Homer": 8068,
      "PR": 8069,
      "Say": 8070,
      "Sud": 8071,
      "Soph": 8072,
      "opt": 8073,
      "ture": 8074,
      "uable": 8075,
      "removed": 8076,
      "util": 8077,
      "unwatchable": 8078,
      "unintentional": 8079,
      "illog": 8080,
      "excruciating": 8081,
      "prejud": 8082,
      "president": 8083,
      "cannibal": 8084,
      "umsy": 8085,
      "avo": 8086,
      "crook": 8087,
      "Stall": 8088,
      "kidding": 8089,
      "corpse": 8090,
      "classes": 8091,
      "jection": 8092,
      "undam": 8093,
      "causing": 8094,
      "tracks": 8095,
      "ONG": 8096,
      "staying": 8097,
      "promin": 8098,
      "catches": 8099,
      "Polanski": 8100,
      "opportun": 8101,
      "consistently": 8102,
      "succeeded": 8103,
      "According": 8104,
      "OOD": 8105,
      "Olivier": 8106,
      "lifting": 8107,
      "implausible": 8108,
      "scheme": 8109,
      "Florida": 8110,
      "Imagine": 8111,
      "Hills": 8112,
      "Sell": 8113,
      "coffee": 8114,
      "itudes": 8115,
      "league": 8116,
      "accompan": 8117,
      "elic": 8118,
      "rian": 8119,
      "cean": 8120,
      "ulp": 8121,
      "exotic": 8122,
      "measure": 8123,
      "Third": 8124,
      "backdrop": 8125,
      "strang": 8126,
      "matically": 8127,
      "phant": 8128,
      "embr": 8129,
      "ipes": 8130,
      "thoughtful": 8131,
      "steam": 8132,
      "ocative": 8133,
      "careers": 8134,
      "sentence": 8135,
      "Ross": 8136,
      "pays": 8137,
      "subjects": 8138,
      "1999": 8139,
      "writes": 8140,
      "souls": 8141,
      "1960": 8142,
      "suitable": 8143,
      "affection": 8144,
      "Jeffrey": 8145,
      "Seeing": 8146,
      "passionate": 8147,
      "Maggie": 8148,
      "vulgar": 8149,
      "jointed": 8150,
      "financial": 8151,
      "discovery": 8152,
      "juvenile": 8153,
      "Bottom": 8154,
      "AF": 8155,
      "AV": 8156,
      "Apr": 8157,
      "CT": 8158,
      "Eas": 8159,
      "Field": 8160,
      "Hurt": 8161,
      "Kum": 8162,
      "PP": 8163,
      "Song": 8164,
      "Six": 8165,
      "cingly": 8166,
      "cats": 8167,
      "dre": 8168,
      "hates": 8169,
      "tall": 8170,
      "represented": 8171,
      "leans": 8172,
      "whim": 8173,
      "otion": 8174,
      "idal": 8175,
      "decess": 8176,
      "detract": 8177,
      "notion": 8178,
      "endings": 8179,
      "predecess": 8180,
      "Thing": 8181,
      "offended": 8182,
      "whereas": 8183,
      "Antw": 8184,
      "sidekick": 8185,
      "defined": 8186,
      "smaller": 8187,
      "spirited": 8188,
      "NOTHING": 8189,
      "Harvey": 8190,
      "signed": 8191,
      "abysm": 8192,
      "fluff": 8193,
      "recorded": 8194,
      "specif": 8195,
      "apolog": 8196,
      "primary": 8197,
      "employed": 8198,
      "frustration": 8199,
      "hideous": 8200,
      "Linda": 8201,
      "Streep": 8202,
      "fetched": 8203,
      "unfolds": 8204,
      "Characters": 8205,
      "lifestyle": 8206,
      "Clo": 8207,
      "Eu": 8208,
      "Fool": 8209,
      "Gadget": 8210,
      "Hack": 8211,
      "Hung": 8212,
      "Lag": 8213,
      "Mey": 8214,
      "echo": 8215,
      "jan": 8216,
      "sive": 8217,
      "sadd": 8218,
      "zilla": 8219,
      "thugs": 8220,
      "lee": 8221,
      "elim": 8222,
      "devoid": 8223,
      "intro": 8224,
      "rav": 8225,
      "clumsy": 8226,
      "optim": 8227,
      "brains": 8228,
      "performer": 8229,
      "bub": 8230,
      "explaining": 8231,
      "Reg": 8232,
      "dialogues": 8233,
      "ERS": 8234,
      "directs": 8235,
      "Neither": 8236,
      "superhero": 8237,
      "painted": 8238,
      "undance": 8239,
      "Cost": 8240,
      "politically": 8241,
      "planned": 8242,
      "countryside": 8243,
      "mixture": 8244,
      "trees": 8245,
      "flop": 8246,
      "historic": 8247,
      "celluloid": 8248,
      "Mickey": 8249,
      "decisions": 8250,
      "hatred": 8251,
      "dozens": 8252,
      "shelf": 8253,
      "Friends": 8254,
      "blatant": 8255,
      "Swedish": 8256,
      "Gabriel": 8257,
      "Amy": 8258,
      "Bra": 8259,
      "Dill": 8260,
      "Dra": 8261,
      "Dress": 8262,
      "Hunt": 8263,
      "Kol": 8264,
      "Ly": 8265,
      "Sen": 8266,
      "Stra": 8267,
      "UP": 8268,
      "awe": 8269,
      "fist": 8270,
      "muse": 8271,
      "erk": 8272,
      "issing": 8273,
      "enem": 8274,
      "encour": 8275,
      "acies": 8276,
      "unned": 8277,
      "consu": 8278,
      "astro": 8279,
      "props": 8280,
      "goodness": 8281,
      "surfing": 8282,
      "cheating": 8283,
      "trio": 8284,
      "lett": 8285,
      "relations": 8286,
      "nervous": 8287,
      "Dee": 8288,
      "possibilities": 8289,
      "buddies": 8290,
      "curse": 8291,
      "covering": 8292,
      "captain": 8293,
      "convincingly": 8294,
      "Tommy": 8295,
      "robots": 8296,
      "describes": 8297,
      "venture": 8298,
      "Times": 8299,
      "arrell": 8300,
      "reaches": 8301,
      "travels": 8302,
      "Garbo": 8303,
      "loads": 8304,
      "stinker": 8305,
      "Diane": 8306,
      "benefit": 8307,
      "duty": 8308,
      "cinematographer": 8309,
      "International": 8310,
      "avoided": 8311,
      "enemies": 8312,
      "Fat": 8313,
      "Fish": 8314,
      "Gam": 8315,
      "Gundam": 8316,
      "Macy": 8317,
      "Year": 8318,
      "jazz": 8319,
      "pants": 8320,
      "vak": 8321,
      "anded": 8322,
      "itar": 8323,
      "lyrics": 8324,
      "aman": 8325,
      "elve": 8326,
      "abh": 8327,
      "outfit": 8328,
      "urge": 8329,
      "doomed": 8330,
      "earned": 8331,
      "offs": 8332,
      "fundam": 8333,
      "izable": 8334,
      "highest": 8335,
      "Sopr": 8336,
      "compens": 8337,
      "hypo": 8338,
      "synopsis": 8339,
      "Short": 8340,
      "towns": 8341,
      "STAR": 8342,
      "instant": 8343,
      "matches": 8344,
      "Berlin": 8345,
      "backgrounds": 8346,
      "LOT": 8347,
      "Timon": 8348,
      "remarkably": 8349,
      "desperation": 8350,
      "ASE": 8351,
      "practice": 8352,
      "authority": 8353,
      "Angeles": 8354,
      "primarily": 8355,
      "transport": 8356,
      "flir": 8357,
      "hints": 8358,
      "inventive": 8359,
      "Hartley": 8360,
      "Diana": 8361,
      "emphasis": 8362,
      "agrees": 8363,
      "Vampire": 8364,
      "montage": 8365,
      "Latin": 8366,
      "immensely": 8367,
      "enormous": 8368,
      "inferior": 8369,
      "Shirley": 8370,
      "ARE": 8371,
      "Dur": 8372,
      "Eri": 8373,
      "Mah": 8374,
      "Rich": 8375,
      "WAS": 8376,
      "mou": 8377,
      "oples": 8378,
      "punk": 8379,
      "winter": 8380,
      "incompreh": 8381,
      "enh": 8382,
      "stellar": 8383,
      "adine": 8384,
      "posure": 8385,
      "persu": 8386,
      "agues": 8387,
      "prepar": 8388,
      "aks": 8389,
      "disappear": 8390,
      "disjointed": 8391,
      "nevertheless": 8392,
      "wont": 8393,
      "useful": 8394,
      "motives": 8395,
      "generic": 8396,
      "bedroom": 8397,
      "Lumet": 8398,
      "developing": 8399,
      "damage": 8400,
      "Godzilla": 8401,
      "signs": 8402,
      "commented": 8403,
      "introduces": 8404,
      "winds": 8405,
      "OUT": 8406,
      "1940": 8407,
      "survival": 8408,
      "EVERY": 8409,
      "Kids": 8410,
      "Scroo": 8411,
      "Iraq": 8412,
      "hypnot": 8413,
      "secrets": 8414,
      "Sudden": 8415,
      "illogical": 8416,
      "April": 8417,
      "Adri": 8418,
      "Civ": 8419,
      "CON": 8420,
      "Gore": 8421,
      "Ok": 8422,
      "Sound": 8423,
      "Stoo": 8424,
      "Save": 8425,
      "Uwe": 8426,
      "Var": 8427,
      "fier": 8428,
      "hen": 8429,
      "iere": 8430,
      "mud": 8431,
      "ole": 8432,
      "sab": 8433,
      "sest": 8434,
      "tad": 8435,
      "ype": 8436,
      "insur": 8437,
      "topless": 8438,
      "imperson": 8439,
      "lifel": 8440,
      "unky": 8441,
      "unsettling": 8442,
      "roof": 8443,
      "rier": 8444,
      "ctic": 8445,
      "nephe": 8446,
      "trow": 8447,
      "endure": 8448,
      "contrad": 8449,
      "wet": 8450,
      "igner": 8451,
      "grate": 8452,
      "displayed": 8453,
      "disappeared": 8454,
      "pride": 8455,
      "interaction": 8456,
      "horrifying": 8457,
      "phony": 8458,
      "gene": 8459,
      "hyper": 8460,
      "lasted": 8461,
      "solution": 8462,
      "rett": 8463,
      "distingu": 8464,
      "guessed": 8465,
      "transformation": 8466,
      "weakest": 8467,
      "focusing": 8468,
      "kicked": 8469,
      "Monster": 8470,
      "executive": 8471,
      "traveling": 8472,
      "officers": 8473,
      "dedicated": 8474,
      "rocket": 8475,
      "faults": 8476,
      "formulaic": 8477,
      "Judy": 8478,
      "Jonathan": 8479,
      "simplistic": 8480,
      "miserable": 8481,
      "adorable": 8482,
      "candid": 8483,
      "Winters": 8484,
      "Nicol": 8485,
      "philosophical": 8486,
      "Cab": 8487,
      "DON": 8488,
      "Dutch": 8489,
      "Egy": 8490,
      "Lund": 8491,
      "Pas": 8492,
      "Sep": 8493,
      "Town": 8494,
      "Wag": 8495,
      "bread": 8496,
      "cards": 8497,
      "dazz": 8498,
      "iable": 8499,
      "thet": 8500,
      "recru": 8501,
      "ester": 8502,
      "itabh": 8503,
      "ulty": 8504,
      "trained": 8505,
      "justify": 8506,
      "cliche": 8507,
      "icker": 8508,
      "llie": 8509,
      "funeral": 8510,
      "lotte": 8511,
      "Deli": 8512,
      "clock": 8513,
      "aneously": 8514,
      "Luci": 8515,
      "Charlotte": 8516,
      "legit": 8517,
      "prompt": 8518,
      "instit": 8519,
      "suffic": 8520,
      "honesty": 8521,
      "questionable": 8522,
      "stereotype": 8523,
      "rubber": 8524,
      "terrorist": 8525,
      "Days": 8526,
      "mountains": 8527,
      "calm": 8528,
      "buffs": 8529,
      "ELL": 8530,
      "glasses": 8531,
      "functional": 8532,
      "glorious": 8533,
      "divorce": 8534,
      "Israel": 8535,
      "Wendy": 8536,
      "artificial": 8537,
      "Civil": 8538,
      "Cob": 8539,
      "Orig": 8540,
      "Put": 8541,
      "Sel": 8542,
      "Viv": 8543,
      "faster": 8544,
      "lers": 8545,
      "nons": 8546,
      "thread": 8547,
      "thief": 8548,
      "inane": 8549,
      "toys": 8550,
      "altogether": 8551,
      "chop": 8552,
      "forty": 8553,
      "illness": 8554,
      "poe": 8555,
      "peror": 8556,
      "blur": 8557,
      "assy": 8558,
      "thru": 8559,
      "monkey": 8560,
      "sail": 8561,
      "mighty": 8562,
      "closet": 8563,
      "Nobody": 8564,
      "Myr": 8565,
      "Somehow": 8566,
      "Grinch": 8567,
      "ysis": 8568,
      "Scary": 8569,
      "McG": 8570,
      "suspic": 8571,
      "Trans": 8572,
      "promised": 8573,
      "similarities": 8574,
      "1972": 8575,
      "shake": 8576,
      "trashy": 8577,
      "Amanda": 8578,
      "psychopath": 8579,
      "subtlety": 8580,
      "Sandra": 8581,
      "frustrating": 8582,
      "Miy": 8583,
      "washed": 8584,
      "solely": 8585,
      "translation": 8586,
      "Campbell": 8587,
      "isolated": 8588,
      "arrogant": 8589,
      "Profess": 8590,
      "seventies": 8591,
      "Bergman": 8592,
      "Aff": 8593,
      "Aud": 8594,
      "Block": 8595,
      "Kh": 8596,
      "Khan": 8597,
      "Women": 8598,
      "lins": 8599,
      "pals": 8600,
      "sits": 8601,
      "inf": 8602,
      "eries": 8603,
      "rec": 8604,
      "stir": 8605,
      "chron": 8606,
      "bearing": 8607,
      "unreal": 8608,
      "rail": 8609,
      "blew": 8610,
      "eping": 8611,
      "blank": 8612,
      "Chamber": 8613,
      "compar": 8614,
      "Forget": 8615,
      "Christy": 8616,
      "considerable": 8617,
      "silence": 8618,
      "fantas": 8619,
      "Orson": 8620,
      "concern": 8621,
      "Amitabh": 8622,
      "ivalent": 8623,
      "depressed": 8624,
      "cracking": 8625,
      "hurts": 8626,
      "frequent": 8627,
      "revolutionary": 8628,
      "tunes": 8629,
      "corruption": 8630,
      "ignorant": 8631,
      "uddled": 8632,
      "dinosaurs": 8633,
      "Simpson": 8634,
      "choreographed": 8635,
      "GREAT": 8636,
      "elimin": 8637,
      "Cou": 8638,
      "Citizen": 8639,
      "Din": 8640,
      "Dow": 8641,
      "Fa": 8642,
      "Kent": 8643,
      "Odd": 8644,
      "Ollie": 8645,
      "Shad": 8646,
      "Sub": 8647,
      "TC": 8648,
      "WI": 8649,
      "gloss": 8650,
      "ninj": 8651,
      "san": 8652,
      "assum": 8653,
      "heat": 8654,
      "heim": 8655,
      "sect": 8656,
      "chess": 8657,
      "acles": 8658,
      "ids": 8659,
      "plat": 8660,
      "torney": 8661,
      "poem": 8662,
      "astically": 8663,
      "preview": 8664,
      "hash": 8665,
      "despair": 8666,
      "cope": 8667,
      "newly": 8668,
      "origin": 8669,
      "monot": 8670,
      "understandable": 8671,
      "distin": 8672,
      "confidence": 8673,
      "wished": 8674,
      "facing": 8675,
      "photos": 8676,
      "1983": 8677,
      "treats": 8678,
      "profession": 8679,
      "embarrassment": 8680,
      "Krist": 8681,
      "eighties": 8682,
      "slip": 8683,
      "Midnight": 8684,
      "Montana": 8685,
      "nostalgic": 8686,
      "tiresome": 8687,
      "nomination": 8688,
      "Dalton": 8689,
      "riveting": 8690,
      "nurse": 8691,
      "Sellers": 8692,
      "Dig": 8693,
      "Dixon": 8694,
      "Got": 8695,
      "Jed": 8696,
      "Kell": 8697,
      "Lena": 8698,
      "Oc": 8699,
      "Por": 8700,
      "Pear": 8701,
      "Wolf": 8702,
      "bable": 8703,
      "bins": 8704,
      "dances": 8705,
      "fro": 8706,
      "gall": 8707,
      "ien": 8708,
      "jay": 8709,
      "ske": 8710,
      "taught": 8711,
      "wore": 8712,
      "enlight": 8713,
      "ulated": 8714,
      "agents": 8715,
      "bog": 8716,
      "guide": 8717,
      "wrap": 8718,
      "Chic": 8719,
      "pretending": 8720,
      "downhill": 8721,
      "visits": 8722,
      "hardcore": 8723,
      "Dete": 8724,
      "Myers": 8725,
      "humble": 8726,
      "Mario": 8727,
      "shortly": 8728,
      "waited": 8729,
      "undoubtedly": 8730,
      "casual": 8731,
      "purchase": 8732,
      "Connery": 8733,
      "transition": 8734,
      "Abra": 8735,
      "delivering": 8736,
      "grandfather": 8737,
      "Paltrow": 8738,
      "Bela": 8739,
      "ovich": 8740,
      "contrary": 8741,
      "itors": 8742,
      "prophe": 8743,
      "appropriately": 8744,
      "fooled": 8745,
      "salv": 8746,
      "Stevens": 8747,
      "employe": 8748,
      "Carradine": 8749,
      "halluc": 8750,
      "global": 8751,
      "Wonderful": 8752,
      "swimming": 8753,
      "Loren": 8754,
      "Shelley": 8755,
      "Needless": 8756,
      "poetic": 8757,
      "Usually": 8758,
      "AG": 8759,
      "Band": 8760,
      "Bab": 8761,
      "CG": 8762,
      "HK": 8763,
      "Kyle": 8764,
      "Mun": 8765,
      "OD": 8766,
      "Sirk": 8767,
      "Sweet": 8768,
      "cens": 8769,
      "dud": 8770,
      "eg": 8771,
      "jac": 8772,
      "mile": 8773,
      "warr": 8774,
      "stance": 8775,
      "champion": 8776,
      "este": 8777,
      "diamond": 8778,
      "olves": 8779,
      "awak": 8780,
      "joined": 8781,
      "Stars": 8782,
      "stole": 8783,
      "vibr": 8784,
      "tember": 8785,
      "closest": 8786,
      "valuable": 8787,
      "Recommended": 8788,
      "voiced": 8789,
      "generated": 8790,
      "Edgar": 8791,
      "capturing": 8792,
      "Elli": 8793,
      "soccer": 8794,
      "climactic": 8795,
      "Scottish": 8796,
      "rupted": 8797,
      "1968": 8798,
      "splatter": 8799,
      "jumped": 8800,
      "arrived": 8801,
      "Dickens": 8802,
      "motivations": 8803,
      "WHY": 8804,
      "education": 8805,
      "Human": 8806,
      "Hopper": 8807,
      "alcoholic": 8808,
      "maintain": 8809,
      "guarantee": 8810,
      "Virginia": 8811,
      "Spoilers": 8812,
      "destroying": 8813,
      "SNL": 8814,
      "adolescent": 8815,
      "abysmal": 8816,
      "Scrooge": 8817,
      "Early": 8818,
      "Fro": 8819,
      "GOOD": 8820,
      "Kin": 8821,
      "MP": 8822,
      "Mind": 8823,
      "nuts": 8824,
      "pap": 8825,
      "sappy": 8826,
      "uk": 8827,
      "orches": 8828,
      "stilted": 8829,
      "behave": 8830,
      "unhappy": 8831,
      "button": 8832,
      "exped": 8833,
      "pert": 8834,
      "antino": 8835,
      "quer": 8836,
      "owns": 8837,
      "awake": 8838,
      "blond": 8839,
      "lowest": 8840,
      "codile": 8841,
      "bug": 8842,
      "borough": 8843,
      "nightmares": 8844,
      "ridden": 8845,
      "staring": 8846,
      "spirits": 8847,
      "Richardson": 8848,
      "yesterday": 8849,
      "gangsters": 8850,
      "incest": 8851,
      "secretly": 8852,
      "1960s": 8853,
      "annah": 8854,
      "Austen": 8855,
      "reaching": 8856,
      "MacArthur": 8857,
      "beliefs": 8858,
      "conflicts": 8859,
      "ethnic": 8860,
      "anoia": 8861,
      "Spock": 8862,
      "Nicholas": 8863,
      "Interest": 8864,
      "Jenny": 8865,
      "Phillip": 8866,
      "phrase": 8867,
      "helicopter": 8868,
      "Abraham": 8869,
      "FR": 8870,
      "Face": 8871,
      "Gung": 8872,
      "June": 8873,
      "List": 8874,
      "Liz": 8875,
      "Pay": 8876,
      "Prom": 8877,
      "french": 8878,
      "luster": 8879,
      "mers": 8880,
      "plight": 8881,
      "tent": 8882,
      "wret": 8883,
      "inations": 8884,
      "tocr": 8885,
      "oured": 8886,
      "immer": 8887,
      "abort": 8888,
      "abusive": 8889,
      "rophob": 8890,
      "ulf": 8891,
      "det": 8892,
      "max": 8893,
      "trav": 8894,
      "pops": 8895,
      "dose": 8896,
      "nod": 8897,
      "bye": 8898,
      "quotes": 8899,
      "ookie": 8900,
      "spare": 8901,
      "obli": 8902,
      "wrapped": 8903,
      "desired": 8904,
      "understated": 8905,
      "couples": 8906,
      "lette": 8907,
      "monolo": 8908,
      "nail": 8909,
      "engross": 8910,
      "bands": 8911,
      "advise": 8912,
      "annoy": 8913,
      "mysteries": 8914,
      "Everybody": 8915,
      "Gerard": 8916,
      "summar": 8917,
      "Coy": 8918,
      "ATE": 8919,
      "Richards": 8920,
      "buildings": 8921,
      "catchy": 8922,
      "catching": 8923,
      "designs": 8924,
      "Germans": 8925,
      "remarks": 8926,
      "Patric": 8927,
      "dimension": 8928,
      "Julian": 8929,
      "survived": 8930,
      "Raymond": 8931,
      "responsibility": 8932,
      "correctly": 8933,
      "safety": 8934,
      "celebrity": 8935,
      "progresses": 8936,
      "Robinson": 8937,
      "principal": 8938,
      "chaos": 8939,
      "austrophob": 8940,
      "agreed": 8941,
      "exploration": 8942,
      "Domino": 8943,
      "vulnerable": 8944,
      "conservative": 8945,
      "beneath": 8946,
      "Stallone": 8947,
      "Action": 8948,
      "Count": 8949,
      "Chase": 8950,
      "Farrell": 8951,
      "Side": 8952,
      "Tol": 8953,
      "Ven": 8954,
      "amo": 8955,
      "furn": 8956,
      "rang": 8957,
      "wl": 8958,
      "indi": 8959,
      "leen": 8960,
      "elo": 8961,
      "absent": 8962,
      "riot": 8963,
      "plod": 8964,
      "neur": 8965,
      "granted": 8966,
      "grotes": 8967,
      "span": 8968,
      "twin": 8969,
      "iley": 8970,
      "eft": 8971,
      "Soder": 8972,
      "Force": 8973,
      "nails": 8974,
      "schlock": 8975,
      "messed": 8976,
      "copies": 8977,
      "Boys": 8978,
      "retro": 8979,
      "spoke": 8980,
      "unior": 8981,
      "purchased": 8982,
      "Perfect": 8983,
      "roller": 8984,
      "Frankie": 8985,
      "amounts": 8986,
      "depicts": 8987,
      "Willis": 8988,
      "recognition": 8989,
      "accuracy": 8990,
      "trailers": 8991,
      "brutally": 8992,
      "lengthy": 8993,
      "loaded": 8994,
      "tti": 8995,
      "Writer": 8996,
      "educated": 8997,
      "simplicity": 8998,
      "Vegas": 8999,
      "spread": 9000,
      "Spring": 9001,
      "Cowboy": 9002,
      "Absolutely": 9003,
      "Several": 9004,
      "specifically": 9005,
      "Lundgren": 9006,
      "legitim": 9007,
      "poetry": 9008,
      "Chicago": 9009,
      "Biko": 9010,
      "Dance": 9011,
      "Fast": 9012,
      "Fans": 9013,
      "Game": 9014,
      "Nathan": 9015,
      "Slo": 9016,
      "gender": 9017,
      "hench": 9018,
      "mall": 9019,
      "rows": 9020,
      "zes": 9021,
      "repul": 9022,
      "illegal": 9023,
      "stark": 9024,
      "acious": 9025,
      "icia": 9026,
      "kemon": 9027,
      "sume": 9028,
      "subl": 9029,
      "alled": 9030,
      "condem": 9031,
      "weigh": 9032,
      "preced": 9033,
      "claustrophob": 9034,
      "realizing": 9035,
      "Therefore": 9036,
      "cheated": 9037,
      "iped": 9038,
      "visiting": 9039,
      "relatives": 9040,
      "persons": 9041,
      "polished": 9042,
      "Peters": 9043,
      "Claus": 9044,
      "Christians": 9045,
      "ONLY": 9046,
      "potentially": 9047,
      "1973": 9048,
      "ushi": 9049,
      "rendition": 9050,
      "limits": 9051,
      "Frankenstein": 9052,
      "kicking": 9053,
      "prisoners": 9054,
      "experiments": 9055,
      "biased": 9056,
      "complexity": 9057,
      "Louise": 9058,
      "Hammer": 9059,
      "terrorists": 9060,
      "Craw": 9061,
      "Syd": 9062,
      "foolish": 9063,
      "nicol": 9064,
      "arguably": 9065,
      "Damon": 9066,
      "advertising": 9067,
      "WHAT": 9068,
      "custom": 9069,
      "bonus": 9070,
      "vaguely": 9071,
      "nostalgia": 9072,
      "Hyde": 9073,
      "Grayson": 9074,
      "elegant": 9075,
      "resources": 9076,
      "Beyond": 9077,
      "Court": 9078,
      "restored": 9079,
      "September": 9080,
      "wretched": 9081,
      "COM": 9082,
      "Ethan": 9083,
      "Pho": 9084,
      "Zone": 9085,
      "iably": 9086,
      "south": 9087,
      "saga": 9088,
      "wrench": 9089,
      "inity": 9090,
      "inappropriate": 9091,
      "issa": 9092,
      "orc": 9093,
      "leck": 9094,
      "bels": 9095,
      "lips": 9096,
      "plausible": 9097,
      "exhibit": 9098,
      "confin": 9099,
      "Whoop": 9100,
      "clar": 9101,
      "orton": 9102,
      "viewings": 9103,
      "dragon": 9104,
      "attribut": 9105,
      "attitudes": 9106,
      "helpless": 9107,
      "letters": 9108,
      "collap": 9109,
      "Arm": 9110,
      "Shame": 9111,
      "alongside": 9112,
      "eryl": 9113,
      "confident": 9114,
      "inov": 9115,
      "Meg": 9116,
      "Colon": 9117,
      "equip": 9118,
      "waitress": 9119,
      "ritual": 9120,
      "arrival": 9121,
      "fascinated": 9122,
      "witnesses": 9123,
      "witnessed": 9124,
      "wisdom": 9125,
      "transc": 9126,
      "proceeds": 9127,
      "challenging": 9128,
      "Carell": 9129,
      "Barrymore": 9130,
      "losers": 9131,
      "patients": 9132,
      "Funny": 9133,
      "intimate": 9134,
      "Bacall": 9135,
      "analysis": 9136,
      "Drake": 9137,
      "incomprehensible": 9138,
      "Aug": 9139,
      "Duch": 9140,
      "Either": 9141,
      "Nico": 9142,
      "Penn": 9143,
      "Sta": 9144,
      "Simply": 9145,
      "bite": 9146,
      "fur": 9147,
      "mn": 9148,
      "pard": 9149,
      "rats": 9150,
      "waves": 9151,
      "yelling": 9152,
      "recycl": 9153,
      "chant": 9154,
      "chann": 9155,
      "termin": 9156,
      "ambi": 9157,
      "Theater": 9158,
      "shod": 9159,
      "deaf": 9160,
      "demented": 9161,
      "prev": 9162,
      "indic": 9163,
      "blic": 9164,
      "cia": 9165,
      "bergh": 9166,
      "Alone": 9167,
      "Alison": 9168,
      "visions": 9169,
      "subplots": 9170,
      "bush": 9171,
      "compelled": 9172,
      "Rooney": 9173,
      "advanced": 9174,
      "McLag": 9175,
      "opinions": 9176,
      "aristocr": 9177,
      "respected": 9178,
      "Poss": 9179,
      "Walsh": 9180,
      "equivalent": 9181,
      "appreciation": 9182,
      "dropping": 9183,
      "pattern": 9184,
      "OULD": 9185,
      "recognizable": 9186,
      "satisfy": 9187,
      "ceiving": 9188,
      "Rukh": 9189,
      "assured": 9190,
      "species": 9191,
      "substit": 9192,
      "imaginable": 9193,
      "widely": 9194,
      "Girls": 9195,
      "Secondly": 9196,
      "accomplish": 9197,
      "custo": 9198,
      "Dolph": 9199,
      "ensues": 9200,
      "Dais": 9201,
      "mundane": 9202,
      "snake": 9203,
      "dreary": 9204,
      "73": 9205,
      "Gent": 9206,
      "Hat": 9207,
      "Jac": 9208,
      "Kuro": 9209,
      "Zize": 9210,
      "dor": 9211,
      "dirt": 9212,
      "fuss": 9213,
      "gins": 9214,
      "lun": 9215,
      "mp": 9216,
      "nit": 9217,
      "pound": 9218,
      "tv": 9219,
      "tends": 9220,
      "zard": 9221,
      "revi": 9222,
      "aled": 9223,
      "asto": 9224,
      "arse": 9225,
      "mod": 9226,
      "iceless": 9227,
      "unden": 9228,
      "illusion": 9229,
      "troops": 9230,
      "exposure": 9231,
      "poser": 9232,
      "meas": 9233,
      "seeks": 9234,
      "plex": 9235,
      "ours": 9236,
      "ptic": 9237,
      "avia": 9238,
      "showcase": 9239,
      "parties": 9240,
      "desp": 9241,
      "flag": 9242,
      "centers": 9243,
      "performs": 9244,
      "azaki": 9245,
      "huh": 9246,
      "Novak": 9247,
      "Reid": 9248,
      "Marion": 9249,
      "namely": 9250,
      "pushing": 9251,
      "wishing": 9252,
      "RED": 9253,
      "Justin": 9254,
      "1984": 9255,
      "onica": 9256,
      "floating": 9257,
      "Belushi": 9258,
      "exceptionally": 9259,
      "panic": 9260,
      "Zombies": 9261,
      "eaten": 9262,
      "transp": 9263,
      "significance": 9264,
      "manipulative": 9265,
      "Ashley": 9266,
      "civilization": 9267,
      "Molly": 9268,
      "Amazing": 9269,
      "wandering": 9270,
      "parallel": 9271,
      "survivors": 9272,
      "bottle": 9273,
      "fiancé": 9274,
      "robbery": 9275,
      "Psycho": 9276,
      "Egypt": 9277,
      "Wagner": 9278,
      "grotesque": 9279,
      "channels": 9280,
      "Zizek": 9281,
      "30s": 9282,
      "75": 9283,
      "Creat": 9284,
      "Case": 9285,
      "Happy": 9286,
      "Hmm": 9287,
      "Less": 9288,
      "Ust": 9289,
      "Vie": 9290,
      "gery": 9291,
      "nan": 9292,
      "och": 9293,
      "pson": 9294,
      "erto": 9295,
      "ona": 9296,
      "ora": 9297,
      "ioni": 9298,
      "irrelevant": 9299,
      "robe": 9300,
      "shoo": 9301,
      "urity": 9302,
      "exceed": 9303,
      "inding": 9304,
      "umber": 9305,
      "overs": 9306,
      "guitar": 9307,
      "earn": 9308,
      "aws": 9309,
      "awfully": 9310,
      "uding": 9311,
      "brid": 9312,
      "ansas": 9313,
      "drum": 9314,
      "Alfred": 9315,
      "ems": 9316,
      "smiling": 9317,
      "classical": 9318,
      "heading": 9319,
      "campa": 9320,
      "Road": 9321,
      "Carla": 9322,
      "History": 9323,
      "logically": 9324,
      "masterpieces": 9325,
      "bargain": 9326,
      "rising": 9327,
      "claiming": 9328,
      "Keith": 9329,
      "Angels": 9330,
      "Quinn": 9331,
      "popularity": 9332,
      "vengeance": 9333,
      "cleverly": 9334,
      "Willie": 9335,
      "Better": 9336,
      "Earl": 9337,
      "1933": 9338,
      "Ruby": 9339,
      "Sunshine": 9340,
      "Angela": 9341,
      "Thompson": 9342,
      "SEE": 9343,
      "employ": 9344,
      "warmth": 9345,
      "stretched": 9346,
      "Cassave": 9347,
      "Cassidy": 9348,
      "alternate": 9349,
      "Cruise": 9350,
      "trademark": 9351,
      "NYC": 9352,
      "rotten": 9353,
      "demanding": 9354,
      "methods": 9355,
      "Watson": 9356,
      "wrestling": 9357,
      "chooses": 9358,
      "mechanical": 9359,
      "Furthermore": 9360,
      "opportunities": 9361,
      "Antwone": 9362,
      "Soderbergh": 9363,
      "astound": 9364,
      "Cec": 9365,
      "Fell": 9366,
      "HU": 9367,
      "Jar": 9368,
      "Jet": 9369,
      "cities": 9370,
      "ement": 9371,
      "goo": 9372,
      "pha": 9373,
      "tan": 9374,
      "incompetent": 9375,
      "reson": 9376,
      "online": 9377,
      "stable": 9378,
      "secut": 9379,
      "whis": 9380,
      "whack": 9381,
      "unaware": 9382,
      "perpet": 9383,
      "consum": 9384,
      "quit": 9385,
      "charged": 9386,
      "mentions": 9387,
      "owned": 9388,
      "bleed": 9389,
      "blings": 9390,
      "minimum": 9391,
      "coat": 9392,
      "comparing": 9393,
      "landing": 9394,
      "valid": 9395,
      "rude": 9396,
      "creator": 9397,
      "creativity": 9398,
      "morbid": 9399,
      "clip": 9400,
      "masterful": 9401,
      "purposes": 9402,
      "suspicious": 9403,
      "Orleans": 9404,
      "counts": 9405,
      "ordered": 9406,
      "hilariously": 9407,
      "1987": 9408,
      "Poe": 9409,
      "combine": 9410,
      "literature": 9411,
      "Emp": 9412,
      "dressing": 9413,
      "recording": 9414,
      "protest": 9415,
      "industrial": 9416,
      "princess": 9417,
      "bumbling": 9418,
      "alternative": 9419,
      "abrina": 9420,
      "excessive": 9421,
      "assigned": 9422,
      "Owen": 9423,
      "warrior": 9424,
      "empathy": 9425,
      "gifted": 9426,
      "Scotland": 9427,
      "caliber": 9428,
      "nephew": 9429,
      "travesty": 9430,
      "equipment": 9431,
      "Cro": 9432,
      "Hob": 9433,
      "Meryl": 9434,
      "Rent": 9435,
      "Spain": 9436,
[...]
